{
  "version": "1.0",
  "truncation": null,
  "padding": null,
  "added_tokens": [
    {
      "id": 0,
      "content": "<|endoftext|>",
      "single_word": false,
      "lstrip": false,
      "rstrip": false,
      "normalized": false,
      "special": true
    },
    {
      "id": 1,
      "content": "<|pad|>",
      "single_word": false,
      "lstrip": false,
      "rstrip": false,
      "normalized": false,
      "special": true
    },
    {
      "id": 2,
      "content": "<|fim_prefix|>",
      "single_word": false,
      "lstrip": false,
      "rstrip": false,
      "normalized": false,
      "special": true
    },
    {
      "id": 3,
      "content": "<|fim_suffix|>",
      "single_word": false,
      "lstrip": false,
      "rstrip": false,
      "normalized": false,
      "special": true
    },
    {
      "id": 4,
      "content": "<|fim_middle|>",
      "single_word": false,
      "lstrip": false,
      "rstrip": false,
      "normalized": false,
      "special": true
    },
    {
      "id": 5,
      "content": "<|repo_start|>",
      "single_word": false,
      "lstrip": false,
      "rstrip": false,
      "normalized": false,
      "special": true
    },
    {
      "id": 6,
      "content": "<|repo_end|>",
      "single_word": false,
      "lstrip": false,
      "rstrip": false,
      "normalized": false,
      "special": true
    },
    {
      "id": 7,
      "content": "<|file_start|>",
      "single_word": false,
      "lstrip": false,
      "rstrip": false,
      "normalized": false,
      "special": true
    },
    {
      "id": 8,
      "content": "<|file_end|>",
      "single_word": false,
      "lstrip": false,
      "rstrip": false,
      "normalized": false,
      "special": true
    },
    {
      "id": 9,
      "content": "<|system|>",
      "single_word": false,
      "lstrip": false,
      "rstrip": false,
      "normalized": false,
      "special": true
    },
    {
      "id": 10,
      "content": "<|user|>",
      "single_word": false,
      "lstrip": false,
      "rstrip": false,
      "normalized": false,
      "special": true
    },
    {
      "id": 11,
      "content": "<|assistant|>",
      "single_word": false,
      "lstrip": false,
      "rstrip": false,
      "normalized": false,
      "special": true
    },
    {
      "id": 12,
      "content": "<|tool_call|>",
      "single_word": false,
      "lstrip": false,
      "rstrip": false,
      "normalized": false,
      "special": true
    },
    {
      "id": 13,
      "content": "<|tool_result|>",
      "single_word": false,
      "lstrip": false,
      "rstrip": false,
      "normalized": false,
      "special": true
    },
    {
      "id": 14,
      "content": "<|end_message|>",
      "single_word": false,
      "lstrip": false,
      "rstrip": false,
      "normalized": false,
      "special": true
    }
  ],
  "normalizer": null,
  "pre_tokenizer": {
    "type": "ByteLevel",
    "add_prefix_space": false,
    "trim_offsets": true,
    "use_regex": true
  },
  "post_processor": null,
  "decoder": {
    "type": "ByteLevel",
    "add_prefix_space": true,
    "trim_offsets": true,
    "use_regex": true
  },
  "model": {
    "type": "BPE",
    "dropout": null,
    "unk_token": null,
    "continuing_subword_prefix": null,
    "end_of_word_suffix": null,
    "fuse_unk": false,
    "byte_fallback": false,
    "ignore_merges": false,
    "vocab": {
      "<|endoftext|>": 0,
      "<|pad|>": 1,
      "<|fim_prefix|>": 2,
      "<|fim_suffix|>": 3,
      "<|fim_middle|>": 4,
      "<|repo_start|>": 5,
      "<|repo_end|>": 6,
      "<|file_start|>": 7,
      "<|file_end|>": 8,
      "<|system|>": 9,
      "<|user|>": 10,
      "<|assistant|>": 11,
      "<|tool_call|>": 12,
      "<|tool_result|>": 13,
      "<|end_message|>": 14,
      "!": 15,
      "\"": 16,
      "#": 17,
      "$": 18,
      "%": 19,
      "&": 20,
      "'": 21,
      "(": 22,
      ")": 23,
      "*": 24,
      "+": 25,
      ",": 26,
      "-": 27,
      ".": 28,
      "/": 29,
      "0": 30,
      "1": 31,
      "2": 32,
      "3": 33,
      "4": 34,
      "5": 35,
      "6": 36,
      "7": 37,
      "8": 38,
      "9": 39,
      ":": 40,
      ";": 41,
      "<": 42,
      "=": 43,
      ">": 44,
      "?": 45,
      "@": 46,
      "A": 47,
      "B": 48,
      "C": 49,
      "D": 50,
      "E": 51,
      "F": 52,
      "G": 53,
      "H": 54,
      "I": 55,
      "J": 56,
      "K": 57,
      "L": 58,
      "M": 59,
      "N": 60,
      "O": 61,
      "P": 62,
      "Q": 63,
      "R": 64,
      "S": 65,
      "T": 66,
      "U": 67,
      "V": 68,
      "W": 69,
      "X": 70,
      "Y": 71,
      "Z": 72,
      "[": 73,
      "\\": 74,
      "]": 75,
      "^": 76,
      "_": 77,
      "`": 78,
      "a": 79,
      "b": 80,
      "c": 81,
      "d": 82,
      "e": 83,
      "f": 84,
      "g": 85,
      "h": 86,
      "i": 87,
      "j": 88,
      "k": 89,
      "l": 90,
      "m": 91,
      "n": 92,
      "o": 93,
      "p": 94,
      "q": 95,
      "r": 96,
      "s": 97,
      "t": 98,
      "u": 99,
      "v": 100,
      "w": 101,
      "x": 102,
      "y": 103,
      "z": 104,
      "{": 105,
      "|": 106,
      "}": 107,
      "~": 108,
      "¡": 109,
      "¢": 110,
      "£": 111,
      "¤": 112,
      "¥": 113,
      "¦": 114,
      "§": 115,
      "¨": 116,
      "©": 117,
      "ª": 118,
      "«": 119,
      "¬": 120,
      "®": 121,
      "¯": 122,
      "°": 123,
      "±": 124,
      "²": 125,
      "³": 126,
      "´": 127,
      "µ": 128,
      "¶": 129,
      "·": 130,
      "¸": 131,
      "¹": 132,
      "º": 133,
      "»": 134,
      "¼": 135,
      "½": 136,
      "¾": 137,
      "¿": 138,
      "À": 139,
      "Á": 140,
      "Â": 141,
      "Ã": 142,
      "Ä": 143,
      "Å": 144,
      "Æ": 145,
      "Ç": 146,
      "È": 147,
      "É": 148,
      "Ê": 149,
      "Ë": 150,
      "Ì": 151,
      "Í": 152,
      "Î": 153,
      "Ï": 154,
      "Ð": 155,
      "Ñ": 156,
      "Ò": 157,
      "Ó": 158,
      "Ô": 159,
      "Õ": 160,
      "Ö": 161,
      "×": 162,
      "Ø": 163,
      "Ù": 164,
      "Ú": 165,
      "Û": 166,
      "Ü": 167,
      "Ý": 168,
      "Þ": 169,
      "ß": 170,
      "à": 171,
      "á": 172,
      "â": 173,
      "ã": 174,
      "ä": 175,
      "å": 176,
      "æ": 177,
      "ç": 178,
      "è": 179,
      "é": 180,
      "ê": 181,
      "ë": 182,
      "ì": 183,
      "í": 184,
      "î": 185,
      "ï": 186,
      "ð": 187,
      "ñ": 188,
      "ò": 189,
      "ó": 190,
      "ô": 191,
      "õ": 192,
      "ö": 193,
      "÷": 194,
      "ø": 195,
      "ù": 196,
      "ú": 197,
      "û": 198,
      "ü": 199,
      "ý": 200,
      "þ": 201,
      "ÿ": 202,
      "Ā": 203,
      "ā": 204,
      "Ă": 205,
      "ă": 206,
      "Ą": 207,
      "ą": 208,
      "Ć": 209,
      "ć": 210,
      "Ĉ": 211,
      "ĉ": 212,
      "Ċ": 213,
      "ċ": 214,
      "Č": 215,
      "č": 216,
      "Ď": 217,
      "ď": 218,
      "Đ": 219,
      "đ": 220,
      "Ē": 221,
      "ē": 222,
      "Ĕ": 223,
      "ĕ": 224,
      "Ė": 225,
      "ė": 226,
      "Ę": 227,
      "ę": 228,
      "Ě": 229,
      "ě": 230,
      "Ĝ": 231,
      "ĝ": 232,
      "Ğ": 233,
      "ğ": 234,
      "Ġ": 235,
      "ġ": 236,
      "Ģ": 237,
      "ģ": 238,
      "Ĥ": 239,
      "ĥ": 240,
      "Ħ": 241,
      "ħ": 242,
      "Ĩ": 243,
      "ĩ": 244,
      "Ī": 245,
      "ī": 246,
      "Ĭ": 247,
      "ĭ": 248,
      "Į": 249,
      "į": 250,
      "İ": 251,
      "ı": 252,
      "Ĳ": 253,
      "ĳ": 254,
      "Ĵ": 255,
      "ĵ": 256,
      "Ķ": 257,
      "ķ": 258,
      "ĸ": 259,
      "Ĺ": 260,
      "ĺ": 261,
      "Ļ": 262,
      "ļ": 263,
      "Ľ": 264,
      "ľ": 265,
      "Ŀ": 266,
      "ŀ": 267,
      "Ł": 268,
      "ł": 269,
      "Ń": 270,
      "ĠĠ": 271,
      "ĠĠĠĠ": 272,
      "ĠĠĠ": 273,
      "er": 274,
      "in": 275,
      "ĠĠĠĠĠĠĠĠ": 276,
      "on": 277,
      "re": 278,
      "Ġt": 279,
      "at": 280,
      "st": 281,
      "or": 282,
      "en": 283,
      "Ġa": 284,
      "le": 285,
      "se": 286,
      "he": 287,
      "Ġc": 288,
      "ĊĠĠĠĠ": 289,
      "it": 290,
      "al": 291,
      "ĊĠĠĠ": 292,
      "an": 293,
      "ar": 294,
      "ĊĠĠĠĠĠĠĠĠ": 295,
      "Ġ=": 296,
      "ion": 297,
      "de": 298,
      "ro": 299,
      "Ġf": 300,
      "ct": 301,
      "me": 302,
      "--": 303,
      "Ġp": 304,
      "ĊĠĠĠĠĠĠĠ": 305,
      "is": 306,
      "Ġ\"": 307,
      "ing": 308,
      "Ġthe": 309,
      "es": 310,
      "ic": 311,
      "Ġ{": 312,
      "Ġs": 313,
      "ou": 314,
      "ent": 315,
      "ge": 316,
      "Ġb": 317,
      "Ġn": 318,
      "Ġw": 319,
      "ed": 320,
      "Ġo": 321,
      "as": 322,
      "Ġin": 323,
      "Ġre": 324,
      "lo": 325,
      "mp": 326,
      ");": 327,
      "ĉĉ": 328,
      "ĊĠ": 329,
      "ut": 330,
      "Ġm": 331,
      "id": 332,
      "nd": 333,
      "Ġ}": 334,
      "//": 335,
      "ur": 336,
      "il": 337,
      "Ġ'": 338,
      "ex": 339,
      "Ġd": 340,
      "ac": 341,
      "if": 342,
      "Ġ(": 343,
      "ate": 344,
      "Ġto": 345,
      "co": 346,
      "ad": 347,
      "ame": 348,
      "ĊĠĠĠĠĠĠĠĠĠĠĠ": 349,
      "00": 350,
      "ig": 351,
      "el": 352,
      "ue": 353,
      "pe": 354,
      "un": 355,
      "th": 356,
      "Ġth": 357,
      "ul": 358,
      "ol": 359,
      "Ġof": 360,
      "()": 361,
      "----": 362,
      "ch": 363,
      "\",": 364,
      "ation": 365,
      "**": 366,
      "Ġ1": 367,
      "ot": 368,
      "ra": 369,
      "Ġv": 370,
      "Ġh": 371,
      "ort": 372,
      "##": 373,
      "ri": 374,
      "Ġst": 375,
      "ab": 376,
      "et": 377,
      "Ġand": 378,
      "ĠĠĠĠĠĠĠ": 379,
      "Ġ0": 380,
      "Ġse": 381,
      "ĠS": 382,
      "us": 383,
      "um": 384,
      "Ġ-": 385,
      "ce": 386,
      "li": 387,
      "ht": 388,
      "',": 389,
      "Ġ<": 390,
      "ve": 391,
      "Ġ*": 392,
      "ĊĠĠĠĠĠ": 393,
      "Ġcon": 394,
      "ĊĠĠĠĠĠĠĠĠĠĠĠĠĠĠĠĠ": 395,
      "ĠT": 396,
      "\":": 397,
      "ter": 398,
      "Ġde": 399,
      "ĠC": 400,
      "pt": 401,
      "ss": 402,
      "ub": 403,
      "ction": 404,
      "Ġ[": 405,
      "ma": 406,
      "ĠA": 407,
      "lf": 408,
      "urn": 409,
      "=\"": 410,
      "ass": 411,
      "Ċĉĉ": 412,
      "ver": 413,
      "Ġfor": 414,
      "Ċĉ": 415,
      "==": 416,
      "con": 417,
      "Ġis": 418,
      "ew": 419,
      "get": 420,
      "ith": 421,
      "te": 422,
      "turn": 423,
      "pp": 424,
      "ata": 425,
      "ĠI": 426,
      "to": 427,
      "imp": 428,
      "ay": 429,
      "tr": 430,
      "ĊĠĠĠĠĠĠĠĠĠĠĠĠĠĠĠ": 431,
      "Ġe": 432,
      "rom": 433,
      "ode": 434,
      "od": 435,
      "end": 436,
      "ext": 437,
      "ile": 438,
      "Ġl": 439,
      "ype": 440,
      "::": 441,
      "ow": 442,
      "age": 443,
      "Ġg": 444,
      "Ġ2": 445,
      "nt": 446,
      "ment": 447,
      "tp": 448,
      "ir": 449,
      "sp": 450,
      "Ġif": 451,
      "ist": 452,
      "ers": 453,
      "ĠP": 454,
      "om": 455,
      "am": 456,
      "int": 457,
      "and": 458,
      "iz": 459,
      "ect": 460,
      "up": 461,
      "qu": 462,
      "</": 463,
      "ke": 464,
      "ult": 465,
      "Ġ|": 466,
      "ly": 467,
      "ĊĊĠĠĠ": 468,
      "ck": 469,
      "lass": 470,
      "Re": 471,
      "our": 472,
      "Ġbe": 473,
      "import": 474,
      "able": 475,
      "ĠN": 476,
      "(\"": 477,
      "ack": 478,
      "),": 479,
      "``": 480,
      "ĠD": 481,
      "ĠĠĠĠĠĠĠĠĠĠĠĠĠĠĠĠ": 482,
      "Ġy": 483,
      "ĠM": 484,
      "--------": 485,
      "Ġreturn": 486,
      "Ġthis": 487,
      "Ġon": 488,
      "di": 489,
      "ase": 490,
      "com": 491,
      "Ġself": 492,
      "('": 493,
      "ĊĊ": 494,
      "ag": 495,
      "Ġr": 496,
      "Ġpro": 497,
      "ap": 498,
      "res": 499,
      "alue": 500,
      "Ġ`": 501,
      "Ġex": 502,
      "err": 503,
      "name": 504,
      "In": 505,
      "ert": 506,
      "..": 507,
      "im": 508,
      "ine": 509,
      "ath": 510,
      "art": 511,
      "Ġ#": 512,
      "os": 513,
      "orm": 514,
      "str": 515,
      "://": 516,
      "Ġfrom": 517,
      "lic": 518,
      "op": 519,
      ").": 520,
      "20": 521,
      "ption": 522,
      "Ġ:": 523,
      "set": 524,
      "ĠF": 525,
      "ime": 526,
      "Ġu": 527,
      "ord": 528,
      "em": 529,
      "Ġas": 530,
      "ight": 531,
      "ĠE": 532,
      "ess": 533,
      "Ġ//": 534,
      "out": 535,
      "Ġle": 536,
      "Ġ+": 537,
      "Ġ$": 538,
      "ff": 539,
      "ject": 540,
      "Ġit": 541,
      "ĠL": 542,
      "ĠB": 543,
      "ity": 544,
      "est": 545,
      "all": 546,
      "Ġan": 547,
      "ont": 548,
      "http": 549,
      "\">": 550,
      "Ġal": 551,
      "Ġwith": 552,
      "__": 553,
      "],": 554,
      "Ġwh": 555,
      "oc": 556,
      "sc": 557,
      "):": 558,
      "ize": 559,
      "Ġtr": 560,
      "ĠO": 561,
      "ure": 562,
      "log": 563,
      "one": 564,
      "Ġthat": 565,
      "Ġclass": 566,
      "ser": 567,
      "))": 568,
      "ä¸": 569,
      "ore": 570,
      "pro": 571,
      "Ġ=>": 572,
      "Ġstr": 573,
      "ain": 574,
      "ĠR": 575,
      "âĢ": 576,
      "****": 577,
      "St": 578,
      "que": 579,
      "ĊĠĠĠĠĠĠĠĠĠĠĠĠĠĠĠĠĠĠĠ": 580,
      "Ġme": 581,
      "Ġor": 582,
      "ber": 583,
      "unction": 584,
      "ice": 585,
      "ial": 586,
      "ind": 587,
      "act": 588,
      "ace": 589,
      "Ġ.": 590,
      "sh": 591,
      "####": 592,
      "ĊĠĠĠĠĠĠĠĠĠ": 593,
      "ĠG": 594,
      "](": 595,
      "omp": 596,
      "ive": 597,
      "ip": 598,
      "Ġ3": 599,
      "self": 600,
      "ant": 601,
      "====": 602,
      "ĠW": 603,
      "Ġ&": 604,
      "are": 605,
      "Ġ/": 606,
      "lu": 607,
      "Ġdef": 608,
      "ire": 609,
      "ï¼": 610,
      "ost": 611,
      "10": 612,
      "fig": 613,
      "Ġconst": 614,
      "ER": 615,
      "Ġi": 616,
      "form": 617,
      "ill": 618,
      "ies": 619,
      "https": 620,
      "Ġnot": 621,
      "();": 622,
      "av": 623,
      "ans": 624,
      "ld": 625,
      "ild": 626,
      "ĠU": 627,
      "oo": 628,
      "ĠH": 629,
      "Name": 630,
      "Ġch": 631,
      "Ġname": 632,
      "ull": 633,
      "ign": 634,
      "cc": 635,
      "ere": 636,
      "pl": 637,
      "key": 638,
      "data": 639,
      "12": 640,
      "dd": 641,
      "Ġcont": 642,
      "ount": 643,
      "Ġare": 644,
      "\")": 645,
      "low": 646,
      "ast": 647,
      "ãģ": 648,
      "iv": 649,
      "Ġ@": 650,
      "def": 651,
      "ard": 652,
      "ory": 653,
      "js": 654,
      "Ġerr": 655,
      "user": 656,
      "Ġli": 657,
      "ON": 658,
      "put": 659,
      "ĊĊĠĠĠĠĠĠĠ": 660,
      "ition": 661,
      "ite": 662,
      "par": 663,
      "port": 664,
      "umber": 665,
      "type": 666,
      "iew": 667,
      "IN": 668,
      "ĠĠĠĠĠ": 669,
      "ll": 670,
      "Ġhe": 671,
      "```": 672,
      "Ġnew": 673,
      "quest": 674,
      "vent": 675,
      "ork": 676,
      "à¤": 677,
      "Ġuse": 678,
      "Ġby": 679,
      "amp": 680,
      "rr": 681,
      "->": 682,
      "ome": 683,
      "Ġ},": 684,
      "app": 685,
      "ĠThe": 686,
      "ated": 687,
      "')": 688,
      "ave": 689,
      "ide": 690,
      "cont": 691,
      "alse": 692,
      "ec": 693,
      "div": 694,
      "0000": 695,
      "11": 696,
      "čĊ": 697,
      "bject": 698,
      "Ġres": 699,
      "Ġ==": 700,
      "ust": 701,
      "Ġsh": 702,
      "uct": 703,
      "ang": 704,
      "dex": 705,
      "ĠV": 706,
      "add": 707,
      "Ġdata": 708,
      "ĊĊĠ": 709,
      "ance": 710,
      "Ġyou": 711,
      "return": 712,
      "vice": 713,
      "ph": 714,
      "Id": 715,
      "ault": 716,
      "odel": 717,
      "Ġel": 718,
      "Pro": 719,
      "Ġlet": 720,
      "Ġat": 721,
      "atch": 722,
      "ress": 723,
      "Ġ4": 724,
      "Ġcan": 725,
      "32": 726,
      "per": 727,
      "tring": 728,
      "Ġ!": 729,
      "file": 730,
      "ange": 731,
      "val": 732,
      "01": 733,
      "ref": 734,
      "Ġlo": 735,
      "col": 736,
      "RE": 737,
      "arg": 738,
      "bo": 739,
      "çļ": 740,
      "iel": 741,
      "çļĦ": 742,
      "Ġstring": 743,
      "row": 744,
      "px": 745,
      "pect": 746,
      "Ġget": 747,
      "ource": 748,
      "64": 749,
      "rib": 750,
      "reate": 751,
      "----------------": 752,
      "ft": 753,
      "Cont": 754,
      "les": 755,
      "ak": 756,
      "Ġen": 757,
      "test": 758,
      "ï¼Į": 759,
      "ary": 760,
      "ield": 761,
      "Ġvalue": 762,
      "Ġdo": 763,
      "['": 764,
      "Ċĉĉĉĉ": 765,
      "Ġ</": 766,
      "this": 767,
      "Type": 768,
      "lement": 769,
      "so": 770,
      "Ġun": 771,
      "Ċĉĉĉ": 772,
      "lect": 773,
      "99": 774,
      "span": 775,
      "eb": 776,
      "Ġ5": 777,
      "che": 778,
      "po": 779,
      "Ġ_": 780,
      "date": 781,
      "AT": 782,
      "Ġj": 783,
      "ml": 784,
      "rror": 785,
      "ould": 786,
      "ail": 787,
      "sion": 788,
      "Ġar": 789,
      "Con": 790,
      "mo": 791,
      "ĠIn": 792,
      "ong": 793,
      "Ġk": 794,
      "omm": 795,
      "><": 796,
      "rint": 797,
      "16": 798,
      "ray": 799,
      "ĊĠĠĠĠĠĠĠĠĠĠĠĠĠĠĠĠĠĠĠĠĠĠĠĠ": 800,
      "ithub": 801,
      "fo": 802,
      "';": 803,
      "Ex": 804,
      "\"\"": 805,
      "mage": 806,
      "},": 807,
      "ib": 808,
      "ST": 809,
      "Ġset": 810,
      "Ġfunction": 811,
      "25": 812,
      "ug": 813,
      "ublic": 814,
      "ach": 815,
      "Ġcomp": 816,
      "ix": 817,
      "ther": 818,
      "ator": 819,
      "path": 820,
      "und": 821,
      "Ġvar": 822,
      "ep": 823,
      "code": 824,
      "EN": 825,
      "own": 826,
      "use": 827,
      "ãĢ": 828,
      "github": 829,
      "og": 830,
      "uth": 831,
      "uild": 832,
      "Ġ*/": 833,
      "ĠRe": 834,
      "ink": 835,
      "Ġfile": 836,
      "18": 837,
      "ĊĠĠĠĠĠĠĠĠĠĠĠĠĠĠĠĠĠĠĠĠĠĠĠ": 838,
      "':": 839,
      "15": 840,
      "To": 841,
      "ument": 842,
      "ID": 843,
      "load": 844,
      "ence": 845,
      "td": 846,
      "time": 847,
      "Ġtype": 848,
      "Ġelse": 849,
      "Ġtrue": 850,
      "lient": 851,
      "abel": 852,
      "']": 853,
      "../": 854,
      "Error": 855,
      "yn": 856,
      "io": 857,
      "atus": 858,
      "lock": 859,
      "string": 860,
      "ms": 861,
      "14": 862,
      "ww": 863,
      "unc": 864,
      "ery": 865,
      "ener": 866,
      "Ġ>": 867,
      "Ġcol": 868,
      "Ġma": 869,
      "Ġwe": 870,
      "eng": 871,
      "ĠJ": 872,
      "Ġpar": 873,
      "********": 874,
      "Res": 875,
      "Ġ:=": 876,
      "Ġtest": 877,
      "clu": 878,
      "onse": 879,
      "ule": 880,
      "min": 881,
      "Ġapp": 882,
      "urre": 883,
      "ef": 884,
      "ash": 885,
      "onent": 886,
      "var": 887,
      "roup": 888,
      "02": 889,
      "pec": 890,
      "Data": 891,
      "Ġnumber": 892,
      "ssage": 893,
      "ations": 894,
      "Ġid": 895,
      "19": 896,
      "ĠÐ": 897,
      "Ġint": 898,
      "Ġì": 899,
      "from": 900,
      "url": 901,
      "LE": 902,
      "itle": 903,
      "line": 904,
      "read": 905,
      "ense": 906,
      "ob": 907,
      "ps": 908,
      "ise": 909,
      "idth": 910,
      "Ġsu": 911,
      "åı": 912,
      "ken": 913,
      "IT": 914,
      "value": 915,
      "Ġ)": 916,
      "ical": 917,
      "Ġwill": 918,
      "ĊĠĠ": 919,
      "ãĤ": 920,
      "Ġ\\": 921,
      "ual": 922,
      "ree": 923,
      "Ġ--": 924,
      "size": 925,
      "ng": 926,
      "Ch": 927,
      "ute": 928,
      "LL": 929,
      "ell": 930,
      "ä»": 931,
      "13": 932,
      "AR": 933,
      "ound": 934,
      "oid": 935,
      "čĊĠĠĠ": 936,
      "String": 937,
      "ded": 938,
      "quire": 939,
      "========": 940,
      "Ġx": 941,
      "scri": 942,
      "const": 943,
      "comp": 944,
      "yle": 945,
      "OR": 946,
      "ry": 947,
      "17": 948,
      "ask": 949,
      "ĠTh": 950,
      "br": 951,
      "new": 952,
      "arch": 953,
      "class": 954,
      "Ġup": 955,
      "Ser": 956,
      "rc": 957,
      "Ġhave": 958,
      "ptions": 959,
      "Ġass": 960,
      "ton": 961,
      "yp": 962,
      "Ġimport": 963,
      "list": 964,
      "Ġpl": 965,
      "ne": 966,
      "ia": 967,
      "Ġend": 968,
      "ich": 969,
      "order": 970,
      "json": 971,
      "Ġro": 972,
      "\"]": 973,
      "for": 974,
      "Ġfalse": 975,
      "Ġval": 976,
      "ors": 977,
      "Ġus": 978,
      "33": 979,
      "cl": 980,
      "fer": 981,
      "ãĥ": 982,
      "SE": 983,
      "old": 984,
      "text": 985,
      "Ġnull": 986,
      "urrent": 987,
      "Ġtime": 988,
      "mit": 989,
      "ger": 990,
      "ĊĠĠĠĠĠĠĠĠĠĠĠĠĠĠĠĠĠĠĠĠĠĠĠĠĠĠĠĠĠĠĠĠ": 991,
      "List": 992,
      "cal": 993,
      "let": 994,
      "={": 995,
      "Ð¾": 996,
      "########": 997,
      "The": 998,
      "ader": 999,
      "Ġ%": 1000,
      "ĊĠĠĠĠĠĠĠĠĠĠĠĠĠ": 1001,
      "pos": 1002,
      "enc": 1003,
      "Ke": 1004,
      "Ġyour": 1005,
      "ME": 1006,
      "._": 1007,
      "04": 1008,
      "thod": 1009,
      "Ġall": 1010,
      "Ġdis": 1011,
      "ock": 1012,
      "nder": 1013,
      "export": 1014,
      "\";": 1015,
      "äº": 1016,
      "Tr": 1017,
      "ues": 1018,
      "py": 1019,
      "yst": 1020,
      "ttp": 1021,
      "cre": 1022,
      "Ġser": 1023,
      "back": 1024,
      "ca": 1025,
      "param": 1026,
      "ength": 1027,
      "Ġ});": 1028,
      "ark": 1029,
      "qual": 1030,
      "Se": 1031,
      "cess": 1032,
      "().": 1033,
      "Ġ6": 1034,
      "tern": 1035,
      "ings": 1036,
      "////": 1037,
      "Ġadd": 1038,
      "='": 1039,
      "emp": 1040,
      "md": 1041,
      "ample": 1042,
      "Ġ!=": 1043,
      "Ġwas": 1044,
      "Ġne": 1045,
      "work": 1046,
      "Ġinst": 1047,
      "riv": 1048,
      "\");": 1049,
      "âĢĻ": 1050,
      "utton": 1051,
      "Ðµ": 1052,
      "Key": 1053,
      "22": 1054,
      "05": 1055,
      "Ġ->": 1056,
      "Ġab": 1057,
      "ates": 1058,
      "ific": 1059,
      "pert": 1060,
      "75": 1061,
      "ann": 1062,
      "æľ": 1063,
      "led": 1064,
      "ystem": 1065,
      "atic": 1066,
      "\",\"": 1067,
      "ache": 1068,
      "round": 1069,
      "Ġnil": 1070,
      "play": 1071,
      "08": 1072,
      "html": 1073,
      "'s": 1074,
      "AN": 1075,
      "function": 1076,
      "Ð°": 1077,
      "ud": 1078,
      "03": 1079,
      "(),": 1080,
      "');": 1081,
      "${": 1082,
      "ify": 1083,
      "cri": 1084,
      "arget": 1085,
      "CT": 1086,
      "ifi": 1087,
      "Ġpublic": 1088,
      "åĪ": 1089,
      "Col": 1090,
      "irst": 1091,
      "].": 1092,
      "ãĢĤ": 1093,
      "ait": 1094,
      "ens": 1095,
      "Ar": 1096,
      "pre": 1097,
      "];": 1098,
      "index": 1099,
      "AL": 1100,
      "07": 1101,
      "du": 1102,
      "Ġcomm": 1103,
      "we": 1104,
      "ody": 1105,
      "24": 1106,
      "])": 1107,
      "ersion": 1108,
      "Ġresult": 1109,
      "ccess": 1110,
      "config": 1111,
      "06": 1112,
      "ool": 1113,
      "org": 1114,
      "Ġper": 1115,
      "({": 1116,
      "ie": 1117,
      "ĠK": 1118,
      "...": 1119,
      "clude": 1120,
      "čĊĠĠĠĠĠĠĠ": 1121,
      "23": 1122,
      "gra": 1123,
      "Ġpre": 1124,
      "ook": 1125,
      "Ġ&&": 1126,
      "Ġ**": 1127,
      "Ġexpect": 1128,
      "tt": 1129,
      "Ġkey": 1130,
      "ync": 1131,
      "Ġhas": 1132,
      "Ġuser": 1133,
      "Th": 1134,
      "heck": 1135,
      "###": 1136,
      "word": 1137,
      "ĠSt": 1138,
      "Ġany": 1139,
      "rite": 1140,
      "Value": 1141,
      "late": 1142,
      "sub": 1143,
      "odule": 1144,
      "mb": 1145,
      "ES": 1146,
      "message": 1147,
      "Ġ8": 1148,
      "vel": 1149,
      "icense": 1150,
      "ys": 1151,
      "ilter": 1152,
      "Ġwhich": 1153,
      "ick": 1154,
      "000": 1155,
      "ous": 1156,
      "mat": 1157,
      "outp": 1158,
      "Ġhttp": 1159,
      "è¿": 1160,
      "66": 1161,
      "fe": 1162,
      "output": 1163,
      "view": 1164,
      "rit": 1165,
      "roll": 1166,
      "img": 1167,
      "lay": 1168,
      "28": 1169,
      "Ġlist": 1170,
      "rame": 1171,
      "Comp": 1172,
      "ins": 1173,
      "Ġ\"\"\"": 1174,
      "ĠĠĠĠĠĠ": 1175,
      "dis": 1176,
      "Ġdefault": 1177,
      "aw": 1178,
      "ax": 1179,
      "Ġassert": 1180,
      "View": 1181,
      "34": 1182,
      "ocument": 1183,
      "></": 1184,
      "[\"": 1185,
      "Ġerror": 1186,
      "State": 1187,
      "ÑĤ": 1188,
      "sponse": 1189,
      "Ġso": 1190,
      "./": 1191,
      "Ġlog": 1192,
      "over": 1193,
      "map": 1194,
      "ctions": 1195,
      "09": 1196,
      "sed": 1197,
      "DE": 1198,
      "ces": 1199,
      "ULL": 1200,
      "åħ": 1201,
      "Par": 1202,
      "ĠâĢ": 1203,
      "func": 1204,
      "item": 1205,
      "rivate": 1206,
      "çĶ": 1207,
      "Set": 1208,
      "ä½": 1209,
      "lete": 1210,
      "ok": 1211,
      "åĲ": 1212,
      "of": 1213,
      "Ð¸": 1214,
      "uff": 1215,
      "arn": 1216,
      "api": 1217,
      "å®": 1218,
      "55": 1219,
      "Ġinter": 1220,
      "File": 1221,
      "Ġ7": 1222,
      "čĊč": 1223,
      "Ġout": 1224,
      "ameter": 1225,
      "En": 1226,
      "UT": 1227,
      "27": 1228,
      "Ġno": 1229,
      "Ġrun": 1230,
      "face": 1231,
      "Ġë": 1232,
      "umn": 1233,
      "Ġ()": 1234,
      "ĠĠĠĠĠĠĠĠĠĠĠĠĠĠĠĠĠĠĠĠĠĠĠĠĠĠĠĠĠĠĠĠ": 1235,
      "())": 1236,
      "ìĿ": 1237,
      "net": 1238,
      "Time": 1239,
      "ses": 1240,
      "26": 1241,
      "ribut": 1242,
      "(&": 1243,
      "by": 1244,
      "gr": 1245,
      "lean": 1246,
      "ypes": 1247,
      "main": 1248,
      "pen": 1249,
      "no": 1250,
      "any": 1251,
      "};": 1252,
      "PI": 1253,
      "Ġprint": 1254,
      "oint": 1255,
      "ION": 1256,
      "à¥": 1257,
      "error": 1258,
      "inal": 1259,
      "ĠNone": 1260,
      "comm": 1261,
      "inter": 1262,
      "not": 1263,
      "ĊĠĠĠĠĠĠĠĠĠĠĠĠĠĠĠĠĠĠĠĠĠĠĠĠĠĠĠ": 1264,
      "RO": 1265,
      "29": 1266,
      "node": 1267,
      "ster": 1268,
      "cho": 1269,
      "ish": 1270,
      "util": 1271,
      "Ġone": 1272,
      "lob": 1273,
      "å¤": 1274,
      "model": 1275,
      "rain": 1276,
      "æĺ": 1277,
      "Ġconfig": 1278,
      "input": 1279,
      "Text": 1280,
      "Ġmore": 1281,
      "Ġwork": 1282,
      "Ġtext": 1283,
      "38": 1284,
      "raw": 1285,
      "ush": 1286,
      "Ġsub": 1287,
      "Ġqu": 1288,
      "Ġimp": 1289,
      "Ġspec": 1290,
      "Ġrequire": 1291,
      "ater": 1292,
      "pack": 1293,
      "count": 1294,
      "35": 1295,
      "((": 1296,
      "ract": 1297,
      "Ite": 1298,
      "Ġ10": 1299,
      "ĠThis": 1300,
      "enter": 1301,
      "state": 1302,
      "ty": 1303,
      "Ġwhen": 1304,
      "dir": 1305,
      "color": 1306,
      "be": 1307,
      "IC": 1308,
      "ĠY": 1309,
      "the": 1310,
      "pi": 1311,
      "ics": 1312,
      "Ġaw": 1313,
      "Path": 1314,
      "indow": 1315,
      "AS": 1316,
      "trans": 1317,
      "ature": 1318,
      "ĠPro": 1319,
      "Service": 1320,
      "Ġarg": 1321,
      "mail": 1322,
      "Object": 1323,
      "ĠNULL": 1324,
      "Get": 1325,
      "length": 1326,
      "gist": 1327,
      "scription": 1328,
      "core": 1329,
      "loat": 1330,
      "right": 1331,
      "ative": 1332,
      "AD": 1333,
      "its": 1334,
      "ble": 1335,
      "ages": 1336,
      "Ġpath": 1337,
      "Ġad": 1338,
      "start": 1339,
      "Config": 1340,
      "Ġhref": 1341,
      "++": 1342,
      "ground": 1343,
      "title": 1344,
      "ures": 1345,
      "By": 1346,
      "Ġsp": 1347,
      "37": 1348,
      "));": 1349,
      "Ġ[]": 1350,
      "Ġbut": 1351,
      "44": 1352,
      "cept": 1353,
      "ts": 1354,
      "ments": 1355,
      "36": 1356,
      "result": 1357,
      "39": 1358,
      "ler": 1359,
      "try": 1360,
      "Ġcase": 1361,
      "OT": 1362,
      "æĸ": 1363,
      "Ġother": 1364,
      "cript": 1365,
      "struct": 1366,
      "db": 1367,
      "ges": 1368,
      "gin": 1369,
      "ET": 1370,
      "Ġvoid": 1371,
      "ake": 1372,
      "ner": 1373,
      "content": 1374,
      "ices": 1375,
      "ream": 1376,
      "www": 1377,
      "Ġback": 1378,
      "ear": 1379,
      "label": 1380,
      "88": 1381,
      "ions": 1382,
      "cond": 1383,
      "UR": 1384,
      "Ð½": 1385,
      "create": 1386,
      "move": 1387,
      "è¯": 1388,
      "Ġcreate": 1389,
      "der": 1390,
      "Ġover": 1391,
      "init": 1392,
      "ateg": 1393,
      "loc": 1394,
      "top": 1395,
      "Un": 1396,
      "args": 1397,
      "ainer": 1398,
      "ee": 1399,
      "})": 1400,
      "Ġfn": 1401,
      "Ġstart": 1402,
      "Ġext": 1403,
      "ined": 1404,
      "igh": 1405,
      "21": 1406,
      "ĠString": 1407,
      "Ġpart": 1408,
      "sign": 1409,
      "Ġsome": 1410,
      "ider": 1411,
      "æĪ": 1412,
      "uration": 1413,
      "Ġ?": 1414,
      "ĠEx": 1415,
      "pport": 1416,
      "cord": 1417,
      "Ġ||": 1418,
      "Ġshould": 1419,
      "Ġ})": 1420,
      "AC": 1421,
      "pr": 1422,
      "---": 1423,
      "arent": 1424,
      "info": 1425,
      "Ġtheir": 1426,
      "duct": 1427,
      "De": 1428,
      "Ġtrans": 1429,
      "image": 1430,
      "Ġ);": 1431,
      "Ġrequest": 1432,
      "rol": 1433,
      "lication": 1434,
      "oun": 1435,
      "Ġz": 1436,
      "Ġmodel": 1437,
      "45": 1438,
      "ta": 1439,
      "Ġcom": 1440,
      "ci": 1441,
      "box": 1442,
      "ĠCh": 1443,
      "ÑĢ": 1444,
      "action": 1445,
      "69": 1446,
      "Test": 1447,
      "--------------------------------": 1448,
      "opy": 1449,
      "max": 1450,
      "Ġ9": 1451,
      "æķ": 1452,
      "/*": 1453,
      "ating": 1454,
      "auth": 1455,
      "print": 1456,
      "Ġ]": 1457,
      "AA": 1458,
      "ved": 1459,
      "ible": 1460,
      "Ġ__": 1461,
      "ĠLicense": 1462,
      "Ġunder": 1463,
      "Event": 1464,
      "Ġused": 1465,
      "\":\"": 1466,
      "****************": 1467,
      "perty": 1468,
      "User": 1469,
      "Ñģ": 1470,
      "point": 1471,
      "He": 1472,
      "ote": 1473,
      "fter": 1474,
      "77": 1475,
      "Sh": 1476,
      "ĠCon": 1477,
      "Node": 1478,
      "doc": 1479,
      "valid": 1480,
      "Add": 1481,
      "Ġmay": 1482,
      "assert": 1483,
      "Ð¾Ð": 1484,
      "ular": 1485,
      "âĶ": 1486,
      "Item": 1487,
      "rap": 1488,
      "uto": 1489,
      "\\\"": 1490,
      "Ġthey": 1491,
      "ä¸Ģ": 1492,
      "lick": 1493,
      "Ġ20": 1494,
      "irect": 1495,
      "Ġact": 1496,
      "mis": 1497,
      "Ġstate": 1498,
      "ception": 1499,
      "su": 1500,
      "Ġinto": 1501,
      "65": 1502,
      "Ġobject": 1503,
      "default": 1504,
      "lease": 1505,
      "Ġthen": 1506,
      "íķ": 1507,
      "ays": 1508,
      "Qu": 1509,
      "ags": 1510,
      "inst": 1511,
      "åľ": 1512,
      "ustom": 1513,
      "go": 1514,
      "Ġ};": 1515,
      "lib": 1516,
      "lp": 1517,
      "temp": 1518,
      "version": 1519,
      "Ġstyle": 1520,
      "base": 1521,
      "AB": 1522,
      "68": 1523,
      "ank": 1524,
      "red": 1525,
      "Request": 1526,
      "Ġprov": 1527,
      "{\"": 1528,
      "48": 1529,
      "Ġcode": 1530,
      "ç»": 1531,
      "gle": 1532,
      "tx": 1533,
      "78": 1534,
      "width": 1535,
      "Ġread": 1536,
      "Element": 1537,
      "space": 1538,
      "æĺ¯": 1539,
      "Ġfe": 1540,
      "wh": 1541,
      "TR": 1542,
      "df": 1543,
      "ĊĊĠĠĠĠĠĠĠĠĠĠĠ": 1544,
      "ox": 1545,
      "Equal": 1546,
      "Ġinput": 1547,
      "ED": 1548,
      "Ġonly": 1549,
      "ents": 1550,
      "icon": 1551,
      "essage": 1552,
      "Ġprivate": 1553,
      "Ġ===": 1554,
      "thon": 1555,
      "uffer": 1556,
      "request": 1557,
      "Ġalso": 1558,
      "status": 1559,
      "30": 1560,
      "Info": 1561,
      "){": 1562,
      "search": 1563,
      "200": 1564,
      "Ġnode": 1565,
      ",\"": 1566,
      "Ġpub": 1567,
      "Ġ''": 1568,
      "man": 1569,
      "reak": 1570,
      "ava": 1571,
      "åĬ": 1572,
      "ams": 1573,
      "rect": 1574,
      "FF": 1575,
      "ility": 1576,
      "CH": 1577,
      "oin": 1578,
      "Ġusing": 1579,
      "Ġgo": 1580,
      "format": 1581,
      "osition": 1582,
      "with": 1583,
      "[]": 1584,
      "Ċĉĉĉĉĉĉ": 1585,
      "Code": 1586,
      "lection": 1587,
      "velo": 1588,
      "Ġob": 1589,
      "ager": 1590,
      "Ġ///": 1591,
      "pend": 1592,
      "ĠTr": 1593,
      "lex": 1594,
      "Ġline": 1595,
      "link": 1596,
      "Ġ+=": 1597,
      "Ġawait": 1598,
      "Ġcurrent": 1599,
      "`,": 1600,
      "sole": 1601,
      "mt": 1602,
      "num": 1603,
      "Ġwidth": 1604,
      "mod": 1605,
      "oolean": 1606,
      "ollow": 1607,
      "Ġstd": 1608,
      "Ġ${": 1609,
      "bar": 1610,
      "Ġcolor": 1611,
      "çĶ¨": 1612,
      "assword": 1613,
      "ponse": 1614,
      "ware": 1615,
      "nect": 1616,
      "bin": 1617,
      "CO": 1618,
      "andle": 1619,
      "png": 1620,
      "Field": 1621,
      "ian": 1622,
      "include": 1623,
      "Form": 1624,
      "================": 1625,
      "do": 1626,
      "Ġ/**": 1627,
      "group": 1628,
      "roller": 1629,
      "49": 1630,
      "ENT": 1631,
      "run": 1632,
      "Ġexp": 1633,
      "Log": 1634,
      "âĢĿ": 1635,
      "Ġ/>": 1636,
      "Ġ201": 1637,
      "rop": 1638,
      "Ġevent": 1639,
      "true": 1640,
      "'),": 1641,
      "ape": 1642,
      "Ġmethod": 1643,
      "tool": 1644,
      "cur": 1645,
      "ql": 1646,
      "wo": 1647,
      "Ġmake": 1648,
      "append": 1649,
      "ik": 1650,
      "Ġcall": 1651,
      "Ġcheck": 1652,
      "ĠUn": 1653,
      "Ġte": 1654,
      "DI": 1655,
      "event": 1656,
      "Ġneed": 1657,
      "åº": 1658,
      "Ġfirst": 1659,
      "Ġstruct": 1660,
      "enu": 1661,
      "Ġproject": 1662,
      "table": 1663,
      "Ġnp": 1664,
      "annel": 1665,
      "sv": 1666,
      "mages": 1667,
      "Ġitem": 1668,
      "argin": 1669,
      "Context": 1670,
      "check": 1671,
      "client": 1672,
      "ines": 1673,
      "bl": 1674,
      "Ġag": 1675,
      "100": 1676,
      "src": 1677,
      "ĠIN": 1678,
      "Ġsize": 1679,
      "ren": 1680,
      "Ġversion": 1681,
      "79": 1682,
      "fl": 1683,
      "Ġ],": 1684,
      "mer": 1685,
      "Ġcl": 1686,
      "source": 1687,
      "?:": 1688,
      "($": 1689,
      "Or": 1690,
      "ities": 1691,
      "down": 1692,
      "Val": 1693,
      "mut": 1694,
      "////////": 1695,
      "iable": 1696,
      "Ġfield": 1697,
      "App": 1698,
      "ization": 1699,
      "Ġbuild": 1700,
      "Size": 1701,
      "raph": 1702,
      "Ġhttps": 1703,
      "vir": 1704,
      "Ġchar": 1705,
      "ten": 1706,
      "å°": 1707,
      "len": 1708,
      "web": 1709,
      "andler": 1710,
      "());": 1711,
      "ified": 1712,
      "tes": 1713,
      "lose": 1714,
      "Ġdist": 1715,
      "][": 1716,
      "################": 1717,
      "Ġacc": 1718,
      "Ġdif": 1719,
      ":\"": 1720,
      "object": 1721,
      "è®": 1722,
      "Ġmin": 1723,
      "Ġdi": 1724,
      "ting": 1725,
      "Ġabout": 1726,
      "():": 1727,
      "AG": 1728,
      "UN": 1729,
      "open": 1730,
      "formation": 1731,
      "Ġsrc": 1732,
      "Ġmo": 1733,
      "SS": 1734,
      "Up": 1735,
      "Ġgener": 1736,
      "Ġent": 1737,
      "Message": 1738,
      "ä¹": 1739,
      "ATE": 1740,
      "50": 1741,
      "åŃ": 1742,
      "','": 1743,
      "An": 1744,
      "'t": 1745,
      "ename": 1746,
      "Array": 1747,
      "FI": 1748,
      "field": 1749,
      "æĹ": 1750,
      "sw": 1751,
      "ding": 1752,
      "Map": 1753,
      "Ġ{}": 1754,
      "void": 1755,
      "Client": 1756,
      "Ġtemp": 1757,
      "Def": 1758,
      "build": 1759,
      "tom": 1760,
      "idd": 1761,
      "ĊĊĠĠĠĠĠ": 1762,
      "ĠIf": 1763,
      "pper": 1764,
      "../../": 1765,
      "![": 1766,
      "ĠAr": 1767,
      "ven": 1768,
      "Index": 1769,
      "67": 1770,
      "af": 1771,
      "ose": 1772,
      "sum": 1773,
      "itor": 1774,
      "Ġbase": 1775,
      "Ġmax": 1776,
      "Ã©": 1777,
      "Ġmessage": 1778,
      "ä¸ª": 1779,
      "Component": 1780,
      "select": 1781,
      "Ġrange": 1782,
      "Ġresponse": 1783,
      "als": 1784,
      "iter": 1785,
      "place": 1786,
      "tings": 1787,
      "ui": 1788,
      "æķ°": 1789,
      "åĽ": 1790,
      "public": 1791,
      "Ġ<<": 1792,
      "ats": 1793,
      "ized": 1794,
      "TE": 1795,
      "older": 1796,
      "body": 1797,
      "very": 1798,
      "True": 1799,
      "LO": 1800,
      "è¡": 1801,
      "00000000": 1802,
      "Status": 1803,
      "Ġtry": 1804,
      "ution": 1805,
      "Model": 1806,
      "Ġrel": 1807,
      "current": 1808,
      "Ġthere": 1809,
      "vers": 1810,
      "now": 1811,
      "Ġ19": 1812,
      "fore": 1813,
      "Result": 1814,
      "Ġinit": 1815,
      "åį": 1816,
      "post": 1817,
      "ĊĊĉ": 1818,
      "da": 1819,
      "ning": 1820,
      "ful": 1821,
      "angu": 1822,
      "Al": 1823,
      "lot": 1824,
      "dev": 1825,
      "59": 1826,
      "ĠIt": 1827,
      "block": 1828,
      "Ġman": 1829,
      "vis": 1830,
      "left": 1831,
      "pub": 1832,
      "Ġurl": 1833,
      "Response": 1834,
      "cle": 1835,
      "Le": 1836,
      "adding": 1837,
      "å¼": 1838,
      "Ġlen": 1839,
      "hed": 1840,
      "MP": 1841,
      "Ġstatic": 1842,
      "mission": 1843,
      "čĊĠĠĠĠĠĠĠĠĠĠĠ": 1844,
      "ons": 1845,
      "Ġcre": 1846,
      "New": 1847,
      "AME": 1848,
      "47": 1849,
      "ĊĠĠĠĠĠĠĠĠĠĠĠĠĠĠĠĠĠ": 1850,
      "Ġoutput": 1851,
      "mary": 1852,
      "Ġindex": 1853,
      "PE": 1854,
      "Color": 1855,
      "token": 1856,
      "az": 1857,
      "ffect": 1858,
      "ious": 1859,
      "58": 1860,
      "Ġthem": 1861,
      "Ġfollow": 1862,
      "ING": 1863,
      "TO": 1864,
      "anc": 1865,
      "null": 1866,
      "ĊĠĠĠĠĠĠĠĠĠĠĠĠĠĠĠĠĠĠĠĠĠĠĠĠĠĠĠĠĠĠĠ": 1867,
      "call": 1868,
      "([": 1869,
      "dict": 1870,
      "query": 1871,
      "scrib": 1872,
      "uf": 1873,
      "On": 1874,
      "ternal": 1875,
      "For": 1876,
      "Ġbet": 1877,
      "Ġbeen": 1878,
      "UL": 1879,
      "bot": 1880,
      "push": 1881,
      "Date": 1882,
      "Ġatt": 1883,
      "loy": 1884,
      "uper": 1885,
      "tot": 1886,
      "Ġwere": 1887,
      "att": 1888,
      "gister": 1889,
      "Comm": 1890,
      "component": 1891,
      "Ġcontent": 1892,
      "my": 1893,
      "Ġfound": 1894,
      "air": 1895,
      "script": 1896,
      "With": 1897,
      "olic": 1898,
      "Class": 1899,
      "Man": 1900,
      "Ġpe": 1901,
      "Ġright": 1902,
      "Ġimage": 1903,
      "Ġph": 1904,
      "Ġits": 1905,
      "off": 1906,
      "Ġcal": 1907,
      "Ġthan": 1908,
      "Ġ\"$": 1909,
      "ĠX": 1910,
      "Ġnum": 1911,
      "Ġhow": 1912,
      "Ġfont": 1913,
      "US": 1914,
      "gram": 1915,
      "cent": 1916,
      "}\"": 1917,
      "Ġtitle": 1918,
      "char": 1919,
      "IS": 1920,
      "button": 1921,
      "Ġtarget": 1922,
      "case": 1923,
      "Ġ[\"": 1924,
      "ĠRes": 1925,
      "Ġ100": 1926,
      "Input": 1927,
      "});": 1928,
      "reg": 1929,
      "orage": 1930,
      "Ġoff": 1931,
      "nection": 1932,
      "velop": 1933,
      "Be": 1934,
      "Of": 1935,
      "array": 1936,
      "ameters": 1937,
      "vert": 1938,
      "Group": 1939,
      "56": 1940,
      "40": 1941,
      "ëĭ": 1942,
      "ient": 1943,
      "åľ¨": 1944,
      "ender": 1945,
      "ribute": 1946,
      "local": 1947,
      "ails": 1948,
      "Ġmod": 1949,
      "Int": 1950,
      "46": 1951,
      "Ġbo": 1952,
      "æī": 1953,
      "Out": 1954,
      "Ġour": 1955,
      "host": 1956,
      "ride": 1957,
      "iss": 1958,
      "Ċĉĉĉĉĉ": 1959,
      "resent": 1960,
      "/**": 1961,
      "andom": 1962,
      "find": 1963,
      "éĢ": 1964,
      "abled": 1965,
      "orld": 1966,
      "Ġdocument": 1967,
      "Ġed": 1968,
      "Ġcommand": 1969,
      "Ġos": 1970,
      "89": 1971,
      "This": 1972,
      "rl": 1973,
      "31": 1974,
      "roug": 1975,
      "Ġpo": 1976,
      "mark": 1977,
      "Ġlabel": 1978,
      "viron": 1979,
      "Ġheight": 1980,
      "atab": 1981,
      "Button": 1982,
      "Not": 1983,
      "ower": 1984,
      "ends": 1985,
      "ules": 1986,
      "Ġê": 1987,
      "\"></": 1988,
      "env": 1989,
      "mon": 1990,
      "Ġopen": 1991,
      "style": 1992,
      "lobal": 1993,
      "!(": 1994,
      "Ġcontext": 1995,
      "Ġsystem": 1996,
      "DO": 1997,
      "Ġprovide": 1998,
      "Ġwhere": 1999,
      "page": 2000,
      "Ġprocess": 2001,
      "Ġ'./": 2002,
      "ump": 2003,
      "Ġlike": 2004,
      "ists": 2005,
      "FA": 2006,
      "Ġfunc": 2007,
      "server": 2008,
      "package": 2009,
      "write": 2010,
      "').": 2011,
      "As": 2012,
      "rate": 2013,
      "ĠGet": 2014,
      "sets": 2015,
      "ern": 2016,
      "cd": 2017,
      "ML": 2018,
      "à¥į": 2019,
      "Ġtable": 2020,
      "ĊĠĠĠĠĊĠĠĠ": 2021,
      "anguage": 2022,
      "target": 2023,
      "Ġeach": 2024,
      "update": 2025,
      "height": 2026,
      "å¾": 2027,
      "IP": 2028,
      "57": 2029,
      "atabase": 2030,
      "Ġorg": 2031,
      "flow": 2032,
      "âĶĢ": 2033,
      "pg": 2034,
      "iled": 2035,
      "None": 2036,
      "Ð»": 2037,
      "ä¸Ń": 2038,
      "IM": 2039,
      "Ġinstall": 2040,
      "Ġoptions": 2041,
      "Ġdirect": 2042,
      "thing": 2043,
      "ĠĠĠĠĠĠĠĠĠĠĠ": 2044,
      "Build": 2045,
      "sg": 2046,
      "atures": 2047,
      "Ġ['": 2048,
      "ential": 2049,
      "Ġsc": 2050,
      "next": 2051,
      "ference": 2052,
      "SON": 2053,
      "Ġasync": 2054,
      "čĊĠ": 2055,
      "eturn": 2056,
      "ifier": 2057,
      "ĠWh": 2058,
      "ux": 2059,
      "filter": 2060,
      "ĠAn": 2061,
      "Ġchild": 2062,
      "}}": 2063,
      ">>": 2064,
      "Ġwho": 2065,
      "\").": 2066,
      "ared": 2067,
      "Ġclient": 2068,
      "Lo": 2069,
      "Ġmy": 2070,
      "number": 2071,
      "Ġthese": 2072,
      "response": 2073,
      "ormal": 2074,
      "Ġ,": 2075,
      "std": 2076,
      "font": 2077,
      "Ġvalues": 2078,
      "rad": 2079,
      "Token": 2080,
      "Sub": 2081,
      "serv": 2082,
      "context": 2083,
      "ĠCont": 2084,
      "ward": 2085,
      "ches": 2086,
      "itch": 2087,
      "Ġsource": 2088,
      "Ġcor": 2089,
      "\"),": 2090,
      "udi": 2091,
      "ä¸į": 2092,
      "ification": 2093,
      ")]": 2094,
      "Ġra": 2095,
      "Ġ15": 2096,
      "posit": 2097,
      "Ġsol": 2098,
      "86": 2099,
      "æľī": 2100,
      "rough": 2101,
      "til": 2102,
      "Ġ(!": 2103,
      "erson": 2104,
      "tn": 2105,
      "Des": 2106,
      "strong": 2107,
      "ily": 2108,
      "Ġfl": 2109,
      "ension": 2110,
      "ĠâĢľ": 2111,
      "Ġhelp": 2112,
      "frame": 2113,
      "Ġvalid": 2114,
      "np": 2115,
      "ãĢģ": 2116,
      "Ġreg": 2117,
      "ba": 2118,
      "Image": 2119,
      "ants": 2120,
      "cf": 2121,
      "Ġlocal": 2122,
      "oug": 2123,
      "Ġupdate": 2124,
      "Table": 2125,
      "Inst": 2126,
      "root": 2127,
      "rag": 2128,
      "ources": 2129,
      "]:": 2130,
      "defined": 2131,
      "æĿ": 2132,
      "åĨ": 2133,
      "ĠĊ": 2134,
      "à¸": 2135,
      "IL": 2136,
      "čĊĉ": 2137,
      "etwork": 2138,
      "Ġ16": 2139,
      "Ġbool": 2140,
      "oud": 2141,
      "HE": 2142,
      "ĠSet": 2143,
      "MA": 2144,
      "rid": 2145,
      "ĠclassName": 2146,
      "Ġsupport": 2147,
      "Ġselect": 2148,
      "ale": 2149,
      "Ġfind": 2150,
      "\"><": 2151,
      "romise": 2152,
      "oogle": 2153,
      "Ġgroup": 2154,
      "ä¼": 2155,
      "part": 2156,
      "perties": 2157,
      "Ġjust": 2158,
      "git": 2159,
      "Ġoper": 2160,
      "å¯": 2161,
      "Count": 2162,
      "aders": 2163,
      "Ġelement": 2164,
      "ĠSe": 2165,
      "Ġauth": 2166,
      "åĩ": 2167,
      "Ġ...": 2168,
      "Ġsign": 2169,
      "bug": 2170,
      "Ġdoes": 2171,
      "Ġbreak": 2172,
      "Ġbackground": 2173,
      "HT": 2174,
      "80": 2175,
      "Ġview": 2176,
      "images": 2177,
      "join": 2178,
      "Wh": 2179,
      "ssion": 2180,
      "iven": 2181,
      "Ġdisplay": 2182,
      "Ġmust": 2183,
      "Ġborder": 2184,
      "Ġchange": 2185,
      "Ġwould": 2186,
      "///": 2187,
      "Ġarray": 2188,
      "parse": 2189,
      "Ġcontain": 2190,
      "ocker": 2191,
      "description": 2192,
      "Options": 2193,
      "Inter": 2194,
      "Ġpoint": 2195,
      "ingle": 2196,
      "params": 2197,
      "last": 2198,
      "Query": 2199,
      "æł": 2200,
      "ency": 2201,
      "Ġtwo": 2202,
      "Exception": 2203,
      "Ġshow": 2204,
      "Ġconsole": 2205,
      "\\\\": 2206,
      "Ġblock": 2207,
      "false": 2208,
      "Ã¡": 2209,
      "board": 2210,
      "medi": 2211,
      "ategory": 2212,
      "Content": 2213,
      "ĠTest": 2214,
      "Ġmut": 2215,
      "{}": 2216,
      "IG": 2217,
      "sol": 2218,
      "ftware": 2219,
      "gs": 2220,
      "Ġhis": 2221,
      "Ġformat": 2222,
      "ween": 2223,
      "Ġac": 2224,
      "ayer": 2225,
      "ift": 2226,
      "HO": 2227,
      "sm": 2228,
      "lugin": 2229,
      "Ġpack": 2230,
      "Ġpost": 2231,
      "Ġ200": 2232,
      "Number": 2233,
      "Ġsee": 2234,
      "static": 2235,
      "ï¼ļ": 2236,
      "require": 2237,
      "Trans": 2238,
      "ctx": 2239,
      "expect": 2240,
      "cope": 2241,
      "cor": 2242,
      "ause": 2243,
      "ron": 2244,
      "store": 2245,
      "Ġform": 2246,
      "ĠDe": 2247,
      "Ġmargin": 2248,
      "sk": 2249,
      "service": 2250,
      "Ġtop": 2251,
      "ume": 2252,
      "Ġmap": 2253,
      "Ġinformation": 2254,
      "vironment": 2255,
      "ople": 2256,
      "Ġafter": 2257,
      "ading": 2258,
      "87": 2259,
      "Ġins": 2260,
      "ilename": 2261,
      "ouble": 2262,
      "arning": 2263,
      "ĠĠĠĠĠĠĠĠĠ": 2264,
      "ptional": 2265,
      "Ġwhat": 2266,
      "Select": 2267,
      "wn": 2268,
      "ĠQ": 2269,
      "Ġco": 2270,
      "cp": 2271,
      "Ġyear": 2272,
      "PO": 2273,
      "43": 2274,
      "Ġhigh": 2275,
      "Ġmatch": 2276,
      "éĩ": 2277,
      "fa": 2278,
      "react": 2279,
      "ĠComp": 2280,
      "ely": 2281,
      "olicy": 2282,
      "Ġpage": 2283,
      "less": 2284,
      "Ġserver": 2285,
      "mpty": 2286,
      "Ġcomponent": 2287,
      "Ġwhile": 2288,
      "All": 2289,
      "çĽ": 2290,
      "Ġfiles": 2291,
      "ression": 2292,
      "adata": 2293,
      "Ġrequired": 2294,
      "ouse": 2295,
      "Ġargs": 2296,
      "Ġexample": 2297,
      "ĠApp": 2298,
      "Loc": 2299,
      "oot": 2300,
      "Ġdate": 2301,
      "Ġmain": 2302,
      "Ġecho": 2303,
      "options": 2304,
      "\"\"\"": 2305,
      "ood": 2306,
      "ru": 2307,
      "Dis": 2308,
      "ailable": 2309,
      "utils": 2310,
      "lit": 2311,
      "project": 2312,
      "resh": 2313,
      "imple": 2314,
      "Ġallow": 2315,
      "Ġbefore": 2316,
      "Ġ12": 2317,
      "ULT": 2318,
      "]]": 2319,
      "alth": 2320,
      "ĠCO": 2321,
      "tect": 2322,
      "____": 2323,
      "pository": 2324,
      "Ġnext": 2325,
      "Me": 2326,
      "Auth": 2327,
      "Ġ/*": 2328,
      "ĠNOT": 2329,
      "vol": 2330,
      "method": 2331,
      "Ġav": 2332,
      "Module": 2333,
      "peri": 2334,
      "ä»¥": 2335,
      "Ġtoken": 2336,
      "rows": 2337,
      "'],": 2338,
      "gen": 2339,
      "`.": 2340,
      "ero": 2341,
      "DB": 2342,
      "Ġcount": 2343,
      "scribe": 2344,
      "|>": 2345,
      "Ġlong": 2346,
      "42": 2347,
      "ah": 2348,
      "Ġgre": 2349,
      ".\"": 2350,
      "ĠAPI": 2351,
      "exp": 2352,
      "URL": 2353,
      "Ġboolean": 2354,
      "ĠYou": 2355,
      "son": 2356,
      "xy": 2357,
      "Ġinstance": 2358,
      "<|": 2359,
      "lation": 2360,
      "From": 2361,
      "Url": 2362,
      "Ġam": 2363,
      "fs": 2364,
      "Ġlast": 2365,
      "Ġmat": 2366,
      "amples": 2367,
      "refix": 2368,
      "85": 2369,
      "Ġpy": 2370,
      "lish": 2371,
      "rix": 2372,
      "Ġposition": 2373,
      ">(": 2374,
      "Ġsuch": 2375,
      "Ġmost": 2376,
      "SER": 2377,
      "idget": 2378,
      "light": 2379,
      "Base": 2380,
      "mem": 2381,
      "roid": 2382,
      "Ġstatus": 2383,
      "Change": 2384,
      "Ġtask": 2385,
      "ĠFor": 2386,
      "Ġdiffer": 2387,
      "icle": 2388,
      "icro": 2389,
      "ĠDE": 2390,
      "Ġthrough": 2391,
      ">,": 2392,
      "åĮ": 2393,
      "Ġsame": 2394,
      "CON": 2395,
      "VER": 2396,
      "active": 2397,
      "Ġ#[": 2398,
      "php": 2399,
      "module": 2400,
      "ialize": 2401,
      "No": 2402,
      "åı¯": 2403,
      "echo": 2404,
      "ging": 2405,
      "first": 2406,
      "}/": 2407,
      "Ġleft": 2408,
      "Ġfollowing": 2409,
      "Ġorder": 2410,
      "izer": 2411,
      "ä¸º": 2412,
      "nown": 2413,
      "Ref": 2414,
      "ĠCON": 2415,
      "ivity": 2416,
      "Controller": 2417,
      "Ġ'@": 2418,
      "ars": 2419,
      "ĠSh": 2420,
      "etch": 2421,
      "Ġref": 2422,
      "CL": 2423,
      "Ad": 2424,
      "Met": 2425,
      "Ġcopy": 2426,
      "itions": 2427,
      "ric": 2428,
      "AP": 2429,
      "Ð°Ð": 2430,
      "cy": 2431,
      "æŀ": 2432,
      "Per": 2433,
      "uid": 2434,
      "types": 2435,
      "ĠSer": 2436,
      "Ġimplement": 2437,
      "ier": 2438,
      "ĠOR": 2439,
      "Ġwrit": 2440,
      "header": 2441,
      "Ñĥ": 2442,
      "âĶĢâĶĢ": 2443,
      "ultip": 2444,
      "Ġhad": 2445,
      "âĸ": 2446,
      "opt": 2447,
      "ensor": 2448,
      "Ġcontin": 2449,
      "wrap": 2450,
      "sa": 2451,
      "ymb": 2452,
      "Command": 2453,
      "nav": 2454,
      "lin": 2455,
      "Ġrep": 2456,
      "Ġstud": 2457,
      "ector": 2458,
      "Ġwant": 2459,
      "has": 2460,
      "ĠAdd": 2461,
      "uter": 2462,
      "ĊĠĠĠĠĠĠĠĠĠĠĠĠĠĠĠĠĠĠĠĠĠĠĠĠĠĠĠĠĠĠĠĠĠĠĠ": 2463,
      "ĥ½": 2464,
      "ns": 2465,
      "Ġfinal": 2466,
      "ĠAN": 2467,
      "ABLE": 2468,
      "Ed": 2469,
      "ĠNew": 2470,
      "ĠAl": 2471,
      "Ġinclude": 2472,
      "Ġdown": 2473,
      "pri": 2474,
      "Ġweb": 2475,
      "äºĨ": 2476,
      "gest": 2477,
      "Manager": 2478,
      "day": 2479,
      "show": 2480,
      "column": 2481,
      "Act": 2482,
      "tal": 2483,
      "ched": 2484,
      "uments": 2485,
      "54": 2486,
      "process": 2487,
      "ves": 2488,
      "Ġsk": 2489,
      "ĠTrue": 2490,
      "Att": 2491,
      "Ġnow": 2492,
      "At": 2493,
      "Ġaction": 2494,
      "Ġbody": 2495,
      "props": 2496,
      "Ġdevelop": 2497,
      "Ġsa": 2498,
      "Ġsuper": 2499,
      "Ġvis": 2500,
      "docs": 2501,
      "60": 2502,
      "command": 2503,
      "Âł": 2504,
      "uring": 2505,
      "EY": 2506,
      "Ġquery": 2507,
      "ĠTo": 2508,
      "ĠID": 2509,
      "ek": 2510,
      "child": 2511,
      "Action": 2512,
      "bit": 2513,
      "Ġ{\"": 2514,
      "anch": 2515,
      "å¹": 2516,
      "2020": 2517,
      "uc": 2518,
      "Ġla": 2519,
      "attern": 2520,
      "ries": 2521,
      "ayout": 2522,
      "Version": 2523,
      "Ġbetween": 2524,
      "cket": 2525,
      "anges": 2526,
      "train": 2527,
      "Ġpadding": 2528,
      "unk": 2529,
      "ĊĊĊ": 2530,
      "nb": 2531,
      "define": 2532,
      "æĢ": 2533,
      "cat": 2534,
      "ideo": 2535,
      "æ³": 2536,
      "Call": 2537,
      "97": 2538,
      "other": 2539,
      "Str": 2540,
      "Handler": 2541,
      "master": 2542,
      "only": 2543,
      "æİ": 2544,
      "Is": 2545,
      "Ġinterface": 2546,
      "ĠSome": 2547,
      "graph": 2548,
      "come": 2549,
      "fn": 2550,
      "aces": 2551,
      "Ġapplication": 2552,
      "Ġjson": 2553,
      "ymbol": 2554,
      "NAME": 2555,
      "chema": 2556,
      "eq": 2557,
      "æĹ¶": 2558,
      "Ġ\"\"": 2559,
      "Sp": 2560,
      "jpg": 2561,
      "è§": 2562,
      "ally": 2563,
      "ically": 2564,
      "Ġret": 2565,
      "ìĹ": 2566,
      "ret": 2567,
      "obj": 2568,
      "TY": 2569,
      "teger": 2570,
      "CE": 2571,
      "GL": 2572,
      "84": 2573,
      "level": 2574,
      "oci": 2575,
      "ĠWe": 2576,
      "instance": 2577,
      "Page": 2578,
      ",'": 2579,
      "Ġpeople": 2580,
      "[:": 2581,
      "asses": 2582,
      "float": 2583,
      "Ġgiven": 2584,
      "Ġexec": 2585,
      "2018": 2586,
      "gt": 2587,
      "ique": 2588,
      "(_": 2589,
      "pc": 2590,
      "ĠZ": 2591,
      "/>": 2592,
      "vider": 2593,
      "Ġsm": 2594,
      "Ġfloat": 2595,
      "Ġword": 2596,
      "Ġcur": 2597,
      "Ġbr": 2598,
      "256": 2599,
      "equal": 2600,
      "Ġter": 2601,
      "ĉĉĉĉ": 2602,
      "=$": 2603,
      "ius": 2604,
      "TP": 2605,
      "istory": 2606,
      "èĢ": 2607,
      "ene": 2608,
      "req": 2609,
      "EX": 2610,
      "ëĭ¤": 2611,
      "sl": 2612,
      "ov": 2613,
      "ences": 2614,
      "ĠHe": 2615,
      "css": 2616,
      "å½": 2617,
      "Ġlink": 2618,
      "spec": 2619,
      "Ġfa": 2620,
      "ational": 2621,
      "conf": 2622,
      "%;": 2623,
      "TER": 2624,
      "Ġbl": 2625,
      "Run": 2626,
      "tag": 2627,
      "refer": 2628,
      "95": 2629,
      "files": 2630,
      "Ġport": 2631,
      "Ġet": 2632,
      "False": 2633,
      "è¦": 2634,
      "Ġdifferent": 2635,
      "gener": 2636,
      "msg": 2637,
      "split": 2638,
      "elf": 2639,
      "element": 2640,
      "éĹ": 2641,
      "actory": 2642,
      "center": 2643,
      "patch": 2644,
      "IB": 2645,
      "Ġauto": 2646,
      "dist": 2647,
      "attr": 2648,
      "ane": 2649,
      "yles": 2650,
      "__(": 2651,
      "MM": 2652,
      "Ġservice": 2653,
      "Ġmem": 2654,
      "ctor": 2655,
      "position": 2656,
      "align": 2657,
      "Ġcons": 2658,
      "Ġ18": 2659,
      "send": 2660,
      "encies": 2661,
      "Ġlevel": 2662,
      "ually": 2663,
      "Ġí": 2664,
      "Props": 2665,
      "apt": 2666,
      "book": 2667,
      "should": 2668,
      "Ġmany": 2669,
      "cale": 2670,
      "ident": 2671,
      "Ġmon": 2672,
      "ished": 2673,
      "Ġpr": 2674,
      "CC": 2675,
      "Ġes": 2676,
      "TH": 2677,
      "direct": 2678,
      "ëĬ": 2679,
      "Server": 2680,
      "Block": 2681,
      "AM": 2682,
      "stru": 2683,
      "76": 2684,
      "41": 2685,
      "Label": 2686,
      "ĠRE": 2687,
      "TI": 2688,
      "change": 2689,
      "location": 2690,
      "pk": 2691,
      "remove": 2692,
      "Ġdescription": 2693,
      "idden": 2694,
      "\".": 2695,
      "Point": 2696,
      "Ġcould": 2697,
      "duc": 2698,
      "Default": 2699,
      "lt": 2700,
      "||": 2701,
      "98": 2702,
      "ĠFalse": 2703,
      "å·": 2704,
      "else": 2705,
      "ough": 2706,
      "author": 2707,
      "If": 2708,
      "ories": 2709,
      "logy": 2710,
      "å¸": 2711,
      "è¿Ļ": 2712,
      "Link": 2713,
      "ĠReact": 2714,
      "ãģ®": 2715,
      "æį": 2716,
      "ìĿ´": 2717,
      "è¡Į": 2718,
      "impl": 2719,
      "ç½": 2720,
      "address": 2721,
      "{{": 2722,
      "Ġque": 2723,
      "ayload": 2724,
      "sd": 2725,
      "cause": 2726,
      "ĠPar": 2727,
      "Ġloc": 2728,
      "MO": 2729,
      "Line": 2730,
      "acter": 2731,
      "ounter": 2732,
      "layer": 2733,
      "čĊĠĠĠĠĠĠĠĠĠĠĠĠĠĠĠ": 2734,
      "><|": 2735,
      "|><|": 2736,
      "rypt": 2737,
      "atform": 2738,
      "python": 2739,
      "And": 2740,
      "admin": 2741,
      "leg": 2742,
      "UE": 2743,
      "Ġaccess": 2744,
      "gress": 2745,
      "Ġexcept": 2746,
      "Ñı": 2747,
      "Ġpri": 2748,
      "Check": 2749,
      "display": 2750,
      "æĶ": 2751,
      "ready": 2752,
      "Ġsw": 2753,
      "rem": 2754,
      "Su": 2755,
      "Ġrender": 2756,
      "Ġhere": 2757,
      "task": 2758,
      "Create": 2759,
      "ids": 2760,
      "Ġway": 2761,
      "ĊĠĠĠĠĠĠ": 2762,
      "stamp": 2763,
      "Ġind": 2764,
      "Ġ\"/": 2765,
      "Ġlimit": 2766,
      "ability": 2767,
      "Box": 2768,
      "structor": 2769,
      "signed": 2770,
      "Ġpass": 2771,
      "ls": 2772,
      "aa": 2773,
      "ÐµÐ": 2774,
      "ince": 2775,
      "ansp": 2776,
      "Ġroot": 2777,
      "Mod": 2778,
      "Builder": 2779,
      "Ġfilter": 2780,
      "system": 2781,
      "cription": 2782,
      "Ġevery": 2783,
      "email": 2784,
      "Start": 2785,
      "Ġparams": 2786,
      "parent": 2787,
      "ling": 2788,
      "met": 2789,
      "med": 2790,
      "DIR": 2791,
      "QL": 2792,
      "reen": 2793,
      "\"}": 2794,
      "Ġtra": 2795,
      "FAULT": 2796,
      "Ġexpected": 2797,
      "exec": 2798,
      "ĠData": 2799,
      "Ġident": 2800,
      "container": 2801,
      "ĠEn": 2802,
      "Ġbecause": 2803,
      "la": 2804,
      "*/": 2805,
      "Ġwell": 2806,
      "ĠError": 2807,
      "]);": 2808,
      "æĸĩ": 2809,
      "Ġlook": 2810,
      "ĊĠĠĠĠĠĠĠĠĠĠĠĠ": 2811,
      "weight": 2812,
      "svg": 2813,
      "Ġcolumn": 2814,
      "API": 2815,
      "ptr": 2816,
      "rapper": 2817,
      "Ġ;": 2818,
      "96": 2819,
      "ĠĠĠĠĠĠĠĠĠĠ": 2820,
      "arm": 2821,
      "bb": 2822,
      "Source": 2823,
      "then": 2824,
      "ross": 2825,
      "Ġver": 2826,
      "ĠList": 2827,
      "template": 2828,
      "Ġstep": 2829,
      "ĠCol": 2830,
      "Ġ11": 2831,
      "ond": 2832,
      "Ġvariable": 2833,
      "\"},": 2834,
      "Ġ\"\\": 2835,
      "lice": 2836,
      "è¦ģ": 2837,
      "uch": 2838,
      "OS": 2839,
      "ffff": 2840,
      "oper": 2841,
      "Ġdistribut": 2842,
      "End": 2843,
      "Ġwithout": 2844,
      "ln": 2845,
      "depend": 2846,
      "iff": 2847,
      "gn": 2848,
      "74": 2849,
      "shape": 2850,
      "delete": 2851,
      "vices": 2852,
      "#[": 2853,
      "amb": 2854,
      "values": 2855,
      "ason": 2856,
      "Ñĭ": 2857,
      "stri": 2858,
      "Ob": 2859,
      "Ent": 2860,
      "æŃ": 2861,
      "Ġ14": 2862,
      "tra": 2863,
      "ged": 2864,
      "lug": 2865,
      "MT": 2866,
      "Valid": 2867,
      "Ġshe": 2868,
      "ëĬĶ": 2869,
      "ä»¶": 2870,
      "Exp": 2871,
      "tree": 2872,
      "dated": 2873,
      "card": 2874,
      "txt": 2875,
      "cs": 2876,
      "pha": 2877,
      "document": 2878,
      "efore": 2879,
      "ĠOn": 2880,
      "Ġsecond": 2881,
      "stream": 2882,
      "Ġmodule": 2883,
      "side": 2884,
      "Ġstore": 2885,
      "********************************": 2886,
      "åĴ": 2887,
      "ä¿": 2888,
      "her": 2889,
      "UM": 2890,
      "bottom": 2891,
      "ited": 2892,
      "CK": 2893,
      "Ġsur": 2894,
      "items": 2895,
      "amily": 2896,
      "cache": 2897,
      "Ġraise": 2898,
      "ĠĠĠĠĠĠĠĠĠĠĠĠ": 2899,
      "ributes": 2900,
      "ways": 2901,
      "cb": 2902,
      "å¦": 2903,
      "vo": 2904,
      "OP": 2905,
      "/)": 2906,
      "Ġexist": 2907,
      "Ġknow": 2908,
      "Pl": 2909,
      "tails": 2910,
      "luster": 2911,
      "Var": 2912,
      "~~": 2913,
      "ĠUser": 2914,
      "RAN": 2915,
      "ai": 2916,
      "å¯¹": 2917,
      "ances": 2918,
      "Ġest": 2919,
      "site": 2920,
      "Hel": 2921,
      "udio": 2922,
      "53": 2923,
      "Ġ}}": 2924,
      "product": 2925,
      "cast": 2926,
      "docker": 2927,
      "tual": 2928,
      "ĠComm": 2929,
      "Acc": 2930,
      "Ġaddress": 2931,
      "Types": 2932,
      "andard": 2933,
      "ination": 2934,
      "Ġopt": 2935,
      "ather": 2936,
      "common": 2937,
      "ç§": 2938,
      "Ġresults": 2939,
      "kit": 2940,
      "Instance": 2941,
      "Ġundefined": 2942,
      "UP": 2943,
      "total": 2944,
      "sor": 2945,
      "section": 2946,
      "cul": 2947,
      "utf": 2948,
      "Property": 2949,
      "ural": 2950,
      "åĴĮ": 2951,
      "Ġnon": 2952,
      "ither": 2953,
      "Ġdb": 2954,
      "\"`": 2955,
      "\"))": 2956,
      "ators": 2957,
      "OL": 2958,
      "olve": 2959,
      "Ġ'',": 2960,
      "////////////////": 2961,
      "Ġmark": 2962,
      "ĠOF": 2963,
      "Ġrow": 2964,
      "Ġcell": 2965,
      "ife": 2966,
      "ĠReturn": 2967,
      "Ġ('": 2968,
      "ives": 2969,
      "](#": 2970,
      "åĪ°": 2971,
      "riter": 2972,
      "Ġtrain": 2973,
      "Ġload": 2974,
      "Imp": 2975,
      "Header": 2976,
      "Update": 2977,
      "Us": 2978,
      "Ġinclu": 2979,
      "CRE": 2980,
      "Mode": 2981,
      "tore": 2982,
      "asic": 2983,
      "Ġ'/": 2984,
      "iginal": 2985,
      "Ġq": 2986,
      "æĮ": 2987,
      "Filter": 2988,
      "Ġ13": 2989,
      "Ġparse": 2990,
      "Row": 2991,
      "Det": 2992,
      "ĊĠĠĠĠĠĠĠĠĠĠĠĠĠĠĠĠĠĠĠĠĠ": 2993,
      "ever": 2994,
      "Fl": 2995,
      "example": 2996,
      "Temp": 2997,
      "Ġaccount": 2998,
      "itu": 2999,
      "Ġextends": 3000,
      "can": 3001,
      "ĠCopy": 3002,
      "background": 3003,
      "æĪĳ": 3004,
      "ole": 3005,
      "Ġparent": 3006,
      "],[": 3007,
      "creen": 3008,
      "Ġavailable": 3009,
      "ets": 3010,
      "Ġ30": 3011,
      "ĊĠĠĠĠĠĠĠĠĊĠĠĠĠĠĠĠ": 3012,
      "components": 3013,
      "Ġdep": 3014,
      "ession": 3015,
      "Ġspecific": 3016,
      "ĠAs": 3017,
      "Ã³": 3018,
      "Over": 3019,
      "password": 3020,
      "Address": 3021,
      "ness": 3022,
      "Ġax": 3023,
      "Ġart": 3024,
      "ĠObject": 3025,
      "Ġwrite": 3026,
      "Ġsuccess": 3027,
      "option": 3028,
      "We": 3029,
      "match": 3030,
      "nbsp": 3031,
      "Ġ17": 3032,
      "vious": 3033,
      "verse": 3034,
      "sche": 3035,
      "VE": 3036,
      "ixed": 3037,
      "Ġ```": 3038,
      "Ġmode": 3039,
      "Ġdepend": 3040,
      "indows": 3041,
      "apter": 3042,
      "éĿ": 3043,
      "ä¸ĭ": 3044,
      "unwrap": 3045,
      "Ġcustom": 3046,
      "ĠHT": 3047,
      "ĠTO": 3048,
      "Ġ50": 3049,
      "connect": 3050,
      "52": 3051,
      "Column": 3052,
      "raint": 3053,
      "Read": 3054,
      "menu": 3055,
      "Ġà¤": 3056,
      ";&": 3057,
      "ĠType": 3058,
      "Ġke": 3059,
      "Ġcond": 3060,
      "ä¸Ģä¸ª": 3061,
      "æĸ¹": 3062,
      "save": 3063,
      "close": 3064,
      "Ġthrow": 3065,
      "90": 3066,
      "mode": 3067,
      "itional": 3068,
      "Init": 3069,
      "SP": 3070,
      "keys": 3071,
      "ĊĊĠĠĠĠĠĠĠĠĠĠĠĠĠĠĠ": 3072,
      "Ġframe": 3073,
      "\"],": 3074,
      "ä¾": 3075,
      "tocol": 3076,
      "ae": 3077,
      "step": 3078,
      "Ġher": 3079,
      "ĠDes": 3080,
      "çİ": 3081,
      "gy": 3082,
      "alk": 3083,
      "Ġlow": 3084,
      "å¦Ĥ": 3085,
      "ted": 3086,
      "å®ļ": 3087,
      "ision": 3088,
      "Back": 3089,
      "akes": 3090,
      "ube": 3091,
      "entic": 3092,
      "(`": 3093,
      "Ġop": 3094,
      "acity": 3095,
      "íķĺ": 3096,
      "hash": 3097,
      "ving": 3098,
      "soft": 3099,
      "abs": 3100,
      "Buffer": 3101,
      "ä¸Ĭ": 3102,
      "idx": 3103,
      "Click": 3104,
      "Api": 3105,
      "Ġ202": 3106,
      "ĠPromise": 3107,
      "94": 3108,
      "åĢ": 3109,
      "cip": 3110,
      "Ġdon": 3111,
      "------------": 3112,
      "head": 3113,
      "ĠĠĠĠĠĠĠĠĠĠĠĠĠĠĠ": 3114,
      "ÑĮ": 3115,
      "çī": 3116,
      "\\\":": 3117,
      "Method": 3118,
      "arge": 3119,
      "ocus": 3120,
      "Ġown": 3121,
      "ĠInst": 3122,
      "btn": 3123,
      "ĠCreate": 3124,
      "Ag": 3125,
      "Ġdone": 3126,
      "shot": 3127,
      "Ġcontinue": 3128,
      "Ġfun": 3129,
      "Ġcreated": 3130,
      "dep": 3131,
      "click": 3132,
      "border": 3133,
      "anel": 3134,
      "?.": 3135,
      "ict": 3136,
      "Case": 3137,
      "lear": 3138,
      "ram": 3139,
      "Ġhost": 3140,
      "Ġ[[": 3141,
      "Ġrece": 3142,
      "čĊĉĉ": 3143,
      "CA": 3144,
      "Ġplace": 3145,
      "Stream": 3146,
      "Ġreport": 3147,
      "Ġcontrol": 3148,
      "Ġ\\\"": 3149,
      "ĠDate": 3150,
      "Frame": 3151,
      "ĠSo": 3152,
      "Spec": 3153,
      "Ġbeing": 3154,
      "debug": 3155,
      "73": 3156,
      "ìĦ": 3157,
      "fr": 3158,
      "layout": 3159,
      ".</": 3160,
      "Ġelif": 3161,
      "++)": 3162,
      "Ġresp": 3163,
      "private": 3164,
      "ÃŃ": 3165,
      "!--": 3166,
      "Ġsearch": 3167,
      "Mem": 3168,
      "9999": 3169,
      "ĠLe": 3170,
      "inner": 3171,
      "home": 3172,
      "offset": 3173,
      "SI": 3174,
      "ĠDef": 3175,
      "è¾": 3176,
      "ade": 3177,
      "Ġ\"${": 3178,
      "aking": 3179,
      "channel": 3180,
      "ĠInt": 3181,
      "foo": 3182,
      "uk": 3183,
      "Format": 3184,
      "Ġtotal": 3185,
      "Function": 3186,
      "Ass": 3187,
      "auto": 3188,
      "rowser": 3189,
      "Ġcar": 3190,
      "Container": 3191,
      "Style": 3192,
      "Ġeven": 3193,
      "session": 3194,
      "google": 3195,
      "ze": 3196,
      "missions": 3197,
      "Ġcenter": 3198,
      "Ġscript": 3199,
      "Output": 3200,
      "Ġ>=": 3201,
      "Ðº": 3202,
      "ä½¿": 3203,
      "ORT": 3204,
      "SET": 3205,
      "iddle": 3206,
      "imum": 3207,
      "bind": 3208,
      "Ġdirectory": 3209,
      "63": 3210,
      "fmt": 3211,
      "Ġworld": 3212,
      "Ġtool": 3213,
      "ountry": 3214,
      "duction": 3215,
      "å±": 3216,
      "cli": 3217,
      "Ġhand": 3218,
      "Ġinitial": 3219,
      "ration": 3220,
      "'.": 3221,
      "82": 3222,
      "ĠAd": 3223,
      "uint": 3224,
      "Ġproduct": 3225,
      "Util": 3226,
      "Width": 3227,
      "Ġpol": 3228,
      "Ġhandle": 3229,
      "Ġlanguage": 3230,
      "vm": 3231,
      "umb": 3232,
      "èĥ½": 3233,
      "Ġchildren": 3234,
      "rt": 3235,
      "make": 3236,
      "Ġĉ": 3237,
      "reat": 3238,
      "Ġenvironment": 3239,
      "Ġrecord": 3240,
      "Off": 3241,
      "ĠÐ¿": 3242,
      "actions": 3243,
      "72": 3244,
      "orch": 3245,
      ")}": 3246,
      "Ġboth": 3247,
      "ATH": 3248,
      "Ġagain": 3249,
      "resp": 3250,
      "83": 3251,
      "(:": 3252,
      "way": 3253,
      "Ġpop": 3254,
      "ds": 3255,
      "Ġaut": 3256,
      "åº¦": 3257,
      "Pre": 3258,
      "ived": 3259,
      "Dep": 3260,
      "Ġeffect": 3261,
      ".,": 3262,
      "čĊčĊĠĠĠ": 3263,
      "device": 3264,
      "cmd": 3265,
      "Ġcalled": 3266,
      "aster": 3267,
      "Ġprogram": 3268,
      "ë¡": 3269,
      "Ġuint": 3270,
      "Ġtypes": 3271,
      "(){": 3272,
      "hel": 3273,
      "ĠUp": 3274,
      "Web": 3275,
      "åĪĨ": 3276,
      "models": 3277,
      "ites": 3278,
      "actor": 3279,
      "Ġconf": 3280,
      "Ġ!==": 3281,
      "Ġposs": 3282,
      "ains": 3283,
      "70": 3284,
      "oto": 3285,
      "Resource": 3286,
      "license": 3287,
      "You": 3288,
      "Ġproble": 3289,
      "Rou": 3290,
      "ital": 3291,
      "ium": 3292,
      "Ġgu": 3293,
      "93": 3294,
      "à¤°": 3295,
      "pol": 3296,
      "Ġtemplate": 3297,
      "tegr": 3298,
      "acy": 3299,
      "äºº": 3300,
      "property": 3301,
      "èĩ": 3302,
      "RL": 3303,
      "ios": 3304,
      "INT": 3305,
      "á»": 3306,
      "Ġvery": 3307,
      "duce": 3308,
      "Ġnetwork": 3309,
      "resource": 3310,
      "tmp": 3311,
      "Ġperson": 3312,
      "land": 3313,
      "Icon": 3314,
      ".__": 3315,
      "Cl": 3316,
      "testing": 3317,
      "System": 3318,
      "Max": 3319,
      "ä¼ļ": 3320,
      "Ġincre": 3321,
      "à¤¾": 3322,
      "inline": 3323,
      "insert": 3324,
      "bash": 3325,
      "Ġge": 3326,
      "account": 3327,
      "ior": 3328,
      "second": 3329,
      "ĠAll": 3330,
      "ìł": 3331,
      "æĪĲ": 3332,
      "utes": 3333,
      "Ġpos": 3334,
      "sha": 3335,
      "NO": 3336,
      "na": 3337,
      "ĠâĢĵ": 3338,
      "Open": 3339,
      "byte": 3340,
      "Ġdec": 3341,
      "fi": 3342,
      "RT": 3343,
      "quence": 3344,
      "Ġiss": 3345,
      "ism": 3346,
      "æį®": 3347,
      "Task": 3348,
      "Ġbu": 3349,
      "aly": 3350,
      "255": 3351,
      "ĠSee": 3352,
      "ulation": 3353,
      "alog": 3354,
      "entry": 3355,
      "ulti": 3356,
      "å¤§": 3357,
      "ym": 3358,
      "BU": 3359,
      "Provider": 3360,
      "igin": 3361,
      "imal": 3362,
      "ë¥": 3363,
      "ĠOr": 3364,
      "ä½ľ": 3365,
      "Child": 3366,
      "usr": 3367,
      "Params": 3368,
      "å¿": 3369,
      ",-": 3370,
      "FO": 3371,
      "ultiple": 3372,
      "Ġold": 3373,
      "stro": 3374,
      "SERT": 3375,
      "expected": 3376,
      "achine": 3377,
      "Ġsum": 3378,
      "commit": 3379,
      "Ġalign": 3380,
      "river": 3381,
      "Ġ<=": 3382,
      "é¡": 3383,
      "åİ": 3384,
      "51": 3385,
      "ê°": 3386,
      "Ġmet": 3387,
      "ĠFile": 3388,
      "replace": 3389,
      "Ġap": 3390,
      "PRO": 3391,
      "MS": 3392,
      "brary": 3393,
      "inition": 3394,
      "coding": 3395,
      "2021": 3396,
      "Ġpackage": 3397,
      "Ġtests": 3398,
      "sing": 3399,
      "Ġjava": 3400,
      "2019": 3401,
      "ìĹĲ": 3402,
      "handle": 3403,
      "era": 3404,
      "mar": 3405,
      "unic": 3406,
      "Each": 3407,
      "================================": 3408,
      "ĠIS": 3409,
      "Ġsend": 3410,
      "interface": 3411,
      "transform": 3412,
      "Ġconnect": 3413,
      "åĳ": 3414,
      "Ġdelete": 3415,
      "Ġ'../": 3416,
      ")))": 3417,
      "}>": 3418,
      "ç¨": 3419,
      "lied": 3420,
      "points": 3421,
      "UI": 3422,
      "copy": 3423,
      "äºİ": 3424,
      "sort": 3425,
      "cell": 3426,
      "[[": 3427,
      "-.": 3428,
      "pped": 3429,
      "Ġwindow": 3430,
      "Ġobj": 3431,
      "ĠLog": 3432,
      "aded": 3433,
      "&&": 3434,
      "ĠUI": 3435,
      "ĠNot": 3436,
      "aml": 3437,
      "æ³ķ": 3438,
      "stack": 3439,
      "Ġfull": 3440,
      "cr": 3441,
      "ivers": 3442,
      "Ġthose": 3443,
      "imer": 3444,
      "éĻ": 3445,
      "meta": 3446,
      "mock": 3447,
      "pop": 3448,
      "################################": 3449,
      "coder": 3450,
      "Do": 3451,
      "inary": 3452,
      "Const": 3453,
      "Listener": 3454,
      "Ġsim": 3455,
      "Ġtag": 3456,
      "Ġinfo": 3457,
      "control": 3458,
      "Ġsoftware": 3459,
      "Oper": 3460,
      "Dir": 3461,
      "62": 3462,
      "rel": 3463,
      "Ġreturns": 3464,
      "Ġtake": 3465,
      "toBe": 3466,
      "Script": 3467,
      "nap": 3468,
      "ĠArray": 3469,
      "AGE": 3470,
      "ĠHow": 3471,
      "bool": 3472,
      "Ġjob": 3473,
      "igger": 3474,
      "Ġpartic": 3475,
      "Ġeither": 3476,
      "Ġhealth": 3477,
      "chool": 3478,
      "(()": 3479,
      "....": 3480,
      "ĠDEFAULT": 3481,
      "ebug": 3482,
      "Ġbased": 3483,
      "ĠCopyright": 3484,
      "assets": 3485,
      "xml": 3486,
      "Entity": 3487,
      "custom": 3488,
      "ĊĊĉĉ": 3489,
      "Ġlength": 3490,
      "ĠJSON": 3491,
      "åĲİ": 3492,
      "java": 3493,
      "è¡¨": 3494,
      "ãĥ¼": 3495,
      "Store": 3496,
      "çĲ": 3497,
      "@@": 3498,
      "aterial": 3499,
      "Ø§": 3500,
      "ç®": 3501,
      "entity": 3502,
      "zip": 3503,
      "Ġmsg": 3504,
      "LIC": 3505,
      "ocial": 3506,
      "''": 3507,
      "ourse": 3508,
      "Ġ-->": 3509,
      "Ġemail": 3510,
      "ìĿĦ": 3511,
      "Ġreal": 3512,
      "Ġsingle": 3513,
      "CR": 3514,
      "uture": 3515,
      "čĊĠĠĠĠĠ": 3516,
      "81": 3517,
      "ITY": 3518,
      "wargs": 3519,
      "Ġexperi": 3520,
      "grid": 3521,
      "FT": 3522,
      "Ġtech": 3523,
      "LI": 3524,
      "Ġ\"\",": 3525,
      "åıĳ": 3526,
      "rs": 3527,
      "Gener": 3528,
      "leted": 3529,
      "UB": 3530,
      "ffic": 3531,
      "render": 3532,
      "Ġdatabase": 3533,
      "Ġyears": 3534,
      "VAL": 3535,
      "ipel": 3536,
      "CP": 3537,
      "bc": 3538,
      "Ġconfiguration": 3539,
      "Ġresource": 3540,
      "bs": 3541,
      "åĩº": 3542,
      "åī": 3543,
      "Ġgood": 3544,
      "Ġcallback": 3545,
      "Length": 3546,
      "translation": 3547,
      "ring": 3548,
      "Ġpassword": 3549,
      ")),": 3550,
      "bytes": 3551,
      "ado": 3552,
      "NS": 3553,
      "(*": 3554,
      "blob": 3555,
      "pping": 3556,
      "Ġdevice": 3557,
      "bu": 3558,
      "Ġgover": 3559,
      "fc": 3560,
      "Title": 3561,
      "ĠVersion": 3562,
      "job": 3563,
      "ï¼ī": 3564,
      "unit": 3565,
      "AY": 3566,
      "ias": 3567,
      "ĠÃ": 3568,
      "cap": 3569,
      "ĠAnd": 3570,
      "icrosoft": 3571,
      "Ġdid": 3572,
      "ATION": 3573,
      "Ġvol": 3574,
      "ĠÑģ": 3575,
      "gu": 3576,
      "Ġbot": 3577,
      "agement": 3578,
      "æ¯": 3579,
      "irm": 3580,
      "Ġ[],": 3581,
      "}.": 3582,
      "Ġsort": 3583,
      "é¢": 3584,
      "fd": 3585,
      "Ġerrors": 3586,
      "cover": 3587,
      "Ġwater": 3588,
      "Ġapi": 3589,
      "unity": 3590,
      "}`": 3591,
      "Ġdistributed": 3592,
      "buffer": 3593,
      "requ": 3594,
      "Ġcatch": 3595,
      "Ġ];": 3596,
      "ãĤĴ": 3597,
      "æĬ": 3598,
      "AAAA": 3599,
      "ĠST": 3600,
      "game": 3601,
      "assertEqual": 3602,
      "vid": 3603,
      "ialog": 3604,
      "Ð²": 3605,
      "Ġ((": 3606,
      "ĠOk": 3607,
      "Ph": 3608,
      "tain": 3609,
      "Body": 3610,
      "Ġocc": 3611,
      "success": 3612,
      "ilt": 3613,
      "âĢľ": 3614,
      "vas": 3615,
      "Ġremove": 3616,
      "alled": 3617,
      "ê³": 3618,
      "rep": 3619,
      "valu": 3620,
      "Ġbutton": 3621,
      "ï¼Ī": 3622,
      "æĿ¥": 3623,
      "ynam": 3624,
      "Ġbytes": 3625,
      "ĊĠĠĠĠĠĠĠĠĠĠĠĠĠĠĠĠĠĠĠĠĠĠĠĠĠĠĠĠĠĠĠĠĠĠĠĠĠĠĠĠĠĠĠĠĠĠĠĠ": 3626,
      "Hash": 3627,
      "Ġnone": 3628,
      "ĠDis": 3629,
      "CTION": 3630,
      "SD": 3631,
      "Ġduring": 3632,
      "Layout": 3633,
      "limit": 3634,
      "JSON": 3635,
      "full": 3636,
      "Control": 3637,
      "sql": 3638,
      "totype": 3639,
      "tags": 3640,
      "Ġmodels": 3641,
      "async": 3642,
      "arr": 3643,
      "ython": 3644,
      "ibility": 3645,
      "Print": 3646,
      "Dec": 3647,
      "Ġinf": 3648,
      "logger": 3649,
      "Ġday": 3650,
      "Ġim": 3651,
      "ssages": 3652,
      "Ġsmall": 3653,
      "ERR": 3654,
      "ĠEX": 3655,
      "Ġproperty": 3656,
      "ä½¿çĶ¨": 3657,
      "'))": 3658,
      "bove": 3659,
      "çº": 3660,
      "filename": 3661,
      "Ġalready": 3662,
      "Ġparameters": 3663,
      "Part": 3664,
      "wik": 3665,
      "ë¡ľ": 3666,
      "Ġcert": 3667,
      "media": 3668,
      "Ġ\"./": 3669,
      "alt": 3670,
      "æľ¬": 3671,
      "tected": 3672,
      "61": 3673,
      "Ġreq": 3674,
      "Ġexport": 3675,
      "ounds": 3676,
      "ignore": 3677,
      "Ġcontainer": 3678,
      "window": 3679,
      "^^": 3680,
      "ĠNo": 3681,
      "Menu": 3682,
      "edit": 3683,
      "Port": 3684,
      "Ġmade": 3685,
      "Height": 3686,
      "tools": 3687,
      "ĠResult": 3688,
      "aws": 3689,
      "åı¯ä»¥": 3690,
      "Access": 3691,
      "æµ": 3692,
      "register": 3693,
      "uman": 3694,
      "iant": 3695,
      "ured": 3696,
      "!(\"": 3697,
      "è½": 3698,
      "Fe": 3699,
      "GET": 3700,
      "clear": 3701,
      "empty": 3702,
      "çĲĨ": 3703,
      "Order": 3704,
      "random": 3705,
      "settings": 3706,
      "iod": 3707,
      "ung": 3708,
      "000000": 3709,
      "Ġmuch": 3710,
      "Sc": 3711,
      "oh": 3712,
      "install": 3713,
      "Ġfmt": 3714,
      "application": 3715,
      "hav": 3716,
      "ACK": 3717,
      "æı": 3718,
      "stand": 3719,
      "TRGL": 3720,
      "çĤ": 3721,
      "TYPE": 3722,
      "xx": 3723,
      "itter": 3724,
      "FILE": 3725,
      "plot": 3726,
      "READ": 3727,
      "'])": 3728,
      "Ġplay": 3729,
      "peed": 3730,
      "ç±": 3731,
      "ç¬": 3732,
      "Ġeas": 3733,
      "tri": 3734,
      "Ġwithin": 3735,
      "Ġgr": 3736,
      "Ġprovided": 3737,
      "Work": 3738,
      "92": 3739,
      "ENSE": 3740,
      "SH": 3741,
      "ocket": 3742,
      "âķ": 3743,
      "ÐµÐ½": 3744,
      "Ġnormal": 3745,
      "she": 3746,
      "angular": 3747,
      "Cell": 3748,
      "ĠÐ²": 3749,
      "Write": 3750,
      "tar": 3751,
      "scope": 3752,
      "istant": 3753,
      "batch": 3754,
      "ead": 3755,
      "Ġabove": 3756,
      "Ġcommon": 3757,
      "Ġmove": 3758,
      "It": 3759,
      "ESS": 3760,
      "ĠĊĠĠĠ": 3761,
      "Sign": 3762,
      "Factory": 3763,
      "ĊĠĠĠĠĠĠĠĠĠĠĠĠĠĠĠĠĠĠĠĠĠĠĠĠĠĠĠĠĠĠĠĠĠĠĠĠĠĠĠ": 3764,
      "æķ°æį®": 3765,
      "ç¨ĭ": 3766,
      "Ġsy": 3767,
      "irtual": 3768,
      "ĠSystem": 3769,
      "hy": 3770,
      "ìŀ": 3771,
      "users": 3772,
      "dc": 3773,
      "ĠSelf": 3774,
      "('/": 3775,
      "Ġconstructor": 3776,
      "=>": 3777,
      "ĠName": 3778,
      "edia": 3779,
      "none": 3780,
      "buf": 3781,
      "leep": 3782,
      "access": 3783,
      "EL": 3784,
      "release": 3785,
      "adow": 3786,
      "Record": 3787,
      "Ġcause": 3788,
      "Ġdes": 3789,
      "bad": 3790,
      "Ġspecified": 3791,
      "range": 3792,
      "login": 3793,
      "Ġquest": 3794,
      "STR": 3795,
      "tw": 3796,
      "Ġ(\"": 3797,
      "ĠGMT": 3798,
      "tail": 3799,
      "Ġgame": 3800,
      "Search": 3801,
      "tml": 3802,
      "Ġcap": 3803,
      "Ġctx": 3804,
      "Position": 3805,
      "Tag": 3806,
      "Ġglobal": 3807,
      "MENT": 3808,
      "curity": 3809,
      "Ġchannel": 3810,
      "clone": 3811,
      ">;": 3812,
      "ired": 3813,
      "Ġchanges": 3814,
      "ĠRun": 3815,
      "Ġperform": 3816,
      "bed": 3817,
      "Ġentry": 3818,
      "where": 3819,
      "lines": 3820,
      "ë¥¼": 3821,
      "ires": 3822,
      "Cache": 3823,
      "ĠCl": 3824,
      "Ġcache": 3825,
      "Ġheader": 3826,
      "username": 3827,
      "Account": 3828,
      "tle": 3829,
      "Level": 3830,
      "ìĿĺ": 3831,
      "sys": 3832,
      "_.": 3833,
      "vector": 3834,
      "gor": 3835,
      "ç«": 3836,
      "ãģĻ": 3837,
      "imation": 3838,
      "quot": 3839,
      "Ġalt": 3840,
      "ĠTHE": 3841,
      "BA": 3842,
      "cret": 3843,
      "margin": 3844,
      "Min": 3845,
      "ç½®": 3846,
      "ambda": 3847,
      "KEY": 3848,
      "ship": 3849,
      "eded": 3850,
      "Return": 3851,
      "eta": 3852,
      "hs": 3853,
      "Ġìŀ": 3854,
      "cel": 3855,
      "èµ": 3856,
      "ART": 3857,
      "Bar": 3858,
      "çľ": 3859,
      "Ġauthor": 3860,
      "rie": 3861,
      "Ġ($": 3862,
      "aj": 3863,
      "break": 3864,
      "Ġda": 3865,
      "names": 3866,
      "Que": 3867,
      "undle": 3868,
      "Ġbox": 3869,
      "DU": 3870,
      "Ã£": 3871,
      "Ġflex": 3872,
      ")).": 3873,
      "Ñĩ": 3874,
      "before": 3875,
      "Ġ_,": 3876,
      "ĠĠĠĠĠĠĠĠĠĠĠĠĠ": 3877,
      "è¿ĩ": 3878,
      "des": 3879,
      "ops": 3880,
      "aut": 3881,
      "ĠReturns": 3882,
      "Ġrandom": 3883,
      "Sec": 3884,
      "ì§": 3885,
      "Ġitems": 3886,
      "category": 3887,
      ".\",": 3888,
      "Ġ2021": 3889,
      "ìļ": 3890,
      ",,": 3891,
      "Ġenum": 3892,
      "ĠWeb": 3893,
      "?;": 3894,
      "ĠAuth": 3895,
      "ced": 3896,
      "Ġ([": 3897,
      "åħ¥": 3898,
      "ipeline": 3899,
      "printf": 3900,
      "uri": 3901,
      "Ġput": 3902,
      "acing": 3903,
      "Ã§": 3904,
      "å¥": 3905,
      "ety": 3906,
      "Ġ::": 3907,
      "æŀľ": 3908,
      "ordin": 3909,
      "igation": 3910,
      "=\"/": 3911,
      "71": 3912,
      "PATH": 3913,
      "Entry": 3914,
      "ç±»": 3915,
      "ĠINTO": 3916,
      "Ġkeep": 3917,
      "lang": 3918,
      "Ã¼": 3919,
      "Num": 3920,
      "idual": 3921,
      "meric": 3922,
      "term": 3923,
      "apache": 3924,
      "gb": 3925,
      "ernel": 3926,
      "UES": 3927,
      "Ġear": 3928,
      "gment": 3929,
      "Ġ{'": 3930,
      "Ġapplic": 3931,
      "Ġresearch": 3932,
      "EC": 3933,
      "itive": 3934,
      "hes": 3935,
      "Ġdiv": 3936,
      "schema": 3937,
      "SION": 3938,
      "Cre": 3939,
      "Ġbit": 3940,
      "dim": 3941,
      "network": 3942,
      "INSERT": 3943,
      "Ġmock": 3944,
      "ended": 3945,
      "Ġ24": 3946,
      "profile": 3947,
      "Top": 3948,
      "Ġpresent": 3949,
      "record": 3950,
      "(-": 3951,
      "ĠValue": 3952,
      "Ġclear": 3953,
      "Down": 3954,
      "91": 3955,
      "drop": 3956,
      "hether": 3957,
      "struction": 3958,
      "ãĤĭ": 3959,
      "Ġfree": 3960,
      "alys": 3961,
      "ech": 3962,
      "ĠCheck": 3963,
      "Ġgraph": 3964,
      "Ġoverride": 3965,
      "ĠìĿ": 3966,
      "utor": 3967,
      "æĭ": 3968,
      "DS": 3969,
      "console": 3970,
      "mm": 3971,
      "ĠGener": 3972,
      "Values": 3973,
      "Ġimportant": 3974,
      "Ġsession": 3975,
      "PL": 3976,
      "å¼ı": 3977,
      "Storage": 3978,
      "Mat": 3979,
      "Ġorgan": 3980,
      "pose": 3981,
      "Card": 3982,
      "Ġfields": 3983,
      "Description": 3984,
      "=\"#": 3985,
      "Ġless": 3986,
      "isk": 3987,
      "Ġbest": 3988,
      "Pack": 3989,
      "lab": 3990,
      "ĊĊĊĊ": 3991,
      "Ġpower": 3992,
      "ters": 3993,
      "ç¤": 3994,
      "Attribute": 3995,
      "cloud": 3996,
      "å°±": 3997,
      "Target": 3998,
      "ours": 3999,
      "Ġlocation": 4000,
      "erc": 4001,
      "Ġicon": 4002,
      "Ġcorrect": 4003,
      "Ġtransform": 4004,
      "Ġoption": 4005,
      "Ġfeatures": 4006,
      "Ð¼": 4007,
      "urren": 4008,
      "ird": 4009,
      "Ġexit": 4010,
      "Ġsave": 4011,
      "'>": 4012,
      "IO": 4013,
      "ÑģÑĤ": 4014,
      "Ġusers": 4015,
      "Ġ23": 4016,
      "Ġ'../../": 4017,
      "Document": 4018,
      "Ġstream": 4019,
      "alysis": 4020,
      "iness": 4021,
      "fb": 4022,
      "ixel": 4023,
      "ĠSp": 4024,
      "ById": 4025,
      "scale": 4026,
      "rict": 4027,
      "è´": 4028,
      "ãģĹ": 4029,
      "Ġ25": 4030,
      "Ġpossible": 4031,
      "theme": 4032,
      "cfg": 4033,
      "used": 4034,
      "ĠConfig": 4035,
      "Ġpur": 4036,
      "æĽ": 4037,
      "Ã£o": 4038,
      "ĠTABLE": 4039,
      "help": 4040,
      "Ġhome": 4041,
      "Ġlogger": 4042,
      "ãģ«": 4043,
      "Range": 4044,
      "Ġrunning": 4045,
      "uple": 4046,
      "mote": 4047,
      "raft": 4048,
      "ãģĦ": 4049,
      "bers": 4050,
      "ĠVAL": 4051,
      ")](": 4052,
      "Ġrole": 4053,
      "track": 4054,
      "Ġrelease": 4055,
      "Char": 4056,
      "Ġconnection": 4057,
      "vec": 4058,
      "Ġparameter": 4059,
      "çł": 4060,
      "Ġ\"#": 4061,
      "Arg": 4062,
      ":**": 4063,
      "unt": 4064,
      "DD": 4065,
      "Ġsite": 4066,
      "Ġsaid": 4067,
      "LECT": 4068,
      "Ġder": 4069,
      "Com": 4070,
      "Ġempty": 4071,
      "çĤ¹": 4072,
      "Ins": 4073,
      "au": 4074,
      "CI": 4075,
      "ĠNode": 4076,
      "oom": 4077,
      "=(": 4078,
      "Ġmer": 4079,
      "Tree": 4080,
      "Post": 4081,
      "hover": 4082,
      "Ġeng": 4083,
      "Ġamount": 4084,
      "dat": 4085,
      "Ġanother": 4086,
      "128": 4087,
      "Reg": 4088,
      "Ġsure": 4089,
      "ĠBe": 4090,
      "orn": 4091,
      "One": 4092,
      "ATA": 4093,
      "Ġgen": 4094,
      "2017": 4095,
      "æİ¥": 4096,
      "ĠANY": 4097,
      "Ġ32": 4098,
      "solute": 4099,
      "irc": 4100,
      "ending": 4101,
      "Ġdouble": 4102,
      "pkg": 4103,
      "Ġcome": 4104,
      "Ġtri": 4105,
      "cluster": 4106,
      "Ġbook": 4107,
      "Ġmight": 4108,
      "Ġsolid": 4109,
      "ä»¬": 4110,
      "Ġimg": 4111,
      "member": 4112,
      "XX": 4113,
      "åĬł": 4114,
      "ĠURL": 4115,
      "ĠForm": 4116,
      "WS": 4117,
      "Host": 4118,
      "Ġoffset": 4119,
      "car": 4120,
      "stract": 4121,
      "Ġparser": 4122,
      "Red": 4123,
      "umpy": 4124,
      "je": 4125,
      "MD": 4126,
      "tric": 4127,
      "âĢĶ": 4128,
      "reference": 4129,
      "åŃĹ": 4130,
      ")\"": 4131,
      "Last": 4132,
      "ele": 4133,
      "sy": 4134,
      "Ġâ": 4135,
      "æĸ°": 4136,
      "ĠPh": 4137,
      "Ġ\"^": 4138,
      "styles": 4139,
      "ROM": 4140,
      "aper": 4141,
      "Ste": 4142,
      "Ġtyp": 4143,
      "Window": 4144,
      "cv": 4145,
      "avas": 4146,
      "Ġheaders": 4147,
      "________": 4148,
      "Ġfail": 4149,
      "Ġ>>": 4150,
      "radius": 4151,
      "Err": 4152,
      "alpha": 4153,
      "Ġincluding": 4154,
      "feature": 4155,
      "`)": 4156,
      "ouch": 4157,
      "prototype": 4158,
      "wd": 4159,
      "Ġgenerate": 4160,
      "gex": 4161,
      "gistry": 4162,
      "Ġstill": 4163,
      "æīĢ": 4164,
      "results": 4165,
      "fields": 4166,
      "padding": 4167,
      "Ġsimple": 4168,
      "à¤¤": 4169,
      "download": 4170,
      "ights": 4171,
      "Ġregister": 4172,
      "gorith": 4173,
      "éĿ¢": 4174,
      "Ġfilename": 4175,
      "namespace": 4176,
      "SA": 4177,
      "sure": 4178,
      "Ġshort": 4179,
      "Ġcontains": 4180,
      "asure": 4181,
      "reed": 4182,
      "ention": 4183,
      "selected": 4184,
      "report": 4185,
      "Ġspace": 4186,
      "Process": 4187,
      "Ġfi": 4188,
      "125": 4189,
      "èĩª": 4190,
      "License": 4191,
      "OK": 4192,
      "chain": 4193,
      "annot": 4194,
      "ĠKey": 4195,
      "Pr": 4196,
      "napshot": 4197,
      "allet": 4198,
      "Option": 4199,
      "storage": 4200,
      "ina": 4201,
      "year": 4202,
      "spot": 4203,
      "()).": 4204,
      "çŃ": 4205,
      "errors": 4206,
      "irection": 4207,
      "Ġpython": 4208,
      "Ġ(`": 4209,
      "Vis": 4210,
      "Sw": 4211,
      "AND": 4212,
      "Ġclose": 4213,
      "ĠMe": 4214,
      "normal": 4215,
      "=\\\"": 4216,
      "Ġsettings": 4217,
      "lat": 4218,
      "allow": 4219,
      "Json": 4220,
      "ga": 4221,
      "holder": 4222,
      "Ġbuffer": 4223,
      "pache": 4224,
      "Ġappro": 4225,
      "ðŁ": 4226,
      "Settings": 4227,
      "Ġ40": 4228,
      "nn": 4229,
      "åīį": 4230,
      "Ġtoo": 4231,
      "ases": 4232,
      "dt": 4233,
      "mask": 4234,
      "alf": 4235,
      "å®ŀ": 4236,
      "issues": 4237,
      "ãģ§": 4238,
      "Ġ~": 4239,
      "plugin": 4240,
      "Ġcent": 4241,
      "ZE": 4242,
      "avascript": 4243,
      "fill": 4244,
      "oding": 4245,
      "tip": 4246,
      "Ġfeature": 4247,
      "INE": 4248,
      "Ġ2020": 4249,
      "wise": 4250,
      "Ġcrate": 4251,
      "Ġdel": 4252,
      "tests": 4253,
      "Ġsent": 4254,
      "ĊĊĠĠ": 4255,
      "oose": 4256,
      "Ġiter": 4257,
      "Schema": 4258,
      "webkit": 4259,
      "Ġenv": 4260,
      "å¤ļ": 4261,
      "Ġaround": 4262,
      "assistant": 4263,
      "500": 4264,
      "Ġfin": 4265,
      "Ä±": 4266,
      "lished": 4267,
      "orth": 4268,
      "aving": 4269,
      "bd": 4270,
      "Ð´": 4271,
      "Ġok": 4272,
      "Obj": 4273,
      "Ġassoci": 4274,
      "ral": 4275,
      "ively": 4276,
      "ority": 4277,
      "Ġselected": 4278,
      "ka": 4279,
      "\\/": 4280,
      "Ġexpress": 4281,
      "ĠWAR": 4282,
      "Tool": 4283,
      "ORD": 4284,
      "Ġbelow": 4285,
      "ĠEvent": 4286,
      "ĠWhen": 4287,
      "known": 4288,
      "Ġside": 4289,
      "è¿Ľ": 4290,
      "sample": 4291,
      "Ġtf": 4292,
      "Ġthree": 4293,
      "boot": 4294,
      "Ġmethods": 4295,
      "PS": 4296,
      "END": 4297,
      "draw": 4298,
      "ĠDefault": 4299,
      "Mon": 4300,
      "Ġlife": 4301,
      "Parameter": 4302,
      "ones": 4303,
      "ĠĠĠĠĠĠĠĠĠĠĠĠĠĠ": 4304,
      "çĶŁ": 4305,
      "ĊĠĠĠĠĠĠĠĠĠĠĠĠĠĠĠĠĠĠĠĠĠĠĠĠĠ": 4306,
      "ĠTime": 4307,
      "ifest": 4308,
      "Ġhash": 4309,
      "unch": 4310,
      "Ġrepresent": 4311,
      "prefix": 4312,
      "//!": 4313,
      "ĠâĢĶ": 4314,
      "Ġ[];": 4315,
      "ARE": 4316,
      "\"/>": 4317,
      "gl": 4318,
      "Ġlicense": 4319,
      "ilar": 4320,
      "npm": 4321,
      "<'": 4322,
      "icker": 4323,
      "Ġ),": 4324,
      "stop": 4325,
      "Connection": 4326,
      "æĥ": 4327,
      "important": 4328,
      "åĬ¨": 4329,
      "Session": 4330,
      "ategories": 4331,
      "Template": 4332,
      "BO": 4333,
      "ĠUse": 4334,
      "ĠĊĠ": 4335,
      "features": 4336,
      "role": 4337,
      "ĠThey": 4338,
      "!!": 4339,
      "Ġobtain": 4340,
      "Ġê°": 4341,
      "NE": 4342,
      "Location": 4343,
      "Ġsection": 4344,
      "ayment": 4345,
      "Ġconsider": 4346,
      "Ġdefined": 4347,
      "fin": 4348,
      "amera": 4349,
      "rest": 4350,
      "Ġ\",": 4351,
      "Ġgit": 4352,
      "long": 4353,
      "199": 4354,
      "Ġmean": 4355,
      "Ã¤": 4356,
      "Ġpres": 4357,
      "ĠThere": 4358,
      "::{": 4359,
      "Project": 4360,
      "erm": 4361,
      "åĽŀ": 4362,
      "å¼Ģ": 4363,
      "poch": 4364,
      "Ġsys": 4365,
      "Float": 4366,
      "è·": 4367,
      "tab": 4368,
      "PR": 4369,
      "pm": 4370,
      "Null": 4371,
      "Ð¾Ð²": 4372,
      "QU": 4373,
      "ada": 4374,
      "pected": 4375,
      "erial": 4376,
      "ĠÐ½": 4377,
      "angle": 4378,
      "Ł¥": 4379,
      "ĠOpen": 4380,
      "ĠPl": 4381,
      "global": 4382,
      "Ġdiff": 4383,
      "ĠCre": 4384,
      "alance": 4385,
      "Bl": 4386,
      ")(": 4387,
      "Ġfact": 4388,
      "Ġdoc": 4389,
      "ĠEN": 4390,
      "mac": 4391,
      "Ċĉĉĉĉĉĉĉ": 4392,
      "ìĬ": 4393,
      "åŃĺ": 4394,
      "GR": 4395,
      "Ġsample": 4396,
      "Ġtrack": 4397,
      "safe": 4398,
      "imate": 4399,
      "ĊĠĠĠĠĠĠĠĠĠĠ": 4400,
      "iler": 4401,
      "Edit": 4402,
      "ĠAmeric": 4403,
      "Callback": 4404,
      "Ġve": 4405,
      "Http": 4406,
      "Īĺ": 4407,
      "Device": 4408,
      "2016": 4409,
      "åıĸ": 4410,
      "ands": 4411,
      "Ġbel": 4412,
      "Ġdevelopment": 4413,
      "argument": 4414,
      "Mark": 4415,
      "HER": 4416,
      "Ġhim": 4417,
      "ĠEng": 4418,
      "ĠMan": 4419,
      "ĠDo": 4420,
      "æ²": 4421,
      "Ġtorch": 4422,
      "math": 4423,
      "into": 4424,
      "éģ": 4425,
      "íķľ": 4426,
      "Ind": 4427,
      "aint": 4428,
      "Ġmedi": 4429,
      "VERSION": 4430,
      "Ġ00": 4431,
      "non": 4432,
      "ĠVec": 4433,
      "jo": 4434,
      "IND": 4435,
      "éĹ´": 4436,
      "Delete": 4437,
      "Items": 4438,
      "0000000000000000": 4439,
      "Ġ$('": 4440,
      "diff": 4441,
      "loss": 4442,
      "URE": 4443,
      "Ġfix": 4444,
      "UD": 4445,
      "Msg": 4446,
      "Render": 4447,
      "acc": 4448,
      "Ġlaw": 4449,
      "|>{\"": 4450,
      ".<|": 4451,
      "Ġsince": 4452,
      "Errorf": 4453,
      "Parser": 4454,
      "Ġsetup": 4455,
      "Ġlarge": 4456,
      "redential": 4457,
      "ircle": 4458,
      "greg": 4459,
      "Override": 4460,
      "csv": 4461,
      "Selector": 4462,
      "ĠVal": 4463,
      "ĠLo": 4464,
      "otal": 4465,
      "Ġemp": 4466,
      "Ġprevious": 4467,
      "bf": 4468,
      "LOG": 4469,
      "kwargs": 4470,
      "Ġwriting": 4471,
      "Ġenc": 4472,
      "anner": 4473,
      "My": 4474,
      "Ġtree": 4475,
      "Debug": 4476,
      ">:": 4477,
      "Ġoriginal": 4478,
      "Ġmultiple": 4479,
      "toString": 4480,
      "Current": 4481,
      "ana": 4482,
      "ha": 4483,
      "åĨħ": 4484,
      "Ġpat": 4485,
      ".$": 4486,
      "Ļ¨": 4487,
      "metadata": 4488,
      "yaml": 4489,
      "ĠTrans": 4490,
      "Ġsupp": 4491,
      "itude": 4492,
      "Ġ({": 4493,
      "Ġsubject": 4494,
      "Ġ$(": 4495,
      "Ġapply": 4496,
      "router": 4497,
      "Direct": 4498,
      "Param": 4499,
      "Ġlibrary": 4500,
      "ĠSub": 4501,
      "thread": 4502,
      "Ġactive": 4503,
      "Op": 4504,
      "_,": 4505,
      "HTML": 4506,
      "month": 4507,
      "ĠPart": 4508,
      "Widget": 4509,
      "Ġfill": 4510,
      "vi": 4511,
      "fix": 4512,
      "ĠVALUES": 4513,
      "ks": 4514,
      "await": 4515,
      ".*": 4516,
      "Stack": 4517,
      "¸°": 4518,
      "Ġswitch": 4519,
      "DF": 4520,
      ">)": 4521,
      "Ġevents": 4522,
      "Ġfunctions": 4523,
      "à¤ĥ": 4524,
      "support": 4525,
      "Match": 4526,
      "PC": 4527,
      "upload": 4528,
      "âĸĪ": 4529,
      "Ġlight": 4530,
      "Exec": 4531,
      "æľĢ": 4532,
      "Ġ22": 4533,
      "addr": 4534,
      "ragment": 4535,
      "Ġdict": 4536,
      "plit": 4537,
      "Ġrad": 4538,
      "Ġnamespace": 4539,
      "Ġsever": 4540,
      "ĠWARRAN": 4541,
      "Ġdetails": 4542,
      "Ġandroid": 4543,
      "Ġuses": 4544,
      "åĲį": 4545,
      "lint": 4546,
      "Ġutil": 4547,
      "uro": 4548,
      "ansport": 4549,
      "æĢ§": 4550,
      "ëĵ": 4551,
      "éĢļ": 4552,
      "Ġ21": 4553,
      "ench": 4554,
      "Ġdest": 4555,
      "apping": 4556,
      "loyment": 4557,
      "created": 4558,
      "ĠInd": 4559,
      "ĉĉĉ": 4560,
      "done": 4561,
      "Ġthink": 4562,
      "Left": 4563,
      "Channel": 4564,
      "ĠImp": 4565,
      "del": 4566,
      "Ġmeans": 4567,
      "after": 4568,
      "åĻ¨": 4569,
      "åŀ": 4570,
      "lip": 4571,
      "Ġproperties": 4572,
      "Timeout": 4573,
      "ERROR": 4574,
      "grad": 4575,
      "Ġstudy": 4576,
      "Graph": 4577,
      "CS": 4578,
      "thers": 4579,
      "hidden": 4580,
      "Īëĭ¤": 4581,
      "Ġcharacter": 4582,
      "åĢ¼": 4583,
      "éľ": 4584,
      "Close": 4585,
      "Ġunit": 4586,
      "sel": 4587,
      "çĽ®": 4588,
      "times": 4589,
      "Ident": 4590,
      "Password": 4591,
      "ãĥ³": 4592,
      "variable": 4593,
      "Next": 4594,
      "Ab": 4595,
      "dic": 4596,
      "Empty": 4597,
      "Ġcluster": 4598,
      "parser": 4599,
      "ĠAct": 4600,
      "čĊĠĠĠĠĠĠĠĠĠĠĠĠĠĠĠĠĠĠĠ": 4601,
      "ACT": 4602,
      "Ġalways": 4603,
      "Custom": 4604,
      "Ġadded": 4605,
      "ĠWIT": 4606,
      "åĲĮ": 4607,
      "ĠTODO": 4608,
      "æ±": 4609,
      "ĠPer": 4610,
      "just": 4611,
      "Ġdescribe": 4612,
      ">&": 4613,
      "uggest": 4614,
      "Mock": 4615,
      "åºĶ": 4616,
      "æ¨": 4617,
      "Ġkeys": 4618,
      "ynamic": 4619,
      "domain": 4620,
      "omic": 4621,
      "Ġstructure": 4622,
      "screen": 4623,
      "Ġfew": 4624,
      "exports": 4625,
      "Ġ60": 4626,
      "iver": 4627,
      "Ġrights": 4628,
      "pu": 4629,
      "Unit": 4630,
      "åĿ": 4631,
      "mbers": 4632,
      "TEST": 4633,
      "(\"#": 4634,
      "Ġhead": 4635,
      "Ġund": 4636,
      "LICENSE": 4637,
      "ĊĠĠĠĠĠĠĠĠĠĠĠĠĠĠ": 4638,
      "uby": 4639,
      "ê°Ģ": 4640,
      "}\\": 4641,
      "mount": 4642,
      "ç¤º": 4643,
      "cker": 4644,
      "required": 4645,
      "Vector": 4646,
      "iversity": 4647,
      "verage": 4648,
      "each": 4649,
      "queue": 4650,
      "fit": 4651,
      "GE": 4652,
      "aved": 4653,
      "à¤¿": 4654,
      "400": 4655,
      "Ġstudents": 4656,
      "Ġide": 4657,
      "izing": 4658,
      "ensions": 4659,
      "sec": 4660,
      "ailed": 4661,
      "ea": 4662,
      "ĠÂ": 4663,
      "Ġautom": 4664,
      "Ġ\"@": 4665,
      "endif": 4666,
      "arguments": 4667,
      "etc": 4668,
      "Ġvia": 4669,
      "ĠĠĊĉ": 4670,
      "desc": 4671,
      "è°": 4672,
      "zer": 4673,
      "Ġraw": 4674,
      "çİ°": 4675,
      "comment": 4676,
      "ALL": 4677,
      "mpt": 4678,
      "Ġfore": 4679,
      "Ġclick": 4680,
      "Ġindic": 4681,
      "Ġ'#": 4682,
      "gba": 4683,
      "Ġsci": 4684,
      "Ġfolder": 4685,
      "Interface": 4686,
      "ĠÐ¸": 4687,
      "blog": 4688,
      "å»": 4689,
      "ergy": 4690,
      "ront": 4691,
      "dom": 4692,
      "Ġnames": 4693,
      "Local": 4694,
      "lugins": 4695,
      "score": 4696,
      "Ġdesign": 4697,
      "entication": 4698,
      "Ġscreen": 4699,
      "children": 4700,
      "å¾®": 4701,
      "ãģ¦": 4702,
      "tf": 4703,
      "çĥ": 4704,
      "vest": 4705,
      "served": 4706,
      "shared": 4707,
      "Ġ./": 4708,
      "SO": 4709,
      "åŁ": 4710,
      "dr": 4711,
      "Ġactiv": 4712,
      "ĠMod": 4713,
      "čĊčĊ": 4714,
      "trics": 4715,
      "pool": 4716,
      "modules": 4717,
      "#!": 4718,
      "Ġdr": 4719,
      "ecess": 4720,
      "foot": 4721,
      "words": 4722,
      "dependencies": 4723,
      "æ¬": 4724,
      "Pos": 4725,
      "ango": 4726,
      "termin": 4727,
      "Ġpoints": 4728,
      "Ġable": 4729,
      "Ĥ¬": 4730,
      "Ġarea": 4731,
      "hi": 4732,
      "ĠText": 4733,
      "Ġfailed": 4734,
      "æģ": 4735,
      "dividual": 4736,
      "0769": 4737,
      "(\"/": 4738,
      "Ġpas": 4739,
      "ĠCode": 4740,
      "cert": 4741,
      "va": 4742,
      "Ġscale": 4743,
      "room": 4744,
      "çłģ": 4745,
      "åĬ¡": 4746,
      "Utils": 4747,
      "\",\"\",\"": 4748,
      "Ġoften": 4749,
      "double": 4750,
      "Ġ64": 4751,
      "Route": 4752,
      "pass": 4753,
      "Ġcover": 4754,
      "ç¼": 4755,
      "maz": 4756,
      "Logger": 4757,
      "à¤®": 4758,
      "Policy": 4759,
      "Co": 4760,
      "Ġdim": 4761,
      "300": 4762,
      "Ġdraw": 4763,
      "usiness": 4764,
      "ker": 4765,
      "/\"": 4766,
      "So": 4767,
      "Configuration": 4768,
      "Ġlogging": 4769,
      "åŀĭ": 4770,
      "čĊĉĉĉ": 4771,
      "reshold": 4772,
      "ìĦľ": 4773,
      "Ġmemory": 4774,
      "ii": 4775,
      "ĠKEY": 4776,
      "áº": 4777,
      "rove": 4778,
      "Product": 4779,
      "fg": 4780,
      "Ġcare": 4781,
      "ctionary": 4782,
      "PRE": 4783,
      "Ġcommit": 4784,
      "ĠThese": 4785,
      "widget": 4786,
      "ĠBy": 4787,
      "Ġvec": 4788,
      "SQL": 4789,
      "Ġfood": 4790,
      "ĠApache": 4791,
      "ĠBut": 4792,
      "Ġwhether": 4793,
      "Ġbetter": 4794,
      "Ġproblem": 4795,
      "FL": 4796,
      "summary": 4797,
      "resolve": 4798,
      "peat": 4799,
      "čĊĠĠĠĠ": 4800,
      "manager": 4801,
      "ä»£": 4802,
      "ĠIs": 4803,
      "ÐµÑĢ": 4804,
      "Ġpattern": 4805,
      "xf": 4806,
      "ills": 4807,
      "Ġtmp": 4808,
      "Ġappe": 4809,
      "Ġnav": 4810,
      "aries": 4811,
      "udo": 4812,
      "dest": 4813,
      "ĠState": 4814,
      "Ð°Ð½": 4815,
      "dataset": 4816,
      "Ġreference": 4817,
      "Ġgrow": 4818,
      "ĠMath": 4819,
      "=[": 4820,
      "Ġdebug": 4821,
      "oice": 4822,
      "Ġ\"../": 4823,
      "Ġ255": 4824,
      "Root": 4825,
      "Ġbecome": 4826,
      "Ġneeds": 4827,
      "properties": 4828,
      "Ġappend": 4829,
      "Ġhapp": 4830,
      "Ġclean": 4831,
      "æĦ": 4832,
      "strap": 4833,
      "ĠAS": 4834,
      "Repository": 4835,
      "ì§Ģ": 4836,
      "Ġlearn": 4837,
      "åľ°": 4838,
      "Ġhel": 4839,
      "flex": 4840,
      "Ġclo": 4841,
      "vision": 4842,
      "à¦": 4843,
      "éĥ": 4844,
      "Ġoptional": 4845,
      "Mo": 4846,
      "exit": 4847,
      "ilities": 4848,
      "cm": 4849,
      "high": 4850,
      "pb": 4851,
      "Ġdir": 4852,
      "Ġresources": 4853,
      "prop": 4854,
      "coded": 4855,
      "Ġsomething": 4856,
      "Ġgl": 4857,
      "OM": 4858,
      "Grid": 4859,
      "ggle": 4860,
      "liance": 4861,
      "Ġarch": 4862,
      "family": 4863,
      "lim": 4864,
      "Ġobjects": 4865,
      "ĠSu": 4866,
      "Ġelements": 4867,
      "player": 4868,
      "æĸĩä»¶": 4869,
      "Ġrequests": 4870,
      "Ġwait": 4871,
      "cer": 4872,
      "ä½ł": 4873,
      ".âĢĿ": 4874,
      "ORM": 4875,
      "IR": 4876,
      "rm": 4877,
      "Ġmonth": 4878,
      "quired": 4879,
      "Ġtimes": 4880,
      "ĠComponent": 4881,
      "Ġbatch": 4882,
      "Ġstop": 4883,
      "Ġinstead": 4884,
      "gan": 4885,
      "Ġmaterial": 4886,
      "Core": 4887,
      "Ġunderstand": 4888,
      "ë¦": 4889,
      "using": 4890,
      "Ġarguments": 4891,
      "Ġvert": 4892,
      "final": 4893,
      "Ġhtml": 4894,
      "services": 4895,
      "Func": 4896,
      "èĢħ": 4897,
      "ç´": 4898,
      "wner": 4899,
      "ÐµÑĤ": 4900,
      "Ġcoding": 4901,
      "mbed": 4902,
      "Ġvariables": 4903,
      "ao": 4904,
      "olution": 4905,
      "ibr": 4906,
      "Reader": 4907,
      "Ġcost": 4908,
      "Found": 4909,
      "Ġkind": 4910,
      "ĠDep": 4911,
      "EM": 4912,
      "Ġrepository": 4913,
      "Offset": 4914,
      "Ġprops": 4915,
      ":#": 4916,
      "Ġcy": 4917,
      "Ġimages": 4918,
      "mk": 4919,
      "(|": 4920,
      "Ġìł": 4921,
      "Ġ'''": 4922,
      "ASS": 4923,
      "returns": 4924,
      "Ġcard": 4925,
      "Ġche": 4926,
      "éħ": 4927,
      "lar": 4928,
      "å½ĵ": 4929,
      "uss": 4930,
      "Ġip": 4931,
      "ĠAb": 4932,
      "Ġstandard": 4933,
      "Ġremo": 4934,
      "wiki": 4935,
      "Ġ(*": 4936,
      "Ġlayer": 4937,
      "semb": 4938,
      "connection": 4939,
      "README": 4940,
      "alle": 4941,
      "Ġem": 4942,
      "Ġlines": 4943,
      "fully": 4944,
      "123": 4945,
      "2015": 4946,
      "bg": 4947,
      "Ġhuman": 4948,
      "](/": 4949,
      "Ġthread": 4950,
      "ili": 4951,
      "ĠAND": 4952,
      "ĠBase": 4953,
      "Load": 4954,
      "ACE": 4955,
      "urrency": 4956,
      "ĠAss": 4957,
      "ometry": 4958,
      "area": 4959,
      "Handle": 4960,
      "swer": 4961,
      "Ġhistory": 4962,
      "ĠPython": 4963,
      "USER": 4964,
      "policy": 4965,
      "uuid": 4966,
      "å°Ĩ": 4967,
      "IONS": 4968,
      "Ġschool": 4969,
      "istic": 4970,
      "Invalid": 4971,
      "atory": 4972,
      "toEqual": 4973,
      "aging": 4974,
      "åĵ": 4975,
      "OUT": 4976,
      "Ġgot": 4977,
      "IF": 4978,
      "Ġcalcul": 4979,
      "Ð¿": 4980,
      "uted": 4981,
      "mi": 4982,
      "bre": 4983,
      "dl": 4984,
      "Hub": 4985,
      "builder": 4986,
      "Active": 4987,
      "une": 4988,
      "POST": 4989,
      "Ġdie": 4990,
      "ĠOption": 4991,
      "\\\",": 4992,
      "å°ı": 4993,
      "Ġthings": 4994,
      "éľĢ": 4995,
      "AV": 4996,
      "Ġ\"<": 4997,
      "nodes": 4998,
      "uber": 4999,
      "ni": 5000,
      "ho": 5001,
      "Ġrest": 5002,
      "ĠRequest": 5003,
      "ario": 5004,
      "Net": 5005,
      "otion": 5006,
      "gre": 5007,
      "Ġknown": 5008,
      "Ġpara": 5009,
      "ĠInstall": 5010,
      "Ġturn": 5011,
      "icult": 5012,
      "FC": 5013,
      "Ver": 5014,
      "Ġconditions": 5015,
      "Ġcollection": 5016,
      "PORT": 5017,
      "Ġworking": 5018,
      "#!/": 5019,
      "Ġdocker": 5020,
      "<!--": 5021,
      "ersist": 5022,
      "ĠEd": 5023,
      "Ġindividual": 5024,
      "lections": 5025,
      "aff": 5026,
      "outh": 5027,
      "Ġ199": 5028,
      "classes": 5029,
      "Ġdf": 5030,
      "rand": 5031,
      "flag": 5032,
      "ĠView": 5033,
      "ĠÐº": 5034,
      "Ġplt": 5035,
      "forEach": 5036,
      "åįļ": 5037,
      "Network": 5038,
      "ĠMy": 5039,
      "ied": 5040,
      "switch": 5041,
      "Ġpot": 5042,
      "enum": 5043,
      "101": 5044,
      "Pri": 5045,
      "åŃĲ": 5046,
      "route": 5047,
      "slice": 5048,
      "mean": 5049,
      "Ġvarchar": 5050,
      "zz": 5051,
      "Ġinterest": 5052,
      "spotify": 5053,
      "callback": 5054,
      "omen": 5055,
      "ĠâĶ": 5056,
      "MI": 5057,
      "âĶĢâĶĢâĶĢâĶĢ": 5058,
      "ãģ¨": 5059,
      "ategy": 5060,
      "Ġlearning": 5061,
      "ĠJava": 5062,
      "TIES": 5063,
      "=\"$": 5064,
      "Ġschema": 5065,
      "éĺ": 5066,
      "Ġconvert": 5067,
      "lower": 5068,
      "Ġuntil": 5069,
      "begin": 5070,
      "Ġio": 5071,
      "Ġbar": 5072,
      "matches": 5073,
      "javascript": 5074,
      "localhost": 5075,
      "ĠĊĠĠĠĠĠĠĠ": 5076,
      "ĠIP": 5077,
      "loader": 5078,
      "primary": 5079,
      "Ġpayload": 5080,
      "ields": 5081,
      "details": 5082,
      "Ġadv": 5083,
      "Ġonce": 5084,
      "ashboard": 5085,
      "âķĲ": 5086,
      "**:": 5087,
      "sig": 5088,
      "Args": 5089,
      "Ġ2019": 5090,
      "events": 5091,
      "Ġgrid": 5092,
      "ãģ¾": 5093,
      "Bytes": 5094,
      "Ġperiod": 5095,
      "Ġnet": 5096,
      "expr": 5097,
      "}</": 5098,
      "Ġbro": 5099,
      "'re": 5100,
      "rf": 5101,
      "éĶ": 5102,
      "framework": 5103,
      "Ġflag": 5104,
      "Ġ--------------------------------": 5105,
      "internal": 5106,
      "inding": 5107,
      "à¥ģ": 5108,
      "Collection": 5109,
      "Ġnodes": 5110,
      "ws": 5111,
      "`:": 5112,
      "éĩı": 5113,
      "Ġ'\\": 5114,
      "Ġneeded": 5115,
      "ming": 5116,
      "Profile": 5117,
      "Ġstorage": 5118,
      "ĠHTTP": 5119,
      "çĥŃ": 5120,
      "Ġissue": 5121,
      "like": 5122,
      "åħ¶": 5123,
      "ĠSoftware": 5124,
      "Ġtheme": 5125,
      "Ġbegin": 5126,
      "agn": 5127,
      "ĠOut": 5128,
      "aced": 5129,
      "æ¨¡": 5130,
      "ables": 5131,
      "pdf": 5132,
      "jango": 5133,
      "material": 5134,
      "Ġactual": 5135,
      "handler": 5136,
      "oriz": 5137,
      "\":[": 5138,
      "price": 5139,
      "tension": 5140,
      "Rel": 5141,
      "modal": 5142,
      "blue": 5143,
      "Ġcmd": 5144,
      "bose": 5145,
      "HP": 5146,
      "éĥ¨": 5147,
      "sess": 5148,
      "Meta": 5149,
      "',['": 5150,
      "ĠRed": 5151,
      "ä¹Ł": 5152,
      "dot": 5153,
      "Po": 5154,
      "è®¾": 5155,
      "Ġ'.": 5156,
      "gorithm": 5157,
      "Ġ\"-": 5158,
      "ĠInter": 5159,
      "hook": 5160,
      "Ġadmin": 5161,
      "ros": 5162,
      "urity": 5163,
      "pa": 5164,
      "Assert": 5165,
      "ording": 5166,
      "hr": 5167,
      "Ġgreat": 5168,
      "video": 5169,
      "lide": 5170,
      "getElement": 5171,
      "Ġagainst": 5172,
      "initial": 5173,
      "å»º": 5174,
      "dec": 5175,
      "Ġpract": 5176,
      "ä¿¡": 5177,
      "Ġusize": 5178,
      "ãģ¯": 5179,
      "ĠUpdate": 5180,
      "labels": 5181,
      "Ġcore": 5182,
      "sim": 5183,
      "blank": 5184,
      "åįķ": 5185,
      "cn": 5186,
      "Ġloss": 5187,
      "Ġ{{": 5188,
      ".\"\"\"": 5189,
      "ressed": 5190,
      "Ġpermissions": 5191,
      "ç»ĵ": 5192,
      "sdk": 5193,
      "Iter": 5194,
      "Ġfetch": 5195,
      "win": 5196,
      "ji": 5197,
      "Ġexisting": 5198,
      "Dialog": 5199,
      "åħ³": 5200,
      "Ġreadonly": 5201,
      "Ġcannot": 5202,
      "Ġassign": 5203,
      "matrix": 5204,
      "Right": 5205,
      "reset": 5206,
      "stats": 5207,
      "Ġsepar": 5208,
      "ĠLoc": 5209,
      "derive": 5210,
      "Pool": 5211,
      "kind": 5212,
      "symbol": 5213,
      "ĠWith": 5214,
      "mag": 5215,
      "ntax": 5216,
      "Ġlate": 5217,
      "Ġrelative": 5218,
      "Ġparam": 5219,
      "zone": 5220,
      "endar": 5221,
      "licenses": 5222,
      "åıĤ": 5223,
      "Ġteam": 5224,
      "Struct": 5225,
      "Ġplan": 5226,
      "ĠFunction": 5227,
      "Ġincrease": 5228,
      "={{": 5229,
      "ancel": 5230,
      "ĠImage": 5231,
      "Ġlater": 5232,
      "xc": 5233,
      "Ġregion": 5234,
      "åĮĸ": 5235,
      "inux": 5236,
      "Ġgovern": 5237,
      "<<": 5238,
      "issing": 5239,
      "=${": 5240,
      "Ġgra": 5241,
      "ç»Ħ": 5242,
      "ison": 5243,
      "eg": 5244,
      "havior": 5245,
      "ĠAcc": 5246,
      "Ġstack": 5247,
      "Ġunique": 5248,
      "Ġ1000": 5249,
      "Ġdecl": 5250,
      "Ġupdated": 5251,
      "IV": 5252,
      "SL": 5253,
      "iteral": 5254,
      "ìĭ": 5255,
      "Ġhard": 5256,
      "SU": 5257,
      "fetch": 5258,
      "ĠException": 5259,
      "atio": 5260,
      "Sync": 5261,
      "free": 5262,
      "Copy": 5263,
      "plan": 5264,
      "Ġnecess": 5265,
      "===": 5266,
      "fail": 5267,
      "Ġreturned": 5268,
      "æıĲ": 5269,
      "ĠÐ¾": 5270,
      "Ġaccept": 5271,
      "rist": 5272,
      "istics": 5273,
      "lood": 5274,
      "Rule": 5275,
      "Names": 5276,
      "views": 5277,
      "Ġoperation": 5278,
      "quare": 5279,
      "izes": 5280,
      "Ġ``": 5281,
      "Ġshape": 5282,
      "Modal": 5283,
      "acts": 5284,
      "ĠBuild": 5285,
      "force": 5286,
      "latest": 5287,
      "]),": 5288,
      "éħį": 5289,
      "ĠWARRANTIES": 5290,
      "vs": 5291,
      "Ġant": 5292,
      "rot": 5293,
      "Kind": 5294,
      "éĽ": 5295,
      "âĢĵ": 5296,
      "ribution": 5297,
      "cogn": 5298,
      "Ġequal": 5299,
      "Ġmessages": 5300,
      "pull": 5301,
      "']['": 5302,
      "database": 5303,
      "parameters": 5304,
      "dates": 5305,
      "duced": 5306,
      "linux": 5307,
      "short": 5308,
      "Ġweight": 5309,
      "Application": 5310,
      "Ġ[`": 5311,
      "ä¾ĭ": 5312,
      "Note": 5313,
      "ĠStart": 5314,
      "typeof": 5315,
      "Ġrot": 5316,
      "ĠÐ´": 5317,
      "Ġequ": 5318,
      "Role": 5319,
      "Ġdoesn": 5320,
      "ĠErr": 5321,
      "SIZE": 5322,
      "Ġcr": 5323,
      "Ġpi": 5324,
      "DR": 5325,
      "Ġassociated": 5326,
      "some": 5327,
      "IGHT": 5328,
      "ittle": 5329,
      "repo": 5330,
      "&#": 5331,
      "Sk": 5332,
      "æłĩ": 5333,
      "gz": 5334,
      "controller": 5335,
      "First": 5336,
      "ought": 5337,
      "ury": 5338,
      "shadow": 5339,
      "PUT": 5340,
      "rive": 5341,
      "ìľ": 5342,
      "Ġdise": 5343,
      "ê²": 5344,
      "PER": 5345,
      "ãģŁ": 5346,
      "ĠFROM": 5347,
      "ä¹ĭ": 5348,
      "åĽ¾": 5349,
      "apply": 5350,
      "Ġtreat": 5351,
      "ĠUs": 5352,
      "stat": 5353,
      "Ġplayer": 5354,
      "Use": 5355,
      "seq": 5356,
      "setup": 5357,
      "ãģª": 5358,
      "Nav": 5359,
      "Ġcomment": 5360,
      "rection": 5361,
      "ê³ł": 5362,
      "Ġdownload": 5363,
      "enable": 5364,
      "ĠModel": 5365,
      "agent": 5366,
      "white": 5367,
      "andid": 5368,
      "small": 5369,
      "ICE": 5370,
      "ĠMap": 5371,
      "timestamp": 5372,
      "Ġfig": 5373,
      "Ġer": 5374,
      "/.": 5375,
      "headers": 5376,
      "Ġprob": 5377,
      "åģ": 5378,
      "ĊĊĊĠĠĠ": 5379,
      "ĠNumber": 5380,
      "Ġleast": 5381,
      "127": 5382,
      "íķ´": 5383,
      "åĽ½": 5384,
      "Ġtab": 5385,
      "à¤¨": 5386,
      "enef": 5387,
      "<?": 5388,
      "Ġattribute": 5389,
      "Main": 5390,
      "ture": 5391,
      "atter": 5392,
      "objects": 5393,
      "ially": 5394,
      "Ġtx": 5395,
      "ari": 5396,
      "execute": 5397,
      "conv": 5398,
      "Ġweek": 5399,
      "Ġetc": 5400,
      "Ġintegr": 5401,
      "PT": 5402,
      "Ġengine": 5403,
      ";\">": 5404,
      "ograph": 5405,
      "Can": 5406,
      "lates": 5407,
      "WN": 5408,
      "Ġ2018": 5409,
      "Ġtre": 5410,
      "Ġhandler": 5411,
      "ye": 5412,
      "Ġsay": 5413,
      "ĊĉĊ": 5414,
      "åĲĪ": 5415,
      "wait": 5416,
      "Ġrefer": 5417,
      "vc": 5418,
      "Ġelect": 5419,
      "æĪĳä»¬": 5420,
      "Ġdataset": 5421,
      "Ġexists": 5422,
      "Queue": 5423,
      "disable": 5424,
      "stroy": 5425,
      "1000": 5426,
      "å§": 5427,
      "Game": 5428,
      "Ġprotected": 5429,
      "aring": 5430,
      "Properties": 5431,
      "ĠPre": 5432,
      "Ġleg": 5433,
      "ja": 5434,
      "iles": 5435,
      "veloper": 5436,
      "Success": 5437,
      "ĊĉĠĠĠ": 5438,
      "æĪ·": 5439,
      "Ã¶": 5440,
      "socket": 5441,
      "anced": 5442,
      "æĮĩ": 5443,
      "DATA": 5444,
      "real": 5445,
      "Connect": 5446,
      "Ġdev": 5447,
      "structions": 5448,
      "éĥ½": 5449,
      "æĽ´": 5450,
      "Ð°ÑĤ": 5451,
      "heet": 5452,
      "ĊĠĠĠĠĠĠĠĠĠĠĠĠĠĠĠĠĠĠĠĠĠĠĠĠĠĠĠĠĠĠĠĠĠĠĠĠĠĠĠĠĠĠĠ": 5453,
      "rome": 5454,
      "ĠLO": 5455,
      "VRT": 5456,
      "XT": 5457,
      "embed": 5458,
      "letion": 5459,
      "`;": 5460,
      "IST": 5461,
      "Ġstrings": 5462,
      "Del": 5463,
      "Ġplugin": 5464,
      "UID": 5465,
      "Ġdays": 5466,
      "logical": 5467,
      "æĹ¥": 5468,
      "chan": 5469,
      "Av": 5470,
      "600": 5471,
      "sn": 5472,
      "å¹¶": 5473,
      "Ġwords": 5474,
      "CREATE": 5475,
      "ĠQu": 5476,
      "Ġphys": 5477,
      "Ext": 5478,
      "When": 5479,
      "å¾®åįļ": 5480,
      ")</": 5481,
      "'].": 5482,
      "ably": 5483,
      "ĠAt": 5484,
      "]],": 5485,
      "ĠØ": 5486,
      "Ġadditional": 5487,
      "boolean": 5488,
      "servable": 5489,
      "Step": 5490,
      "pattern": 5491,
      "Ġunsigned": 5492,
      "Helper": 5493,
      "ĠFe": 5494,
      "Ġqual": 5495,
      "Second": 5496,
      "axis": 5497,
      "çĥŃåº¦": 5498,
      "VRTX": 5499,
      "ARY": 5500,
      "SC": 5501,
      "most": 5502,
      "Job": 5503,
      "sync": 5504,
      "Integer": 5505,
      "Author": 5506,
      "=$(": 5507,
      "à¤ķ": 5508,
      "netes": 5509,
      "Ġmask": 5510,
      "Ġvideo": 5511,
      "110": 5512,
      "inf": 5513,
      "optional": 5514,
      "Ġparticular": 5515,
      "BE": 5516,
      "à¥Ģ": 5517,
      "Ġedit": 5518,
      "badge": 5519,
      "Ġargument": 5520,
      "Ġrisk": 5521,
      "VM": 5522,
      "HOUT": 5523,
      "Admin": 5524,
      "bor": 5525,
      "exists": 5526,
      "Ġ%}": 5527,
      "Ġrequ": 5528,
      "ÙĦ": 5529,
      "ubernetes": 5530,
      "ĠĠĊ": 5531,
      "ãģĮ": 5532,
      "ä»ĸ": 5533,
      "rb": 5534,
      "nology": 5535,
      "here": 5536,
      "IGN": 5537,
      "catch": 5538,
      "Failed": 5539,
      "Font": 5540,
      "Ġwhite": 5541,
      "Ptr": 5542,
      "è§£": 5543,
      "Enum": 5544,
      "bound": 5545,
      "ĠOb": 5546,
      "Ġenter": 5547,
      "Ġpercent": 5548,
      "âķĲâķĲ": 5549,
      "Are": 5550,
      "Ġali": 5551,
      "Ġ\".": 5552,
      "Ġprefix": 5553,
      "(!": 5554,
      "Ġservices": 5555,
      "à¹": 5556,
      "Ġ28": 5557,
      "Ġusername": 5558,
      "HTTP": 5559,
      "ĊĠĠĠĠĠĠĠĠĠĠĠĠĠĠĠĠĠĠĠĠ": 5560,
      "MAX": 5561,
      "Variable": 5562,
      "Bot": 5563,
      "rust": 5564,
      "Ġactions": 5565,
      "æģ¯": 5566,
      "ĠCal": 5567,
      "FIG": 5568,
      "ĠRead": 5569,
      "+\"": 5570,
      "ĠPR": 5571,
      "Ġdocumentation": 5572,
      "Ð¾Ð»": 5573,
      "Vec": 5574,
      "Ġreason": 5575,
      "Transaction": 5576,
      "Email": 5577,
      "ĠCH": 5578,
      "ĠWhat": 5579,
      "å¦Ĥæŀľ": 5580,
      "Rad": 5581,
      "]))": 5582,
      "anger": 5583,
      "vt": 5584,
      "Layer": 5585,
      "à¤µ": 5586,
      "Ġenergy": 5587,
      "oney": 5588,
      "çľĭ": 5589,
      "ãĥĪ": 5590,
      "å¾®åįļçĥŃåº¦": 5591,
      "Ã³n": 5592,
      "[![": 5593,
      "Ġcourse": 5594,
      "After": 5595,
      "icles": 5596,
      "ĠĠĠĠĠĠĠĠĠĠĠĠĠĠĠĠĠĠĠĠĠĠĠĠĠĠĠĠĠĠĠĠĠĠĠĠĠĠĠĠĠĠĠĠĠĠĠĠ": 5597,
      "Ġinternal": 5598,
      "Display": 5599,
      ";</": 5600,
      "ĠCan": 5601,
      "There": 5602,
      "Ġvari": 5603,
      "hip": 5604,
      "clus": 5605,
      "Ġlower": 5606,
      "ica": 5607,
      "Ġ}),": 5608,
      "è¢": 5609,
      "120": 5610,
      "\"));": 5611,
      "wrapper": 5612,
      "ately": 5613,
      "BB": 5614,
      "Ġcountry": 5615,
      "ledge": 5616,
      "Ġrate": 5617,
      "ients": 5618,
      "Ġvector": 5619,
      "ç³": 5620,
      "mazon": 5621,
      "lev": 5622,
      "å¹´": 5623,
      "validate": 5624,
      "ECT": 5625,
      "ara": 5626,
      "wards": 5627,
      "Ġbottom": 5628,
      "Ġbig": 5629,
      "ĠService": 5630,
      "ĠHowever": 5631,
      "Ġentity": 5632,
      "chron": 5633,
      "Ñħ": 5634,
      "platform": 5635,
      "Ġteach": 5636,
      "('.": 5637,
      "Ġcases": 5638,
      "Metadata": 5639,
      "Ġmetadata": 5640,
      "Player": 5641,
      "Ġfuture": 5642,
      "Ġtraining": 5643,
      "ĠMat": 5644,
      "sr": 5645,
      "payload": 5646,
      "ĠUniversity": 5647,
      "Ġallows": 5648,
      "Ġnumpy": 5649,
      "EE": 5650,
      "NET": 5651,
      "voke": 5652,
      "aker": 5653,
      "Ġprevent": 5654,
      "Ġimplementation": 5655,
      "Ġ{},": 5656,
      "åĪĹ": 5657,
      "ĠServer": 5658,
      "Ġ[-": 5659,
      "Ġcomplete": 5660,
      "Ġflow": 5661,
      "android": 5662,
      "Ġlik": 5663,
      "icons": 5664,
      "aged": 5665,
      "}\",": 5666,
      "uck": 5667,
      "SELECT": 5668,
      "[-": 5669,
      "pair": 5670,
      "ĸ´": 5671,
      "Ġage": 5672,
      "urther": 5673,
      "anic": 5674,
      "olver": 5675,
      "Details": 5676,
      "Ġdisc": 5677,
      "è¯·": 5678,
      "Ġvirtual": 5679,
      "beta": 5680,
      "pet": 5681,
      "Ġpassed": 5682,
      "LS": 5683,
      "outer": 5684,
      "ĠSw": 5685,
      "usic": 5686,
      "ulate": 5687,
      "Ġprovides": 5688,
      "Ge": 5689,
      "GB": 5690,
      "oup": 5691,
      "ĠProject": 5692,
      "(__": 5693,
      "Show": 5694,
      "bits": 5695,
      "ê¸°": 5696,
      "logo": 5697,
      "ĠNe": 5698,
      "Ġutf": 5699,
      "Ġ++": 5700,
      "Cal": 5701,
      "Ġsteps": 5702,
      "den": 5703,
      "Sum": 5704,
      "hand": 5705,
      "chedule": 5706,
      "OF": 5707,
      "jor": 5708,
      "âĸĪâĸĪ": 5709,
      "Ġpush": 5710,
      "Ġcomponents": 5711,
      "disabled": 5712,
      "Ġrule": 5713,
      "footer": 5714,
      "ĠHttp": 5715,
      "ificate": 5716,
      "Identifier": 5717,
      "assign": 5718,
      "CD": 5719,
      "ĠWork": 5720,
      "xFF": 5721,
      "Ġho": 5722,
      "Dist": 5723,
      "ĊĊĠĠĠĠĠĠĠĠĠĠĠĠĠĠĠĠĠĠĠ": 5724,
      "ĠDescription": 5725,
      "branch": 5726,
      "Ġaxis": 5727,
      "Ġmatrix": 5728,
      "ĠPath": 5729,
      "flags": 5730,
      "NULL": 5731,
      "Ġdue": 5732,
      "lier": 5733,
      "Ġisinstance": 5734,
      "Ġsupported": 5735,
      "ering": 5736,
      "Ġmen": 5737,
      "ĠInput": 5738,
      "language": 5739,
      "Ġclasses": 5740,
      "zure": 5741,
      "æ°": 5742,
      "Fields": 5743,
      "ateway": 5744,
      "Effect": 5745,
      "ĠGit": 5746,
      "Ġsimilar": 5747,
      "dk": 5748,
      "atal": 5749,
      "lg": 5750,
      ")\",": 5751,
      "illi": 5752,
      "erature": 5753,
      "region": 5754,
      "Parameters": 5755,
      "urch": 5756,
      "eds": 5757,
      "JS": 5758,
      ";}": 5759,
      "ĠPRO": 5760,
      "Eng": 5761,
      "AF": 5762,
      "ĠHTML": 5763,
      "Ġland": 5764,
      "uest": 5765,
      "faces": 5766,
      "è¨": 5767,
      "èĬ": 5768,
      "ides": 5769,
      "čĊčĊĠĠĠĠĠĠĠ": 5770,
      "Tab": 5771,
      "Ġrepo": 5772,
      "Ġden": 5773,
      "éľĢè¦ģ": 5774,
      "uting": 5775,
      "Ġseveral": 5776,
      "dem": 5777,
      "Ġum": 5778,
      "What": 5779,
      "fff": 5780,
      "ĠSO": 5781,
      "tection": 5782,
      "{%": 5783,
      "Ġsocial": 5784,
      "si": 5785,
      "ĠTable": 5786,
      "aken": 5787,
      "legate": 5788,
      "columns": 5789,
      "////////////////////////////////": 5790,
      "topic": 5791,
      ">\\": 5792,
      "Ġìķ": 5793,
      "rank": 5794,
      "ria": 5795,
      "Ac": 5796,
      "folder": 5797,
      "lap": 5798,
      "arp": 5799,
      "activ": 5800,
      "Ġ##": 5801,
      "Ġlib": 5802,
      "ĠNO": 5803,
      "yg": 5804,
      "TIME": 5805,
      "eam": 5806,
      "Ġdatetime": 5807,
      "NOT": 5808,
      "Di": 5809,
      "Ġmis": 5810,
      "ĠAny": 5811,
      "Writer": 5812,
      "çĽ¸": 5813,
      "sent": 5814,
      "see": 5815,
      "Ġ26": 5816,
      "PY": 5817,
      "Ð·": 5818,
      "Ġscope": 5819,
      "Ġmenu": 5820,
      ")[": 5821,
      "æĪĸ": 5822,
      "æĸ¹æ³ķ": 5823,
      "Category": 5824,
      "alert": 5825,
      "Ġplatform": 5826,
      "Cur": 5827,
      "Rect": 5828,
      "Pol": 5829,
      "ĠìĿ´": 5830,
      "Br": 5831,
      "Ġspecial": 5832,
      "los": 5833,
      "Ġabsolute": 5834,
      "(\"%": 5835,
      "NT": 5836,
      "erate": 5837,
      "åŃ¦": 5838,
      "uler": 5839,
      "è¢«": 5840,
      "incip": 5841,
      "Ġenable": 5842,
      "ĠClass": 5843,
      "Mut": 5844,
      "focus": 5845,
      "åĪ¶": 5846,
      "Ġfrequ": 5847,
      "ĠKIND": 5848,
      "atural": 5849,
      "ĠâĢĺ": 5850,
      "Constraint": 5851,
      "xd": 5852,
      "Ġred": 5853,
      ")*": 5854,
      "gether": 5855,
      "ializer": 5856,
      "plain": 5857,
      "Ġgoing": 5858,
      "xa": 5859,
      "super": 5860,
      "ised": 5861,
      "Ġ27": 5862,
      "[:,": 5863,
      "DIT": 5864,
      "pag": 5865,
      "ãĤ¹": 5866,
      "æ¡": 5867,
      "subscribe": 5868,
      "ĠWITHOUT": 5869,
      ":'": 5870,
      "atar": 5871,
      "timeout": 5872,
      "Activity": 5873,
      "xe": 5874,
      "RC": 5875,
      "\":{\"": 5876,
      "=-": 5877,
      "ìĿĢ": 5878,
      "001": 5879,
      "Ġbranch": 5880,
      "Ġ\"+": 5881,
      "Ġignore": 5882,
      "spring": 5883,
      "éĹ®": 5884,
      "Ġalong": 5885,
      "ĠStatus": 5886,
      "å·¥": 5887,
      "licit": 5888,
      "ises": 5889,
      "è±": 5890,
      "ysql": 5891,
      "collect": 5892,
      "Ġwritten": 5893,
      ":{": 5894,
      "_{": 5895,
      "Ġnever": 5896,
      "å¾Ĺ": 5897,
      "åºı": 5898,
      "Ġtags": 5899,
      "Self": 5900,
      "Some": 5901,
      "Ġattr": 5902,
      "Ġ{};": 5903,
      "Reference": 5904,
      "Ġfs": 5905,
      "ìķ": 5906,
      "PAR": 5907,
      "ç³»": 5908,
      "proto": 5909,
      "RES": 5910,
      "sup": 5911,
      "ä¸»": 5912,
      "strip": 5913,
      "Ġstat": 5914,
      "hide": 5915,
      "Ġworks": 5916,
      "ality": 5917,
      "ä½į": 5918,
      "kg": 5919,
      "Ġgive": 5920,
      "Ġissues": 5921,
      "Ġbuilt": 5922,
      "collection": 5923,
      "Ġevalu": 5924,
      "Ġquestion": 5925,
      "lies": 5926,
      "Ġask": 5927,
      "ĠAUT": 5928,
      "é¢ĺ": 5929,
      "Ġsymbol": 5930,
      "Ġloop": 5931,
      "æ¬¡": 5932,
      "Ġfeel": 5933,
      "Duration": 5934,
      "Files": 5935,
      "Ġinline": 5936,
      "Ġrelated": 5937,
      "Ġtesting": 5938,
      "Total": 5939,
      "rule": 5940,
      "Ġarr": 5941,
      "How": 5942,
      "Wrapper": 5943,
      "Example": 5944,
      "ìĬ¤": 5945,
      "FR": 5946,
      "DATE": 5947,
      "native": 5948,
      "Ġeduc": 5949,
      "wt": 5950,
      "aves": 5951,
      "ĠSET": 5952,
      "Ġgroups": 5953,
      "Ġlabels": 5954,
      "itect": 5955,
      "Ġresolve": 5956,
      "nal": 5957,
      "'}": 5958,
      "decl": 5959,
      "\"}}": 5960,
      "Ġpull": 5961,
      "sumer": 5962,
      "åıª": 5963,
      "ieve": 5964,
      "Ġroute": 5965,
      "illed": 5966,
      "ĠInit": 5967,
      "mg": 5968,
      "Ġë°": 5969,
      "()->": 5970,
      "DA": 5971,
      "Ġdomain": 5972,
      "utions": 5973,
      "ĠCo": 5974,
      "ONE": 5975,
      "à¤·": 5976,
      "ĠSte": 5977,
      "Parse": 5978,
      "([]": 5979,
      "00000": 5980,
      "()),": 5981,
      "Thread": 5982,
      "ips": 5983,
      "security": 5984,
      "avor": 5985,
      "Ġrgba": 5986,
      "çĦ": 5987,
      "datetime": 5988,
      "shields": 5989,
      "Plugin": 5990,
      "Operation": 5991,
      "bum": 5992,
      "EB": 5993,
      "ula": 5994,
      "Ġapplicable": 5995,
      "Doc": 5996,
      "grade": 5997,
      "Ġinside": 5998,
      "sched": 5999,
      "ĠMon": 6000,
      "Ġca": 6001,
      "à¤ĥ\"": 6002,
      "cores": 6003,
      "nil": 6004,
      "Keys": 6005,
      "rypto": 6006,
      "pare": 6007,
      "Cmd": 6008,
      "yy": 6009,
      "ä¹Ī": 6010,
      "Ġcertain": 6011,
      "Ġprof": 6012,
      "Ġbyte": 6013,
      "-------------": 6014,
      "xff": 6015,
      "Ġbinary": 6016,
      "Ġdescrib": 6017,
      "unique": 6018,
      "directory": 6019,
      "cpp": 6020,
      "lun": 6021,
      "Ġtransaction": 6022,
      "äºĭ": 6023,
      "Ġcat": 6024,
      "ëĭĪëĭ¤": 6025,
      "GG": 6026,
      "usercontent": 6027,
      "ĠMin": 6028,
      "rupt": 6029,
      "ohn": 6030,
      "rong": 6031,
      "Ġimplements": 6032,
      "ĠExample": 6033,
      "MIT": 6034,
      "covery": 6035,
      "Ġcursor": 6036,
      "ï¼Ł": 6037,
      "Ġ',": 6038,
      "Ġ*)": 6039,
      "Report": 6040,
      "ords": 6041,
      "world": 6042,
      "amount": 6043,
      "submit": 6044,
      ")/": 6045,
      "ĠIndex": 6046,
      "cos": 6047,
      "èĢĮ": 6048,
      "Ġpointer": 6049,
      "Users": 6050,
      "COL": 6051,
      "scroll": 6052,
      "Ġyet": 6053,
      "Ġvalidate": 6054,
      "redentials": 6055,
      "Ġfar": 6056,
      "Ġ500": 6057,
      "Ġpolicy": 6058,
      "Ġ..": 6059,
      "orizont": 6060,
      "Ġpd": 6061,
      "ĠON": 6062,
      "tc": 6063,
      ".\\": 6064,
      "loor": 6065,
      "æ¸": 6066,
      "iet": 6067,
      "Conf": 6068,
      "UNT": 6069,
      "Ġensure": 6070,
      "Ġbrowser": 6071,
      "acters": 6072,
      "Ġ'<": 6073,
      "æĻ": 6074,
      "article": 6075,
      "Ġremote": 6076,
      "categories": 6077,
      "Vert": 6078,
      "ĠValid": 6079,
      ":\\": 6080,
      "chat": 6081,
      "ë§": 6082,
      "Definition": 6083,
      "edge": 6084,
      "vue": 6085,
      "Expression": 6086,
      "Ġpast": 6087,
      "cop": 6088,
      "Ġ`${": 6089,
      "Ġneg": 6090,
      "Ġextra": 6091,
      "describe": 6092,
      "Ġmachine": 6093,
      "ino": 6094,
      "éĩį": 6095,
      "Ġrecomm": 6096,
      "ifications": 6097,
      "Cluster": 6098,
      "generate": 6099,
      "ASE": 6100,
      "xb": 6101,
      "Ġhidden": 6102,
      "Fail": 6103,
      "Parent": 6104,
      "based": 6105,
      "Ġblack": 6106,
      "Prefix": 6107,
      "ĠMar": 6108,
      "flat": 6109,
      "ua": 6110,
      "ĊĠĠĊĠ": 6111,
      "ĠWrite": 6112,
      "Import": 6113,
      "Ġdrop": 6114,
      "typ": 6115,
      "::<": 6116,
      "getElementById": 6117,
      "Track": 6118,
      "]}": 6119,
      "çķ": 6120,
      "Ġ80": 6121,
      "è°ĥ": 6122,
      "Ġreplace": 6123,
      "ĠGe": 6124,
      "Ġnumbers": 6125,
      "Ġmaking": 6126,
      "éĤ": 6127,
      "ico": 6128,
      "Lim": 6129,
      "Tx": 6130,
      "encode": 6131,
      "resources": 6132,
      "Ġvolume": 6133,
      "defer": 6134,
      "ĠPost": 6135,
      "fire": 6136,
      "Register": 6137,
      ".\")": 6138,
      "memory": 6139,
      "prev": 6140,
      ")|": 6141,
      "Ġincluded": 6142,
      "]*": 6143,
      "æľº": 6144,
      "mes": 6145,
      "Ġplease": 6146,
      "contains": 6147,
      "Ġpair": 6148,
      "runtime": 6149,
      "compare": 6150,
      "Ġir": 6151,
      "ĠBl": 6152,
      "Ġlab": 6153,
      "Ġcommands": 6154,
      "1234": 6155,
      "dump": 6156,
      "Ġspe": 6157,
      "Now": 6158,
      "kt": 6159,
      "Ġmaint": 6160,
      "Extension": 6161,
      "Screen": 6162,
      "Ġbasic": 6163,
      "Ġdig": 6164,
      "]+": 6165,
      "Ġcategory": 6166,
      "èİ": 6167,
      "obile": 6168,
      "ëı": 6169,
      "Ġsystems": 6170,
      "2014": 6171,
      "Ġinvalid": 6172,
      "PU": 6173,
      "Ġcv": 6174,
      "HERE": 6175,
      "zero": 6176,
      "åĮħ": 6177,
      "ĠonClick": 6178,
      "è¯´": 6179,
      "engine": 6180,
      "undefined": 6181,
      "mas": 6182,
      "ĠResponse": 6183,
      "Ġprofile": 6184,
      "/${": 6185,
      "black": 6186,
      "lem": 6187,
      "toggle": 6188,
      "Ġlittle": 6189,
      "Ġinsert": 6190,
      "Ġlogin": 6191,
      "Å¿": 6192,
      "Ġê²": 6193,
      "Ġidx": 6194,
      "Ġmakes": 6195,
      "attributes": 6196,
      "ĠMessage": 6197,
      "Ġreserved": 6198,
      "----------": 6199,
      "Ret": 6200,
      "'ll": 6201,
      "éļ": 6202,
      "ë©": 6203,
      "ĠMo": 6204,
      "Ġimplied": 6205,
      "ached": 6206,
      "alloc": 6207,
      "loaded": 6208,
      "Ġinv": 6209,
      "loading": 6210,
      "secret": 6211,
      "enk": 6212,
      "yes": 6213,
      "ĊĊĠĠĠĠĠĠĠĠĠ": 6214,
      "Ġsimp": 6215,
      "Ġcollect": 6216,
      "watch": 6217,
      "ians": 6218,
      "Ġextract": 6219,
      "Ġtermin": 6220,
      "phone": 6221,
      "ìļ©": 6222,
      "attribute": 6223,
      "Matrix": 6224,
      "decode": 6225,
      "/$": 6226,
      "Ġdeploy": 6227,
      "lambda": 6228,
      "è¯¥": 6229,
      "sudo": 6230,
      "CHAN": 6231,
      "gov": 6232,
      "Ġcontaining": 6233,
      "Rep": 6234,
      "Ġfour": 6235,
      "ĠChange": 6236,
      "ë¦¬": 6237,
      "(/": 6238,
      "Ġcompliance": 6239,
      "äºĽ": 6240,
      "Ġothers": 6241,
      "ĠFl": 6242,
      "Transform": 6243,
      "operator": 6244,
      "ILITY": 6245,
      "Ġchanged": 6246,
      "6666": 6247,
      "ĠNAME": 6248,
      "coll": 6249,
      "Enabled": 6250,
      "Ġroom": 6251,
      "cred": 6252,
      "riend": 6253,
      "allen": 6254,
      "Ġ----": 6255,
      "cut": 6256,
      "dp": 6257,
      "Microsoft": 6258,
      "DER": 6259,
      "Ġacross": 6260,
      "TT": 6261,
      "Ġtimeout": 6262,
      ",âĢĿ": 6263,
      "åħ¨": 6264,
      "ITE": 6265,
      "velopment": 6266,
      "aim": 6267,
      "ordinates": 6268,
      "Ġoptim": 6269,
      "ĠHash": 6270,
      "Ġ<!--": 6271,
      "'):": 6272,
      "pages": 6273,
      "invalid": 6274,
      "Ð¾ÑĢ": 6275,
      "éĢī": 6276,
      "è±¡": 6277,
      "ĠOne": 6278,
      "SY": 6279,
      "HOME": 6280,
      "tty": 6281,
      "Ġgeneral": 6282,
      "Ġbuilding": 6283,
      "dig": 6284,
      "ĠNote": 6285,
      "repository": 6286,
      "=\"_": 6287,
      "Ġbuf": 6288,
      "clo": 6289,
      "proxy": 6290,
      "ĠOptional": 6291,
      "ç¬¬": 6292,
      "Opt": 6293,
      "Ġair": 6294,
      "githubusercontent": 6295,
      "formed": 6296,
      "{},": 6297,
      "gg": 6298,
      "Ġcondition": 6299,
      "nl": 6300,
      "CHAR": 6301,
      "Ġrows": 6302,
      "wp": 6303,
      ".)": 6304,
      "Ġdefine": 6305,
      "Ġcontract": 6306,
      "gres": 6307,
      "istor": 6308,
      "single": 6309,
      "Rece": 6310,
      "eting": 6311,
      "twitter": 6312,
      "çŃī": 6313,
      "Ċĉĉĉĉĉĉĉĉĉĉ": 6314,
      "++;": 6315,
      "detail": 6316,
      "Ġrules": 6317,
      "panel": 6318,
      "ya": 6319,
      "Ġearly": 6320,
      "Ñİ": 6321,
      "icial": 6322,
      "ĠToken": 6323,
      "Full": 6324,
      "ç©": 6325,
      "Math": 6326,
      "ĠDt": 6327,
      "Ġhy": 6328,
      "note": 6329,
      "ëł": 6330,
      "tick": 6331,
      "strict": 6332,
      "()`": 6333,
      "ellow": 6334,
      "()))": 6335,
      "ĠCall": 6336,
      "Ġtimestamp": 6337,
      "Ġagreed": 6338,
      ")):": 6339,
      "Ġhold": 6340,
      "ĠCommand": 6341,
      "green": 6342,
      "azy": 6343,
      "Ġterms": 6344,
      "contact": 6345,
      "076923": 6346,
      "vey": 6347,
      "ĠId": 6348,
      "JECT": 6349,
      "å¢": 6350,
      "Ġ'-": 6351,
      "æł·": 6352,
      "Ġproblems": 6353,
      "hex": 6354,
      "Router": 6355,
      "Ġnecessary": 6356,
      "Ġfamily": 6357,
      "updated": 6358,
      "Ġqueue": 6359,
      "Ids": 6360,
      "bi": 6361,
      "Bu": 6362,
      "è·¯": 6363,
      "Ax": 6364,
      "orizontal": 6365,
      "Ġsetting": 6366,
      "asm": 6367,
      ")`": 6368,
      "čĊĠĠĠĠĠĠĠĠĠ": 6369,
      "Ġrequires": 6370,
      "Ġreally": 6371,
      "Ġstarted": 6372,
      "pad": 6373,
      "Ġrelation": 6374,
      "#####": 6375,
      "Ne": 6376,
      "Ġcommunity": 6377,
      "chart": 6378,
      "AX": 6379,
      "Inspect": 6380,
      "ided": 6381,
      "GO": 6382,
      "ils": 6383,
      "Flags": 6384,
      "Ġdem": 6385,
      "Ġ2017": 6386,
      "aily": 6387,
      "ods": 6388,
      "eder": 6389,
      "Ġcolumns": 6390,
      "Ġprice": 6391,
      "illion": 6392,
      "Bit": 6393,
      "ĠUS": 6394,
      "Ġsuggest": 6395,
      "Art": 6396,
      "Ġattributes": 6397,
      "ently": 6398,
      "Ġreset": 6399,
      "ĠMay": 6400,
      "Interval": 6401,
      "Ġsl": 6402,
      "Ġbits": 6403,
      "ä¸İ": 6404,
      "direction": 6405,
      "sq": 6406,
      "Ġenough": 6407,
      "Ġnear": 6408,
      "Selected": 6409,
      "inder": 6410,
      "Ġaffect": 6411,
      "Desc": 6412,
      "å¥½": 6413,
      "Ġanim": 6414,
      "IE": 6415,
      "Ċĉĉĉĉĉĉĉĉ": 6416,
      "STAT": 6417,
      "eric": 6418,
      "\"].": 6419,
      "Ġdesc": 6420,
      "å®¹": 6421,
      "Ġprimary": 6422,
      "dirname": 6423,
      "ĠAR": 6424,
      "ĠWorld": 6425,
      "åıĺ": 6426,
      "asing": 6427,
      "ĊĠĠĠĠĠĠĠĠĠĠĠĠĠĠĠĠĠĠĠĠĠĠĠĠĠĠĠĠĠ": 6428,
      "Ð¸ÑĤ": 6429,
      "front": 6430,
      "Ã§Ã£o": 6431,
      "Ġanswer": 6432,
      "æŁ¥": 6433,
      "yml": 6434,
      "depth": 6435,
      "Ġoperator": 6436,
      "éĩĮ": 6437,
      "ĠClient": 6438,
      "Ġmember": 6439,
      "Ġproces": 6440,
      "Ġspan": 6441,
      "FS": 6442,
      "æľį": 6443,
      "å¸¸": 6444,
      "Ùħ": 6445,
      "Ġinvol": 6446,
      "ruby": 6447,
      "375": 6448,
      "iddleware": 6449,
      "simple": 6450,
      "Ġbenef": 6451,
      "team": 6452,
      "clean": 6453,
      "Ġlayout": 6454,
      "Ġfeed": 6455,
      "Ġ\"_": 6456,
      "~~~~": 6457,
      "Gu": 6458,
      "groups": 6459,
      "Ġvarious": 6460,
      "Loading": 6461,
      "Price": 6462,
      "Ġng": 6463,
      "Ġparts": 6464,
      "duration": 6465,
      "ĠVar": 6466,
      "Ġcontroller": 6467,
      "æĺİ": 6468,
      "za": 6469,
      "Ġinstances": 6470,
      "emon": 6471,
      "Ġdependencies": 6472,
      "BUG": 6473,
      "Ġalert": 6474,
      "Ġnotice": 6475,
      "eval": 6476,
      "lunar": 6477,
      "Ġxml": 6478,
      "QUE": 6479,
      "Tra": 6480,
      "conn": 6481,
      "Required": 6482,
      "ĠNS": 6483,
      "trace": 6484,
      "ĠLicensed": 6485,
      "uel": 6486,
      "PP": 6487,
      "ssl": 6488,
      "è®¤": 6489,
      "OB": 6490,
      "shift": 6491,
      "Async": 6492,
      "Ġ2016": 6493,
      "Ġmeta": 6494,
      "Login": 6495,
      "Ġpress": 6496,
      "è®¡": 6497,
      "Ġexecute": 6498,
      "Ġsignific": 6499,
      "Ġpotential": 6500,
      ":-": 6501,
      "ĠÐ¿ÑĢ": 6502,
      "Ġsecurity": 6503,
      "DC": 6504,
      "Section": 6505,
      "](../": 6506,
      "Ġfire": 6507,
      "Lock": 6508,
      "gree": 6509,
      "åĮº": 6510,
      "El": 6511,
      "oss": 6512,
      "\"])": 6513,
      "Ġlat": 6514,
      "Ġbtn": 6515,
      "atically": 6516,
      "Ġcorresp": 6517,
      "packages": 6518,
      "Ġrecent": 6519,
      "Ġdistance": 6520,
      "Space": 6521,
      "cha": 6522,
      "Ġcontact": 6523,
      "é«": 6524,
      "editor": 6525,
      "ÑĨ": 6526,
      "urs": 6527,
      "shell": 6528,
      "CHE": 6529,
      "æ±Ĥ": 6530,
      "ĠTemp": 6531,
      "shal": 6532,
      "æ²¡": 6533,
      "Ġprogress": 6534,
      "dialog": 6535,
      "counter": 6536,
      "unsigned": 6537,
      "xs": 6538,
      "ĠSec": 6539,
      "Ġface": 6540,
      "Ġwhy": 6541,
      "ĠHel": 6542,
      "WARE": 6543,
      "Ġcells": 6544,
      "Ġarticle": 6545,
      "ç§į": 6546,
      "gmail": 6547,
      "Events": 6548,
      "utorial": 6549,
      "ards": 6550,
      "ĠSE": 6551,
      "emo": 6552,
      "Ġimprove": 6553,
      "ĠBAS": 6554,
      "Ġdirectly": 6555,
      "ìĸ´": 6556,
      "initions": 6557,
      "rx": 6558,
      "VID": 6559,
      "Ġtogether": 6560,
      "iny": 6561,
      "TC": 6562,
      "Ġmembers": 6563,
      "MB": 6564,
      "REG": 6565,
      "Install": 6566,
      "é»": 6567,
      ".',": 6568,
      "Ġcity": 6569,
      "origin": 6570,
      "$$": 6571,
      "Ġbad": 6572,
      "ç®Ĺ": 6573,
      "ä¹ī": 6574,
      "untu": 6575,
      "Ġtools": 6576,
      "YPE": 6577,
      "Ġvisit": 6578,
      "translate": 6579,
      "Draw": 6580,
      "ĠWindows": 6581,
      "Ġcomplex": 6582,
      "bucket": 6583,
      "eries": 6584,
      "æ·": 6585,
      "ĠMake": 6586,
      "Ġcurrently": 6587,
      "Ġinstalled": 6588,
      "cls": 6589,
      "ike": 6590,
      "Ġsplit": 6591,
      "Ġthrows": 6592,
      "\")]": 6593,
      "ley": 6594,
      "Ġextension": 6595,
      "ĠAtt": 6596,
      "Ġscore": 6597,
      "Ġactivity": 6598,
      "MIN": 6599,
      "çĻ": 6600,
      "è£": 6601,
      "volution": 6602,
      "oy": 6603,
      "Ġsql": 6604,
      "ĠVer": 6605,
      "Ġzero": 6606,
      "ä½ĵ": 6607,
      "Ġgenerated": 6608,
      "Addr": 6609,
      "Loader": 6610,
      "ĠLink": 6611,
      "por": 6612,
      "Ġcreating": 6613,
      "Ġnote": 6614,
      "ĠDec": 6615,
      "___": 6616,
      "sur": 6617,
      "Ġmerge": 6618,
      "ĠGoogle": 6619,
      "Ġ75": 6620,
      "Ġ&'": 6621,
      "configuration": 6622,
      "TS": 6623,
      "808": 6624,
      "Ġbas": 6625,
      "ĠCOMM": 6626,
      "ãĤ¤": 6627,
      "fficient": 6628,
      "ÙĨ": 6629,
      "IX": 6630,
      "Ġfocus": 6631,
      "Ġmar": 6632,
      "extern": 6633,
      "ĠExp": 6634,
      "ĠFOR": 6635,
      "sequ": 6636,
      "lots": 6637,
      "verify": 6638,
      "Only": 6639,
      "Ġbound": 6640,
      "ĠTH": 6641,
      "=%": 6642,
      "Ġmedia": 6643,
      "WORD": 6644,
      "resses": 6645,
      ">.": 6646,
      "ali": 6647,
      "Ġcut": 6648,
      "Ġeq": 6649,
      "Ġplot": 6650,
      "inc": 6651,
      "å½ķ": 6652,
      "Ġforce": 6653,
      "bt": 6654,
      "(\"\\": 6655,
      "opts": 6656,
      "Ġprotocol": 6657,
      "amma": 6658,
      "800": 6659,
      "cursor": 6660,
      "Ġfac": 6661,
      "contin": 6662,
      "Directory": 6663,
      "ĠSQL": 6664,
      "complete": 6665,
      "Ġclone": 6666,
      "âĸº": 6667,
      ">=": 6668,
      "åı·": 6669,
      "aps": 6670,
      "Database": 6671,
      "ĠConst": 6672,
      "è¾ĵ": 6673,
      "Ð¾Ð´": 6674,
      "question": 6675,
      "bon": 6676,
      "Ġremain": 6677,
      "Ġtw": 6678,
      "èİ·": 6679,
      "ament": 6680,
      "Ġ\"../../": 6681,
      "Global": 6682,
      "more": 6683,
      "Ġproper": 6684,
      "Ġexperience": 6685,
      "mber": 6686,
      "Ġdisease": 6687,
      "Ġlimitations": 6688,
      "ĠÑĤ": 6689,
      "ĠSpec": 6690,
      "Editor": 6691,
      "^^^^": 6692,
      "Ġanalysis": 6693,
      "antity": 6694,
      "Flag": 6695,
      "Vol": 6696,
      "Ġgoverning": 6697,
      "tk": 6698,
      "wer": 6699,
      "Ġsolution": 6700,
      "ibrary": 6701,
      "Ġ35": 6702,
      "æº": 6703,
      "ongo": 6704,
      "(['": 6705,
      "enabled": 6706,
      "ĠðŁ": 6707,
      "'));": 6708,
      "lists": 6709,
      "Panel": 6710,
      ")?;": 6711,
      "Ġil": 6712,
      "FB": 6713,
      "cpu": 6714,
      "rec": 6715,
      "Ġlot": 6716,
      "astic": 6717,
      "Ġmaster": 6718,
      "loop": 6719,
      "Ġlevels": 6720,
      "Ġperformance": 6721,
      "tile": 6722,
      "rece": 6723,
      "tensor": 6724,
      "ummy": 6725,
      "ENV": 6726,
      "æĦı": 6727,
      "Ġavoid": 6728,
      "owner": 6729,
      "href": 6730,
      "allel": 6731,
      "ĠPr": 6732,
      "INFO": 6733,
      "mitted": 6734,
      "Ġproduction": 6735,
      "çĦ¶": 6736,
      "Ġreceived": 6737,
      "ĊĠĠĠĠĠĠĠĠĠĠĠĠĠĠĠĠĠĠ": 6738,
      "AI": 6739,
      "Ġgrad": 6740,
      "Ġattemp": 6741,
      "WR": 6742,
      "ested": 6743,
      "Ġactually": 6744,
      "share": 6745,
      "Ġ29": 6746,
      "Ġsequence": 6747,
      "é«ĺ": 6748,
      "lers": 6749,
      "Ġstrict": 6750,
      "prec": 6751,
      "Sprintf": 6752,
      "Area": 6753,
      "urope": 6754,
      "ÙĪ": 6755,
      "SV": 6756,
      "extension": 6757,
      "abilities": 6758,
      "layers": 6759,
      "Ġwomen": 6760,
      "ival": 6761,
      "Non": 6762,
      "Auto": 6763,
      "ĠFrom": 6764,
      "ĠCar": 6765,
      "ads": 6766,
      "`);": 6767,
      "Ġdirection": 6768,
      "ä»İ": 6769,
      "Ġcult": 6770,
      "jection": 6771,
      "ĠAmerican": 6772,
      "ĠCustom": 6773,
      "Ġpublish": 6774,
      "repeat": 6775,
      "Ġaccording": 6776,
      "Ġspecify": 6777,
      "iÃ³n": 6778,
      "}'": 6779,
      "Ġinteger": 6780,
      "Ġtransition": 6781,
      "Agent": 6782,
      "FE": 6783,
      "Ġpool": 6784,
      "]['": 6785,
      "Ġreceive": 6786,
      "Ġhaving": 6787,
      "ĠFound": 6788,
      "found": 6789,
      "ç¡": 6790,
      "(\".": 6791,
      "mc": 6792,
      "čĊĠĠĠĠĠĠĠĠĠĠĠĠĠĠĠĠĠĠĠĠĠĠĠ": 6793,
      "transaction": 6794,
      "è¿Ķ": 6795,
      "åĩ½": 6796,
      "åĲ¦": 6797,
      "Package": 6798,
      "Ġess": 6799,
      "sin": 6800,
      "Remove": 6801,
      "ledger": 6802,
      "DITIONS": 6803,
      "Ġproducts": 6804,
      "Usage": 6805,
      "Boolean": 6806,
      "Ġuseful": 6807,
      "ĠBlock": 6808,
      "Public": 6809,
      "Ġreject": 6810,
      "ffffffff": 6811,
      "rief": 6812,
      "Dest": 6813,
      "Ġ[{": 6814,
      "Env": 6815,
      "æĶ¹": 6816,
      ":/": 6817,
      "ising": 6818,
      "999": 6819,
      "Results": 6820,
      "Have": 6821,
      "Ġ):": 6822,
      "Ġeasy": 6823,
      "MODE": 6824,
      "ASK": 6825,
      "Ġul": 6826,
      "ĠìĪĺ": 6827,
      "ĠBASIS": 6828,
      "metric": 6829,
      "ĠReg": 6830,
      "Ġenabled": 6831,
      "Ġcommunic": 6832,
      "æ³¨": 6833,
      "illa": 6834,
      "ĠStr": 6835,
      "Ġdispatch": 6836,
      "utter": 6837,
      "ĠPe": 6838,
      "demo": 6839,
      "browser": 6840,
      "TA": 6841,
      "åĽł": 6842,
      "Ġtakes": 6843,
      "orders": 6844,
      "ynchron": 6845,
      "ç¬¦": 6846,
      "messages": 6847,
      "Ġedge": 6848,
      "Ġlock": 6849,
      "Ġ\"%": 6850,
      "ores": 6851,
      "structure": 6852,
      "åĪĻ": 6853,
      "Adapter": 6854,
      "Ġterm": 6855,
      "fast": 6856,
      "ĠCONDITIONS": 6857,
      "ansparent": 6858,
      "OST": 6859,
      "æ¯Ķ": 6860,
      "Ġvisual": 6861,
      "\\\":\\\"": 6862,
      "Ġtrigger": 6863,
      "Ġ---": 6864,
      "history": 6865,
      "Go": 6866,
      "bra": 6867,
      "Ġtasks": 6868,
      "Sort": 6869,
      "tem": 6870,
      "Ġexpression": 6871,
      ":%": 6872,
      "Ð»Ð¸": 6873,
      "íĬ": 6874,
      "agram": 6875,
      "Ġecon": 6876,
      "Has": 6877,
      "Ġprom": 6878,
      "irth": 6879,
      "Ġorigin": 6880,
      "hell": 6881,
      "Ġfront": 6882,
      "THER": 6883,
      "Memory": 6884,
      "ë³": 6885,
      ":</": 6886,
      "Ð±": 6887,
      "ĠPublic": 6888,
      "seconds": 6889,
      "Ġ2015": 6890,
      "Ġusage": 6891,
      "NA": 6892,
      "Ġdat": 6893,
      "scal": 6894,
      "mob": 6895,
      "Fn": 6896,
      "ç½ĳ": 6897,
      "Ġcompany": 6898,
      "Ġquick": 6899,
      "CONFIG": 6900,
      "concat": 6901,
      "EXT": 6902,
      "uplic": 6903,
      "Symbol": 6904,
      "Ġspeed": 6905,
      "ĠGo": 6906,
      "åĩ½æķ°": 6907,
      "iling": 6908,
      "Ġitself": 6909,
      "ifies": 6910,
      "Pub": 6911,
      "alyt": 6912,
      "crate": 6913,
      "FTWARE": 6914,
      "Ġblood": 6915,
      "decor": 6916,
      "æĮģ": 6917,
      "2013": 6918,
      "ĠDB": 6919,
      "stringify": 6920,
      "ĠĊĠĠĠĠĠĠĠĠĠĠĠ": 6921,
      "always": 6922,
      "Ġamong": 6923,
      "çº¿": 6924,
      "ora": 6925,
      "ournal": 6926,
      "Changed": 6927,
      "checked": 6928,
      "IMIT": 6929,
      "Ġexamples": 6930,
      "anks": 6931,
      "inputs": 6932,
      "Counter": 6933,
      "APP": 6934,
      "Ġallowed": 6935,
      "ç¾": 6936,
      "about": 6937,
      "æĥħ": 6938,
      ">();": 6939,
      "Scope": 6940,
      "epoch": 6941,
      "Ġfit": 6942,
      "merge": 6943,
      "Send": 6944,
      "zen": 6945,
      "ĠÐ¼": 6946,
      "Socket": 6947,
      "èĬĤ": 6948,
      "Ġotherwise": 6949,
      "ĠìĹ": 6950,
      "åı£": 6951,
      "æĵ": 6952,
      "Ġhigher": 6953,
      "'][": 6954,
      "å¤Ħ": 6955,
      "æĹ¶éĹ´": 6956,
      "Ġchain": 6957,
      "à®": 6958,
      "å§ĭ": 6959,
      "Ġrespons": 6960,
      "ĠSelect": 6961,
      "ĠÄ": 6962,
      "Ġapt": 6963,
      "look": 6964,
      "ĠColor": 6965,
      "identifier": 6966,
      "coming": 6967,
      "Ġyield": 6968,
      "Ġnn": 6969,
      "Ð¾Ð¼": 6970,
      "ih": 6971,
      "iform": 6972,
      "Ġseconds": 6973,
      "Ø±": 6974,
      "weet": 6975,
      "Ġprojects": 6976,
      "Ġcop": 6977,
      "ĠPol": 6978,
      "('./": 6979,
      "subject": 6980,
      "moz": 6981,
      "vention": 6982,
      "gi": 6983,
      "210": 6984,
      "åŁº": 6985,
      "Byte": 6986,
      "æ¶": 6987,
      "provider": 6988,
      "iving": 6989,
      "Ġcounter": 6990,
      "ĠGroup": 6991,
      ">\"": 6992,
      "transition": 6993,
      "Ġparticip": 6994,
      "âĢ¦": 6995,
      "tokens": 6996,
      "Ġmath": 6997,
      "Ġremoved": 6998,
      "Ġ36": 6999,
      "channels": 7000,
      "168": 7001,
      "arrow": 7002,
      "Ġ$('#": 7003,
      "though": 7004,
      "åİŁ": 7005,
      "println": 7006,
      "æŃ¤": 7007,
      "star": 7008,
      "Feature": 7009,
      "ãĤ¯": 7010,
      "lict": 7011,
      "Ġsecret": 7012,
      "Ġsleep": 7013,
      "Ġlikely": 7014,
      "Ġcd": 7015,
      "Ġstored": 7016,
      "Book": 7017,
      "Ġlive": 7018,
      "Any": 7019,
      "reet": 7020,
      "awn": 7021,
      "roke": 7022,
      ">::": 7023,
      "Ġinputs": 7024,
      "CB": 7025,
      "ãĤĮ": 7026,
      "allenge": 7027,
      "ĠOther": 7028,
      "ĠCor": 7029,
      "Ġ31": 7030,
      "progress": 7031,
      "bootstrap": 7032,
      "åĨĻ": 7033,
      "endor": 7034,
      "Ġquestions": 7035,
      "ilit": 7036,
      "CRIP": 7037,
      "iding": 7038,
      "Ġintro": 7039,
      "````": 7040,
      "city": 7041,
      "Ġprop": 7042,
      "\\_": 7043,
      "Ġmanagement": 7044,
      "serial": 7045,
      "Ġ).": 7046,
      "æŃ£": 7047,
      "Ġtell": 7048,
      "Ġwhole": 7049,
      ")',": 7050,
      "Ġmaximum": 7051,
      "Ġmount": 7052,
      "024": 7053,
      ":*": 7054,
      "while": 7055,
      "é¡¹": 7056,
      "æľįåĬ¡": 7057,
      "reader": 7058,
      "KE": 7059,
      "original": 7060,
      "ĠOTHER": 7061,
      "protocol": 7062,
      "Windows": 7063,
      "nections": 7064,
      "parameter": 7065,
      "ĠGu": 7066,
      "Ġforward": 7067,
      "Expr": 7068,
      "Ġendpoint": 7069,
      "Ġshell": 7070,
      "delta": 7071,
      "country": 7072,
      "Ġserial": 7073,
      "ĠÑ": 7074,
      "ç»Ł": 7075,
      "ĠSci": 7076,
      "dm": 7077,
      "Created": 7078,
      "ayers": 7079,
      "Ġgovernment": 7080,
      "çĶ¨æĪ·": 7081,
      "pin": 7082,
      "loyee": 7083,
      "uses": 7084,
      "*-": 7085,
      "Ġcontribut": 7086,
      "(@": 7087,
      "iece": 7088,
      "ito": 7089,
      "ĠuseState": 7090,
      "Bo": 7091,
      "authors": 7092,
      "zh": 7093,
      "Java": 7094,
      "Ġexception": 7095,
      "ÐµÐ½Ð¸": 7096,
      "ante": 7097,
      "ëĲ": 7098,
      "sect": 7099,
      "deps": 7100,
      "chor": 7101,
      "å®ĥ": 7102,
      "ìľ¼": 7103,
      "Div": 7104,
      "mal": 7105,
      "Actions": 7106,
      "512": 7107,
      "Ġ33": 7108,
      "ĊĉĠ": 7109,
      "scriptions": 7110,
      "Ġareas": 7111,
      "Long": 7112,
      "failed": 7113,
      "è¿Ļä¸ª": 7114,
      "ABILITY": 7115,
      "Git": 7116,
      "éķ": 7117,
      "Flow": 7118,
      "Ġoffer": 7119,
      "tech": 7120,
      "seed": 7121,
      "Ġspecies": 7122,
      "Background": 7123,
      "BASE": 7124,
      "Ġwon": 7125,
      "ĠCONDU": 7126,
      "program": 7127,
      "relation": 7128,
      "Ġincludes": 7129,
      "Detail": 7130,
      "è¿Ľè¡Į": 7131,
      "ĠìĦ": 7132,
      "alias": 7133,
      "dark": 7134,
      "Ġsays": 7135,
      "Ġaway": 7136,
      "person": 7137,
      "=\"\"": 7138,
      "helper": 7139,
      "metrics": 7140,
      "/#": 7141,
      "diction": 7142,
      "Ġinspected": 7143,
      "ĠCONDUIT": 7144,
      "VENT": 7145,
      "Ġseries": 7146,
      "when": 7147,
      "ando": 7148,
      "how": 7149,
      "Ġmeasure": 7150,
      "Stats": 7151,
      "Ġtoday": 7152,
      "ropri": 7153,
      "Ġ^": 7154,
      "ĠAction": 7155,
      "è¶": 7156,
      "serde": 7157,
      "lying": 7158,
      "ĠçļĦ": 7159,
      "ĠMet": 7160,
      "aste": 7161,
      "Ġoperations": 7162,
      "mains": 7163,
      "Ġblue": 7164,
      "Ġ<-": 7165,
      "Ġpick": 7166,
      "pat": 7167,
      "samples": 7168,
      "igate": 7169,
      "æŀĦ": 7170,
      "ĠParameters": 7171,
      "delay": 7172,
      "Ġusually": 7173,
      ".'": 7174,
      ">`": 7175,
      "Join": 7176,
      "trl": 7177,
      "II": 7178,
      "ãĥ¼ãĥ": 7179,
      "plugins": 7180,
      "åıĤæķ°": 7181,
      "CODE": 7182,
      "anguages": 7183,
      "ĊĊĉĉĉ": 7184,
      "Ġjustify": 7185,
      "Ġembed": 7186,
      "=\"${": 7187,
      "writ": 7188,
      "Ġkernel": 7189,
      "Member": 7190,
      "rieve": 7191,
      "éĻ¤": 7192,
      "Ġseem": 7193,
      "examples": 7194,
      "Ġgreen": 7195,
      "Home": 7196,
      "æĢģ": 7197,
      "Ġprovider": 7198,
      "Ġsn": 7199,
      "logs": 7200,
      "signature": 7201,
      "Ġsignificant": 7202,
      "Ġfurther": 7203,
      "Ãł": 7204,
      "Ġinvest": 7205,
      "otlin": 7206,
      "road": 7207,
      "udent": 7208,
      "Ġtranslate": 7209,
      "Proxy": 7210,
      "rd": 7211,
      "DK": 7212,
      "Ãª": 7213,
      "ĠFix": 7214,
      "hold": 7215,
      "Ġattack": 7216,
      "ĠGraph": 7217,
      "ÑĢÐ°Ð": 7218,
      "Ġflags": 7219,
      "íĬ¸": 7220,
      "[];": 7221,
      "ember": 7222,
      "Domain": 7223,
      "Ġmig": 7224,
      "hello": 7225,
      "edu": 7226,
      "ĠMark": 7227,
      "Ġentire": 7228,
      "Save": 7229,
      "sleep": 7230,
      "Limit": 7231,
      "selector": 7232,
      ">{": 7233,
      "oman": 7234,
      "ä½Ĩ": 7235,
      "Ġ{@": 7236,
      "ĊĠĠĠĠĠĠĠĠĠĠĠĠĠĠĠĠĠĠĠĠĠĠ": 7237,
      "hyper": 7238,
      "warn": 7239,
      "è¿ĺ": 7240,
      "Ð½Ñĭ": 7241,
      "Ġautomatically": 7242,
      "enn": 7243,
      "ĠStates": 7244,
      "createElement": 7245,
      "Cond": 7246,
      "NUM": 7247,
      "ti": 7248,
      "extend": 7249,
      "Amount": 7250,
      "/{": 7251,
      "anded": 7252,
      "\"}}<|": 7253,
      "exist": 7254,
      "ĠBox": 7255,
      "\"}<|": 7256,
      "notation": 7257,
      "æ´": 7258,
      "3333": 7259,
      "Promise": 7260,
      "power": 7261,
      "gif": 7262,
      "ctl": 7263,
      "404": 7264,
      "Ġstrong": 7265,
      "ĠDet": 7266,
      "ternet": 7267,
      "ĠUnited": 7268,
      "Ġjoin": 7269,
      "LETE": 7270,
      "stroke": 7271,
      "Ġmissing": 7272,
      "æ¯ı": 7273,
      "Ġexact": 7274,
      "mn": 7275,
      "ners": 7276,
      "Ġshare": 7277,
      "åħĥ": 7278,
      "'''": 7279,
      "Ġplant": 7280,
      "æĹł": 7281,
      "ç«¯": 7282,
      "serialize": 7283,
      "å¤©": 7284,
      "Ġframework": 7285,
      "ÐµÐ¼": 7286,
      "ĠìĤ¬": 7287,
      "PH": 7288,
      "issue": 7289,
      ",.": 7290,
      "Ġfall": 7291,
      "EventListener": 7292,
      "COMM": 7293,
      "ĠBo": 7294,
      "Nodes": 7295,
      ")?": 7296,
      "otes": 7297,
      "Ġíķ": 7298,
      "ĠUnless": 7299,
      "åĬŁ": 7300,
      ")\\": 7301,
      "ĠInteger": 7302,
      "warning": 7303,
      "swift": 7304,
      "fol": 7305,
      "ç»ı": 7306,
      "Ġfast": 7307,
      "Ġfam": 7308,
      "AUT": 7309,
      "Ġguide": 7310,
      "BER": 7311,
      "lan": 7312,
      "=/": 7313,
      "Ġdifficult": 7314,
      "enkins": 7315,
      "pipe": 7316,
      "Ġlatest": 7317,
      "Ġpers": 7318,
      "Program": 7319,
      "volume": 7320,
      "Ġ}).": 7321,
      "ternational": 7322,
      "Hello": 7323,
      "Ġmag": 7324,
      "library": 7325,
      "Println": 7326,
      "Drop": 7327,
      "rip": 7328,
      "FORM": 7329,
      "ology": 7330,
      "Ġways": 7331,
      "DEFAULT": 7332,
      "Ġstates": 7333,
      "pid": 7334,
      "Before": 7335,
      "è¿ĶåĽŀ": 7336,
      "æ®": 7337,
      "deep": 7338,
      "Ġexternal": 7339,
      "ued": 7340,
      "paths": 7341,
      "Ġshared": 7342,
      "Rate": 7343,
      "Single": 7344,
      "Ġmodify": 7345,
      "ä»»": 7346,
      "AST": 7347,
      "Ġnamed": 7348,
      "ĠThat": 7349,
      "driver": 7350,
      "Ġbehavior": 7351,
      "remote": 7352,
      "Ġdisabled": 7353,
      "Ġwebsite": 7354,
      "ĠOper": 7355,
      "Ġ34": 7356,
      "vars": 7357,
      "ĠGod": 7358,
      "Ġbusiness": 7359,
      "Ġ48": 7360,
      "å¯¹è±¡": 7361,
      "Cloud": 7362,
      "Equals": 7363,
      "strings": 7364,
      "čĊĠĠ": 7365,
      "skip": 7366,
      "æĶ¯": 7367,
      "ky": 7368,
      "Ġround": 7369,
      "activity": 7370,
      "Folder": 7371,
      "Ġ\"*": 7372,
      "links": 7373,
      "organ": 7374,
      "gistration": 7375,
      "Ġtokens": 7376,
      "commands": 7377,
      "Ġpaper": 7378,
      "Support": 7379,
      "ç±»åŀĭ": 7380,
      "Ġcapt": 7381,
      "Kit": 7382,
      "enchmark": 7383,
      "Day": 7384,
      "Ġsocket": 7385,
      "Ġ90": 7386,
      "Ġreading": 7387,
      "raction": 7388,
      "108": 7389,
      "Ġduration": 7390,
      "Ġalpha": 7391,
      "ĠDocument": 7392,
      "***": 7393,
      "reser": 7394,
      "servation": 7395,
      "ura": 7396,
      "LEN": 7397,
      "_(": 7398,
      "Ġ400": 7399,
      "emit": 7400,
      "scripts": 7401,
      "čĊĉĉĉĉ": 7402,
      "Ġmajor": 7403,
      "Ġsubst": 7404,
      "Ġmicro": 7405,
      "Ġ'%": 7406,
      "Ġutils": 7407,
      "Ġìĭ": 7408,
      "èģ": 7409,
      "Dict": 7410,
      "Scale": 7411,
      "à¤¦": 7412,
      "virtual": 7413,
      "Ġvi": 7414,
      "ĠProp": 7415,
      "interval": 7416,
      "Ġselector": 7417,
      "ä¿¡æģ¯": 7418,
      "ĠOutput": 7419,
      "cook": 7420,
      "ç¼ĸ": 7421,
      "Ġapplications": 7422,
      "convert": 7423,
      "Shape": 7424,
      "uffix": 7425,
      "Selection": 7426,
      "Ġ37": 7427,
      "correct": 7428,
      "Ġverify": 7429,
      "ulator": 7430,
      "Chart": 7431,
      "........": 7432,
      "acer": 7433,
      "Ġcomb": 7434,
      "steps": 7435,
      "fx": 7436,
      "sters": 7437,
      "esh": 7438,
      "Ġreader": 7439,
      "asc": 7440,
      "Ġredirect": 7441,
      "++++": 7442,
      "ä¿Ŀ": 7443,
      "ĠMIT": 7444,
      "Ġë§": 7445,
      "Attributes": 7446,
      "Simple": 7447,
      "ĠSign": 7448,
      "RI": 7449,
      "ĠContent": 7450,
      "Ġmac": 7451,
      "ĠUN": 7452,
      "Ġaverage": 7453,
      "LOCK": 7454,
      "CLI": 7455,
      "čĊčĊč": 7456,
      "Progress": 7457,
      "learn": 7458,
      "ĠSOFTWARE": 7459,
      "ë©´": 7460,
      "ĠQuery": 7461,
      "Ġna": 7462,
      "à¤¯": 7463,
      "éĢļè¿ĩ": 7464,
      "Ġchunk": 7465,
      "Media": 7466,
      "norm": 7467,
      "Pop": 7468,
      "ki": 7469,
      "Ġdefinition": 7470,
      "Ġseen": 7471,
      "Ġaddition": 7472,
      "ĠMethod": 7473,
      "ĠCloud": 7474,
      "ensive": 7475,
      "Ġowner": 7476,
      "Video": 7477,
      "udies": 7478,
      "/*!": 7479,
      "fp": 7480,
      "fort": 7481,
      "ĠNetwork": 7482,
      "Impl": 7483,
      "ini": 7484,
      "mu": 7485,
      "111": 7486,
      "Ġscient": 7487,
      "å¤ĸ": 7488,
      "Ġvir": 7489,
      "king": 7490,
      "ë²": 7491,
      "zy": 7492,
      "åĲĳ": 7493,
      "Ġcharacters": 7494,
      "chunk": 7495,
      "Ġ45": 7496,
      "Ġcirc": 7497,
      "åĪĽ": 7498,
      "å®Į": 7499,
      "201": 7500,
      "ĠBrit": 7501,
      "Ġprev": 7502,
      "Patch": 7503,
      "CCESS": 7504,
      "publish": 7505,
      "eth": 7506,
      "Ġ300": 7507,
      "Ġvariant": 7508,
      "Align": 7509,
      "Ġcook": 7510,
      "ĠÃ©": 7511,
      "Ġcontents": 7512,
      "Sm": 7513,
      "Ġwar": 7514,
      "backend": 7515,
      "éħįç½®": 7516,
      "192": 7517,
      "ãģĭ": 7518,
      "Ġthing": 7519,
      "ĠĠĠĠĠĠĠĠĠĠĠĠĠĠĠĠĠ": 7520,
      "argv": 7521,
      "å·²": 7522,
      "Random": 7523,
      "starts": 7524,
      "available": 7525,
      "quote": 7526,
      "ĠAfter": 7527,
      "Ġreduce": 7528,
      "Ġtechnology": 7529,
      "éĴ": 7530,
      "ĠVector": 7531,
      "rules": 7532,
      "ibBuilder": 7533,
      "USE": 7534,
      "Ġpa": 7535,
      "oring": 7536,
      "Engine": 7537,
      "History": 7538,
      "Ġvalidation": 7539,
      "RUN": 7540,
      "Ġreview": 7541,
      "ifiers": 7542,
      "Play": 7543,
      "Ġ128": 7544,
      "Ġagent": 7545,
      "ĠCL": 7546,
      "big": 7547,
      "nc": 7548,
      "Ġsuff": 7549,
      "circle": 7550,
      "ipe": 7551,
      "Ġfixed": 7552,
      "ĠSH": 7553,
      "projects": 7554,
      "RR": 7555,
      "came": 7556,
      "ĠDi": 7557,
      "ĠField": 7558,
      "Ġcross": 7559,
      "wa": 7560,
      "itecture": 7561,
      "Groups": 7562,
      "(--": 7563,
      "Ġdeli": 7564,
      "ĠLI": 7565,
      "çĶ±": 7566,
      "ĠAUTO": 7567,
      "Ġnatural": 7568,
      "Ġhowever": 7569,
      "feed": 7570,
      "Theme": 7571,
      "Scroll": 7572,
      "/'": 7573,
      "ÙĬ": 7574,
      "Texts": 7575,
      "Ġhappen": 7576,
      "105": 7577,
      "Ġpopulation": 7578,
      "]).": 7579,
      "ocr": 7580,
      "Headers": 7581,
      "FLAG": 7582,
      "Ð¾ÑĤ": 7583,
      "2000": 7584,
      "________________": 7585,
      "voc": 7586,
      "binary": 7587,
      "onding": 7588,
      "('#": 7589,
      "BC": 7590,
      "Ġsimply": 7591,
      "ä»£çłģ": 7592,
      "Pe": 7593,
      "ĠAg": 7594,
      "hicle": 7595,
      "å®¶": 7596,
      "UST": 7597,
      "ano": 7598,
      "lux": 7599,
      "URI": 7600,
      "Ġrather": 7601,
      "Ġwatch": 7602,
      "Ġloading": 7603,
      "ĠOver": 7604,
      "KEN": 7605,
      "ç®¡": 7606,
      "Internal": 7607,
      "herit": 7608,
      "ADD": 7609,
      "Gen": 7610,
      "PA": 7611,
      "éĽĨ": 7612,
      "å®ī": 7613,
      "Ġplaceholder": 7614,
      "calar": 7615,
      "Ġshows": 7616,
      "uous": 7617,
      "abc": 7618,
      "\"\\": 7619,
      "Ġtreatment": 7620,
      "Move": 7621,
      "contract": 7622,
      "ìŀĲ": 7623,
      "viders": 7624,
      "Ġquality": 7625,
      "PECT": 7626,
      "azure": 7627,
      "Ġmoment": 7628,
      "ĠPoint": 7629,
      "Ġtransfer": 7630,
      "Ġcloud": 7631,
      "design": 7632,
      "'ve": 7633,
      "-%": 7634,
      "Ok": 7635,
      "Ġep": 7636,
      "deploy": 7637,
      "Ġ-*-": 7638,
      "ĠPage": 7639,
      "Ġopts": 7640,
      "bas": 7641,
      "ato": 7642,
      "`](": 7643,
      "ëĵľ": 7644,
      "éĤ£": 7645,
      "bus": 7646,
      "ĠVis": 7647,
      "vg": 7648,
      "Ġcopyright": 7649,
      "ĠGame": 7650,
      "Ġmulti": 7651,
      ":`": 7652,
      "coin": 7653,
      "uda": 7654,
      "ensity": 7655,
      "mitive": 7656,
      "Ġcho": 7657,
      "NN": 7658,
      "Ġpublished": 7659,
      "Ġri": 7660,
      "Ŀ¼": 7661,
      "ste": 7662,
      "Ġ'';": 7663,
      "}{": 7664,
      "asset": 7665,
      "Argument": 7666,
      "Ġskip": 7667,
      "andidate": 7668,
      "Review": 7669,
      "ìĪĺ": 7670,
      ";;": 7671,
      "Ġpay": 7672,
      "cid": 7673,
      "CREMENT": 7674,
      "æºĲ": 7675,
      "Ġrespect": 7676,
      "Language": 7677,
      "Ġdeep": 7678,
      "2012": 7679,
      "basic": 7680,
      "Ġwidget": 7681,
      "Cor": 7682,
      "pred": 7683,
      "Enter": 7684,
      "Ġstyles": 7685,
      "ĠEnd": 7686,
      "Ġsed": 7687,
      "dy": 7688,
      "ony": 7689,
      "Ġupper": 7690,
      "Ġapproach": 7691,
      "Fragment": 7692,
      "Ġtaken": 7693,
      "itation": 7694,
      "Please": 7695,
      "Ġdtype": 7696,
      "Ġtopic": 7697,
      "logging": 7698,
      "Ġheart": 7699,
      "Cert": 7700,
      "PM": 7701,
      "amin": 7702,
      "ĠSc": 7703,
      "ãģ¾ãģĻ": 7704,
      "ĠĠĠĠĠĠĠĠĠĠĠĠĠĠĠĠĠĠĠ": 7705,
      "Ġmed": 7706,
      "Ġestab": 7707,
      "fun": 7708,
      "·¸": 7709,
      "sequence": 7710,
      "Ġëĭ": 7711,
      "Ġmind": 7712,
      "Ġvs": 7713,
      "Ġrgb": 7714,
      "ĠmibBuilder": 7715,
      "ORY": 7716,
      "íĦ": 7717,
      "Ġrouter": 7718,
      "%,": 7719,
      "Ġthought": 7720,
      "ROOT": 7721,
      "ij": 7722,
      "ĠDocker": 7723,
      "Mask": 7724,
      "React": 7725,
      "mig": 7726,
      "Ð½Ð¾": 7727,
      "Ġlonger": 7728,
      "Len": 7729,
      "ĠCom": 7730,
      "ÑĪ": 7731,
      "ãģĻãĤĭ": 7732,
      "Ġsens": 7733,
      "See": 7734,
      "hu": 7735,
      "Tags": 7736,
      "ORS": 7737,
      "103": 7738,
      "dispatch": 7739,
      "ÂłÂł": 7740,
      "Ġidentifier": 7741,
      "Ġsets": 7742,
      "Stat": 7743,
      "ooter": 7744,
      "104": 7745,
      "Ġmot": 7746,
      "ĠOS": 7747,
      "ducer": 7748,
      "fab": 7749,
      "Ġpermission": 7750,
      ")));": 7751,
      "ĠCreated": 7752,
      "igen": 7753,
      "Ġlos": 7754,
      "|'": 7755,
      "Ġ'{": 7756,
      "0001": 7757,
      "Ġconcept": 7758,
      "pointer": 7759,
      "indexOf": 7760,
      "ĠìŀĪ": 7761,
      "ycle": 7762,
      "Mess": 7763,
      "Ġsig": 7764,
      "ä¸¤": 7765,
      "Styles": 7766,
      "posed": 7767,
      "Light": 7768,
      "ĠUsage": 7769,
      "Ġboard": 7770,
      "Ð¹": 7771,
      "present": 7772,
      "lette": 7773,
      "ĊĠĠĠĠĠĠĠĠĠĠĠĠĊĠĠĠĠĠĠĠĠĠĠĠ": 7774,
      "ĠItem": 7775,
      "Ġespec": 7776,
      "Ġregular": 7777,
      "elcome": 7778,
      "wall": 7779,
      "Ġpredict": 7780,
      "regex": 7781,
      "102": 7782,
      "Ġstory": 7783,
      "hot": 7784,
      "YY": 7785,
      "Raw": 7786,
      "ermin": 7787,
      "ILE": 7788,
      "éª": 7789,
      "Ġthough": 7790,
      "audio": 7791,
      "ATCH": 7792,
      "ĠWHERE": 7793,
      "artist": 7794,
      "thumb": 7795,
      "äºĮ": 7796,
      "Ġsec": 7797,
      "operation": 7798,
      "ivil": 7799,
      "Ġdisable": 7800,
      "optim": 7801,
      "Ġbuilder": 7802,
      "à¤ª": 7803,
      "è¿Ĳ": 7804,
      "*)": 7805,
      "Ġstarting": 7806,
      "(\\": 7807,
      "ĠJan": 7808,
      "Ġmanager": 7809,
      "Ġ\"[": 7810,
      "icip": 7811,
      "press": 7812,
      "Ġencoding": 7813,
      "Ġtcp": 7814,
      "plt": 7815,
      "ĊĉĉĊĉ": 7816,
      "instr": 7817,
      "Pair": 7818,
      "Cap": 7819,
      "irr": 7820,
      "*;": 7821,
      "ĠBoolean": 7822,
      "ORK": 7823,
      "xF": 7824,
      "esome": 7825,
      "ViewController": 7826,
      "Fin": 7827,
      "lon": 7828,
      "ä½ķ": 7829,
      "cheme": 7830,
      "extra": 7831,
      "termine": 7832,
      "ëŀ": 7833,
      "hpp": 7834,
      "è®¾ç½®": 7835,
      "}:": 7836,
      "VALID": 7837,
      "INCREMENT": 7838,
      ".|": 7839,
      "Qt": 7840,
      "Ġdeal": 7841,
      "ERT": 7842,
      "$(": 7843,
      "æľŁ": 7844,
      "izations": 7845,
      "ssh": 7846,
      "Ġappropri": 7847,
      "cdn": 7848,
      "ales": 7849,
      "](./": 7850,
      "Ġë³": 7851,
      "VICE": 7852,
      "Ġaria": 7853,
      "Ġrm": 7854,
      "æĵį": 7855,
      "'];": 7856,
      "Power": 7857,
      "107": 7858,
      "uit": 7859,
      "Pattern": 7860,
      "Ġconc": 7861,
      "Generator": 7862,
      "ëĤ": 7863,
      "Ġmatches": 7864,
      "Ġcomputer": 7865,
      "etry": 7866,
      "plus": 7867,
      "TEXT": 7868,
      "elements": 7869,
      "Ġappear": 7870,
      "æ²¡æľī": 7871,
      "Ġsignal": 7872,
      "Ġtalk": 7873,
      "kernel": 7874,
      "scan": 7875,
      "Ġshown": 7876,
      "150": 7877,
      "Ġcalls": 7878,
      "ĠArt": 7879,
      "Py": 7880,
      "Ġhours": 7881,
      "DES": 7882,
      "OW": 7883,
      "(.": 7884,
      "outube": 7885,
      "Ġease": 7886,
      "grams": 7887,
      "Ġdepth": 7888,
      "109": 7889,
      "ritical": 7890,
      "ĠOrder": 7891,
      "Ġbug": 7892,
      "åĳ½": 7893,
      "ĊĠĠĠĠĠĠĠĠĠĠĠĠĠĠĠĠĠĠĠĠĠĠĠĠĠĠĠĠĠĠĠĠĠĠĠĠĠĠĠĠĠĠĠĠĠĠĠ": 7894,
      "ĠMed": 7895,
      "IVE": 7896,
      "torch": 7897,
      "acle": 7898,
      "/%": 7899,
      "ìĿ¸": 7900,
      "olved": 7901,
      "Ġreflect": 7902,
      "Ġlinks": 7903,
      "Ġbin": 7904,
      "rial": 7905,
      "Ġdetermin": 7906,
      "keyword": 7907,
      "ALTER": 7908,
      "alytics": 7909,
      "CF": 7910,
      "Pointer": 7911,
      "Ġinterval": 7912,
      "Namespace": 7913,
      "compose": 7914,
      "'m": 7915,
      "Ġdistribution": 7916,
      "æµĭ": 7917,
      "Ġ01": 7918,
      "'},": 7919,
      "Ġ]];": 7920,
      "best": 7921,
      "That": 7922,
      "het": 7923,
      "MPLE": 7924,
      "ILD": 7925,
      "agraph": 7926,
      "ĠFirst": 7927,
      "å¾Ī": 7928,
      "tegration": 7929,
      "ĠEnt": 7930,
      "Security": 7931,
      "ĠInc": 7932,
      "Ġstage": 7933,
      "\"+": 7934,
      "ëıĦ": 7935,
      "ĠÐ·": 7936,
      "stry": 7937,
      "ĠNational": 7938,
      "Lower": 7939,
      "AAAAAAAA": 7940,
      "{})": 7941,
      "Comment": 7942,
      "Called": 7943,
      "Ġlisten": 7944,
      "æī§": 7945,
      "čĊĠĠĠĠĠĠĠĠ": 7946,
      "Ġonline": 7947,
      "linear": 7948,
      "Ġgetting": 7949,
      "Did": 7950,
      "ĠAccount": 7951,
      "Ġsizeof": 7952,
      "omy": 7953,
      "canvas": 7954,
      "Ġdjango": 7955,
      "ĠCSS": 7956,
      "Printf": 7957,
      "antic": 7958,
      "ĠADD": 7959,
      "apps": 7960,
      "ĠAWS": 7961,
      "äº¤": 7962,
      "ĠTech": 7963,
      "Ġhar": 7964,
      "brid": 7965,
      "Ġpackages": 7966,
      "Ġproxy": 7967,
      "é¡µ": 7968,
      "cons": 7969,
      "Ġeffects": 7970,
      "Ġnothing": 7971,
      "Ġrecogn": 7972,
      "Ġsafe": 7973,
      "exception": 7974,
      "Ġ-=": 7975,
      "ban": 7976,
      "apis": 7977,
      "curs": 7978,
      "-->": 7979,
      "Ġwide": 7980,
      "anging": 7981,
      "Ġdoing": 7982,
      "99999": 7983,
      "gh": 7984,
      "Ġasset": 7985,
      "arth": 7986,
      "EQ": 7987,
      "ny": 7988,
      "unicode": 7989,
      "mkdir": 7990,
      "=\"../": 7991,
      "å¼ķ": 7992,
      "Ġbg": 7993,
      "çĽ´": 7994,
      "Ġpod": 7995,
      "+'": 7996,
      "Ġstudent": 7997,
      "company": 7998,
      "atives": 7999,
      "visible": 8000,
      "èİ·åıĸ": 8001,
      "pay": 8002,
      "NotFound": 8003,
      "å¤į": 8004,
      "PG": 8005,
      "ä¸ŃçļĦ": 8006,
      "Sy": 8007,
      "ried": 8008,
      "Ġ![": 8009,
      "ĠYour": 8010,
      "Depend": 8011,
      "ĠRemove": 8012,
      "tasks": 8013,
      "Ġeditor": 8014,
      "Ġach": 8015,
      "Ġhalf": 8016,
      "HOST": 8017,
      "Ġsurface": 8018,
      "ARK": 8019,
      "ãģĵ": 8020,
      "verter": 8021,
      "colors": 8022,
      "zeros": 8023,
      "Ġminutes": 8024,
      "Ġselection": 8025,
      "ĠXCT": 8026,
      "112": 8027,
      "**.": 8028,
      "throw": 8029,
      "TRIB": 8030,
      "Ġinner": 8031,
      "Release": 8032,
      "Ġaccur": 8033,
      "Find": 8034,
      "Ġunknown": 8035,
      "Alert": 8036,
      "Ġmaintain": 8037,
      "highlight": 8038,
      "Ġful": 8039,
      "rase": 8040,
      "inate": 8041,
      "bal": 8042,
      "ĠPlease": 8043,
      "Ġ$(\"#": 8044,
      "Mapping": 8045,
      "Contract": 8046,
      "hw": 8047,
      "equals": 8048,
      "Ġdelay": 8049,
      "Notification": 8050,
      "Ġsources": 8051,
      "Arch": 8052,
      "è¯ķ": 8053,
      "ercise": 8054,
      "------": 8055,
      "ĠTask": 8056,
      "tl": 8057,
      "æĵįä½ľ": 8058,
      "ĠGeneral": 8059,
      "selves": 8060,
      "Ġexplo": 8061,
      "Ġidea": 8062,
      "ĠPort": 8063,
      "Ġunsafe": 8064,
      "atible": 8065,
      "ĠSource": 8066,
      "Secret": 8067,
      "ĠContext": 8068,
      "Ġphysical": 8069,
      "Ġconstant": 8070,
      "className": 8071,
      "Ġfailure": 8072,
      "upper": 8073,
      "Ġpixel": 8074,
      "jar": 8075,
      "shop": 8076,
      "curl": 8077,
      "unities": 8078,
      "Ġ70": 8079,
      "çĬ": 8080,
      "resents": 8081,
      "Ġprintln": 8082,
      "WI": 8083,
      "Ġgrep": 8084,
      "Ġjs": 8085,
      "FFFF": 8086,
      "trim": 8087,
      "Ġpaths": 8088,
      "Ġstyled": 8089,
      "Ġscroll": 8090,
      "Ġtensor": 8091,
      "ceed": 8092,
      "ĠonChange": 8093,
      "Ġwrapper": 8094,
      "atis": 8095,
      "Sample": 8096,
      "variant": 8097,
      "configure": 8098,
      "destroy": 8099,
      "ç©º": 8100,
      "endpoint": 8101,
      "hib": 8102,
      "Ġbind": 8103,
      "çŁ¥": 8104,
      "Prop": 8105,
      "locity": 8106,
      "Download": 8107,
      "gers": 8108,
      "Ð¾Ð³": 8109,
      "comments": 8110,
      "Ali": 8111,
      "BIT": 8112,
      "ĠBY": 8113,
      "ĠEurope": 8114,
      "æīĢæľī": 8115,
      "Ġprintf": 8116,
      "Snapshot": 8117,
      "Ġchart": 8118,
      "Ġchoose": 8119,
      "want": 8120,
      "---|": 8121,
      "Ġdevices": 8122,
      "LINE": 8123,
      "cmp": 8124,
      "}\")": 8125,
      "proc": 8126,
      "Ġgreater": 8127,
      "Ġcli": 8128,
      "trigger": 8129,
      "Person": 8130,
      "ĠDr": 8131,
      "Ġcame": 8132,
      "Ġ\"--": 8133,
      "Ġtypeof": 8134,
      "ï¼Ľ": 8135,
      "Ġpersonal": 8136,
      "writer": 8137,
      "åºĵ": 8138,
      "Ġimpact": 8139,
      "Common": 8140,
      "Ġeff": 8141,
      "Ġcomes": 8142,
      "loadTexts": 8143,
      "Ġsync": 8144,
      "Expect": 8145,
      "DEBUG": 8146,
      "validation": 8147,
      "ancy": 8148,
      "andatory": 8149,
      "033": 8150,
      "rant": 8151,
      "ĠIF": 8152,
      "ĠĠĠĠĠĠĠĠĠĠĠĠĠĠĠĠĠĠ": 8153,
      "203": 8154,
      "forms": 8155,
      "çī¹": 8156,
      "ĠMO": 8157,
      "èī": 8158,
      "ools": 8159,
      "references": 8160,
      "Ġopacity": 8161,
      "sembly": 8162,
      "ĠSearch": 8163,
      "Multi": 8164,
      "Ġconsist": 8165,
      "you": 8166,
      "Ġ[#": 8167,
      ">'": 8168,
      "factory": 8169,
      "inv": 8170,
      "navbar": 8171,
      "Ġinitialize": 8172,
      "isl": 8173,
      "eff": 8174,
      "Ġconn": 8175,
      "Ġupload": 8176,
      "ÐµÐ»": 8177,
      "cipe": 8178,
      "Submit": 8179,
      "DL": 8180,
      "amazon": 8181,
      "archive": 8182,
      "men": 8183,
      "æł¼": 8184,
      "]=": 8185,
      "Ġconsidered": 8186,
      "Ġstroke": 8187,
      "Bundle": 8188,
      "Ġaff": 8189,
      "mental": 8190,
      "117": 8191,
      "Ġ'$": 8192,
      "Accept": 8193,
      "æī§è¡Į": 8194,
      "imated": 8195,
      "Ġmeas": 8196,
      "Ġmass": 8197,
      "ä¸ī": 8198,
      "pip": 8199,
      "Ġdetermine": 8200,
      "ĠDown": 8201,
      "dst": 8202,
      "sid": 8203,
      "Ġmonitor": 8204,
      "Ġsaved": 8205,
      "mysql": 8206,
      "achment": 8207,
      "ĠArg": 8208,
      "ä»¤": 8209,
      "ceptions": 8210,
      "},{\"": 8211,
      "BL": 8212,
      "Ġfund": 8213,
      "ĠApplication": 8214,
      "Ġopp": 8215,
      "oll": 8216,
      "ko": 8217,
      ";/": 8218,
      "ĠAuthor": 8219,
      "ĠJul": 8220,
      "ĠPack": 8221,
      "Ġknowledge": 8222,
      "Ġ`/": 8223,
      "ARG": 8224,
      "Ġbus": 8225,
      "Ġpolit": 8226,
      "ran": 8227,
      "Batch": 8228,
      "Ġprocessing": 8229,
      "NG": 8230,
      "ASH": 8231,
      "Descript": 8232,
      "Ġbi": 8233,
      "Ġmodules": 8234,
      "ĠCOLL": 8235,
      "à´": 8236,
      "rew": 8237,
      "Protocol": 8238,
      "ounce": 8239,
      "documentation": 8240,
      "Ġdeath": 8241,
      "FIX": 8242,
      "Ġtick": 8243,
      "Ġrect": 8244,
      "usage": 8245,
      "aven": 8246,
      "OPT": 8247,
      "relative": 8248,
      "apper": 8249,
      "Ġready": 8250,
      "manifest": 8251,
      "els": 8252,
      "Ġsorted": 8253,
      "[],": 8254,
      "ä¼ł": 8255,
      "ãĥĥ": 8256,
      "Ġpages": 8257,
      "Ġlead": 8258,
      "qq": 8259,
      "gal": 8260,
      "ĠOff": 8261,
      "Ġsudo": 8262,
      "atur": 8263,
      "ĠChrist": 8264,
      "è½½": 8265,
      "Ġsha": 8266,
      "Ġsymp": 8267,
      "Ġforms": 8268,
      "bet": 8269,
      "encoding": 8270,
      "Ġann": 8271,
      "Ġrelationship": 8272,
      "iation": 8273,
      "Ġcour": 8274,
      "ney": 8275,
      "variables": 8276,
      "Region": 8277,
      "VALUE": 8278,
      "åİ»": 8279,
      "BR": 8280,
      "ups": 8281,
      "EST": 8282,
      "Mar": 8283,
      "Ġ42": 8284,
      "rier": 8285,
      "ìĹĲìĦľ": 8286,
      "Wait": 8287,
      "\\\">": 8288,
      "Ġ{:": 8289,
      ")->": 8290,
      "ventory": 8291,
      "Ġcountries": 8292,
      "voice": 8293,
      "700": 8294,
      "apes": 8295,
      "ĮĢ": 8296,
      "agger": 8297,
      "annotation": 8298,
      "Binary": 8299,
      "Ġmiddle": 8300,
      "ĊĊĊĊĊ": 8301,
      "blem": 8302,
      "ëĿ¼": 8303,
      "overflow": 8304,
      "Ġsitu": 8305,
      "625": 8306,
      "Ġoutside": 8307,
      "ridge": 8308,
      ":\",": 8309,
      "ĠNav": 8310,
      "enced": 8311,
      "Ġground": 8312,
      "Static": 8313,
      "Ġ44": 8314,
      "Ġalgorithm": 8315,
      "Ġupon": 8316,
      "Ġsuccessfully": 8317,
      "ĠBack": 8318,
      "album": 8319,
      "è½¬": 8320,
      "å±ŀ": 8321,
      "Ġdetect": 8322,
      "Ġimplemented": 8323,
      "è£ħ": 8324,
      "vnd": 8325,
      "mong": 8326,
      "à¤²": 8327,
      "Ġwrong": 8328,
      "Attr": 8329,
      "ĠPri": 8330,
      "rics": 8331,
      "Ġur": 8332,
      "abet": 8333,
      "osis": 8334,
      "ribe": 8335,
      "ĠPy": 8336,
      "ĠDebug": 8337,
      "stage": 8338,
      "eek": 8339,
      "ĠChar": 8340,
      "High": 8341,
      "Year": 8342,
      "bn": 8343,
      "Ġpipeline": 8344,
      "Ġdu": 8345,
      "reng": 8346,
      "ĊĠĠĠĠĠĠĠĠĠĠĠĠĠĠĠĠĠĠĠĠĠĠĠĠĠĠ": 8347,
      "ques": 8348,
      "Ġ\")": 8349,
      "anning": 8350,
      "Texture": 8351,
      "ãģĨ": 8352,
      "initialize": 8353,
      "Eq": 8354,
      "ĠButton": 8355,
      "ĠValueError": 8356,
      "ĠEnglish": 8357,
      "ĠAdded": 8358,
      "Ĥ¨": 8359,
      "ä¿®": 8360,
      "Ġcompute": 8361,
      "ĠJavaScript": 8362,
      "Iterator": 8363,
      "-----": 8364,
      "Ġidentify": 8365,
      "Ġ\"{": 8366,
      "/:": 8367,
      "environment": 8368,
      "Ġanything": 8369,
      "Ġdestination": 8370,
      "Ġ;;": 8371,
      "serve": 8372,
      "ĠOct": 8373,
      "Ġyoung": 8374,
      "Ġfoo": 8375,
      "Ġcolors": 8376,
      "Assign": 8377,
      "Ġability": 8378,
      "ission": 8379,
      "ras": 8380,
      "mesh": 8381,
      "Ġ\"\";": 8382,
      "Ġrecords": 8383,
      "Normal": 8384,
      "actual": 8385,
      "Asset": 8386,
      "Ġprincip": 8387,
      "æīĭ": 8388,
      "Ġts": 8389,
      "Ġev": 8390,
      "spacing": 8391,
      "stdout": 8392,
      "lyph": 8393,
      "\\.": 8394,
      "ĠTR": 8395,
      "![](": 8396,
      "ìľ¼ë¡ľ": 8397,
      "ĠÐ±": 8398,
      "multi": 8399,
      "ĠBig": 8400,
      "ĠGET": 8401,
      "Ġdark": 8402,
      "CM": 8403,
      "ĠSupport": 8404,
      "Ġlambda": 8405,
      "ìĭľ": 8406,
      "ĠGitHub": 8407,
      "Ġmarket": 8408,
      "adv": 8409,
      "Ġ))": 8410,
      "iterator": 8411,
      "Endpoint": 8412,
      "bounds": 8413,
      "TRIBUT": 8414,
      "includes": 8415,
      "Ġdst": 8416,
      "Ġdictionary": 8417,
      "Chain": 8418,
      "cost": 8419,
      "Ġpor": 8420,
      "compile": 8421,
      "gray": 8422,
      "Allow": 8423,
      "ĠâĶĤ": 8424,
      "Dim": 8425,
      "Ġpositive": 8426,
      "CRIPT": 8427,
      "argo": 8428,
      "Ġ----------------": 8429,
      "ĠCHAR": 8430,
      "atom": 8431,
      "íķĺëĬĶ": 8432,
      "ev": 8433,
      "reply": 8434,
      "106": 8435,
      "ANG": 8436,
      "male": 8437,
      "Ġeducation": 8438,
      "usion": 8439,
      "Ġlang": 8440,
      "éĹ®é¢ĺ": 8441,
      "ãĥª": 8442,
      "æ¶Ī": 8443,
      "Ġinstanceof": 8444,
      "integer": 8445,
      "webpack": 8446,
      "æĺ¯åĲ¦": 8447,
      "ĠØ§": 8448,
      "house": 8449,
      "TD": 8450,
      "ĠSm": 8451,
      "Points": 8452,
      "Ġhab": 8453,
      "ports": 8454,
      "\\\",\\\"": 8455,
      "ç´ł": 8456,
      "effect": 8457,
      "160": 8458,
      "Help": 8459,
      "333": 8460,
      "Ġcamp": 8461,
      "DateTime": 8462,
      "ĠDelete": 8463,
      "ados": 8464,
      "mobile": 8465,
      "Buf": 8466,
      "setState": 8467,
      "Ġlinear": 8468,
      "medium": 8469,
      "Ġdriver": 8470,
      "continue": 8471,
      "Ġ>>>": 8472,
      "experi": 8473,
      "003": 8474,
      "Ġconfigure": 8475,
      ",,,,": 8476,
      "ĊĠĠĠĠĠĠĠĠĠĠĠĠĠĠĠĠĠĠĠĠĠĠĠĠĠĠĠĠ": 8477,
      "115": 8478,
      "ught": 8479,
      "ĠÎ": 8480,
      "=\"{{": 8481,
      "Car": 8482,
      "Lib": 8483,
      "mix": 8484,
      "hl": 8485,
      "SN": 8486,
      "ĠĠĠĠĠĠĠĠĠĠĠĠĠĠĠĠĠĠĠĠ": 8487,
      "Ġ'_": 8488,
      "opacity": 8489,
      "payment": 8490,
      "vie": 8491,
      "250": 8492,
      "Ġversions": 8493,
      "rown": 8494,
      "Ġnpm": 8495,
      "åĪĽå»º": 8496,
      "rpc": 8497,
      "Ġloaded": 8498,
      "OFF": 8499,
      "Ġunless": 8500,
      "\"):": 8501,
      "Ġnullptr": 8502,
      "RIGHT": 8503,
      "Center": 8504,
      "Ġtuple": 8505,
      "TOKEN": 8506,
      "tre": 8507,
      "çīĪ": 8508,
      "Ġhighlight": 8509,
      "inger": 8510,
      "orary": 8511,
      ":]": 8512,
      "lr": 8513,
      "guide": 8514,
      "aur": 8515,
      "?\"": 8516,
      "PACK": 8517,
      "forward": 8518,
      "mitter": 8519,
      "åħĪ": 8520,
      "LY": 8521,
      "extract": 8522,
      "119": 8523,
      "deb": 8524,
      "ĠElement": 8525,
      "ìłķ": 8526,
      "vidence": 8527,
      "ĠFoundation": 8528,
      "ental": 8529,
      "Ġui": 8530,
      "Volume": 8531,
      "åħ¬": 8532,
      "ĠControl": 8533,
      "distance": 8534,
      "Ġthird": 8535,
      "Ġeverything": 8536,
      "Ġbeh": 8537,
      "ief": 8538,
      "Ġconsu": 8539,
      "¬¸": 8540,
      "Ġìĥ": 8541,
      "Optional": 8542,
      "Ġzip": 8543,
      "toms": 8544,
      "mediate": 8545,
      "Month": 8546,
      "Ġpatch": 8547,
      "constraint": 8548,
      "Ġconnected": 8549,
      "',['../": 8550,
      "ĠTRAN": 8551,
      "Ġdiscus": 8552,
      "NC": 8553,
      "fric": 8554,
      "íĦ°": 8555,
      "Bound": 8556,
      "ĠMB": 8557,
      "ï¼ģ": 8558,
      "udit": 8559,
      "IMARY": 8560,
      "redis": 8561,
      "Hand": 8562,
      "ĠAc": 8563,
      "Db": 8564,
      "which": 8565,
      "ipedia": 8566,
      "uer": 8567,
      "ĠCG": 8568,
      "------------------------------------------------": 8569,
      "Ġespecially": 8570,
      "Ġconstruct": 8571,
      "rypted": 8572,
      "sidebar": 8573,
      "Registry": 8574,
      "deg": 8575,
      "Ġcombin": 8576,
      "Ġkwargs": 8577,
      "è¯ģ": 8578,
      "factor": 8579,
      "slug": 8580,
      "Ġ38": 8581,
      "otos": 8582,
      "*.": 8583,
      "Ġast": 8584,
      "ìĦ±": 8585,
      "ë°": 8586,
      "Ġmetrics": 8587,
      "Timer": 8588,
      "course": 8589,
      "114": 8590,
      "Ġshall": 8591,
      "posal": 8592,
      "ĠExec": 8593,
      "two": 8594,
      "Ġalloc": 8595,
      "Ġhouse": 8596,
      "Ġhum": 8597,
      "()));": 8598,
      "windows": 8599,
      "Ġsamples": 8600,
      "dx": 8601,
      "æľĪ": 8602,
      "STATE": 8603,
      "ĠLocal": 8604,
      "Uri": 8605,
      "Ġbrain": 8606,
      "Ġdialog": 8607,
      "Ġtrad": 8608,
      "gments": 8609,
      "pytest": 8610,
      "UND": 8611,
      "ĠREF": 8612,
      "åĬĽ": 8613,
      "Ġ164": 8614,
      "Tests": 8615,
      "Ġ#{": 8616,
      "Ġblocks": 8617,
      "Ġëª": 8618,
      "éĸ": 8619,
      "Ġletter": 8620,
      "Ġshift": 8621,
      "percent": 8622,
      "lications": 8623,
      "itution": 8624,
      "threshold": 8625,
      "Ġrequirements": 8626,
      "riteria": 8627,
      "Ġten": 8628,
      "Ġsal": 8629,
      "å¿ĥ": 8630,
      "rum": 8631,
      "odo": 8632,
      "contents": 8633,
      "ĠCOLLATE": 8634,
      "Ġles": 8635,
      "series": 8636,
      "Ġdeveloped": 8637,
      "releases": 8638,
      "INST": 8639,
      "lv": 8640,
      "ĠPropTypes": 8641,
      "åħ·": 8642,
      "Basic": 8643,
      "ĠREAD": 8644,
      "got": 8645,
      "124": 8646,
      "caption": 8647,
      "Ġsense": 8648,
      "002": 8649,
      "ĠHealth": 8650,
      "contain": 8651,
      "Ġfactor": 8652,
      "Ġbash": 8653,
      "querySelector": 8654,
      "CG": 8655,
      "ĠProcess": 8656,
      "æ®µ": 8657,
      "ĠSend": 8658,
      "roved": 8659,
      "à¤¶": 8660,
      "Ġoverflow": 8661,
      "Ġeasily": 8662,
      "èµ·": 8663,
      "Pass": 8664,
      "generator": 8665,
      "è¯Ń": 8666,
      "sf": 8667,
      "large": 8668,
      "Ġminimum": 8669,
      "acion": 8670,
      "ãĥ«": 8671,
      "developer": 8672,
      "condition": 8673,
      "()[": 8674,
      "itute": 8675,
      "attrs": 8676,
      "logies": 8677,
      "Ð³": 8678,
      "ĠSy": 8679,
      "Edge": 8680,
      "åķ": 8681,
      "!=": 8682,
      "Ñī": 8683,
      "Tensor": 8684,
      "Ġaltern": 8685,
      "ociety": 8686,
      "Messages": 8687,
      "news": 8688,
      "Ġruntime": 8689,
      "microsoft": 8690,
      "Ġcls": 8691,
      "ĊĠĠĠĠĠĠĠĠĠĠĠĠĠĠĠĠĠĠĠĠĠĠĠĠĠĠĠĠĠĠĠĠĠ": 8692,
      "Ġwriter": 8693,
      "Ġfrequency": 8694,
      "vide": 8695,
      "ubuntu": 8696,
      ".')": 8697,
      "Ġ99": 8698,
      "ĠDirect": 8699,
      "CHECK": 8700,
      "ä¸ļ": 8701,
      "that": 8702,
      "omite": 8703,
      "Initial": 8704,
      "enario": 8705,
      "Ġsummary": 8706,
      "ĠJS": 8707,
      "Ġenumerate": 8708,
      "Ġflu": 8709,
      "Ġ55": 8710,
      "'d": 8711,
      "utable": 8712,
      "ĠShe": 8713,
      "ris": 8714,
      "HR": 8715,
      "external": 8716,
      "peg": 8717,
      "Ġ(_": 8718,
      "à¤¸": 8719,
      "sem": 8720,
      "ĠLine": 8721,
      "304": 8722,
      "asy": 8723,
      "æĥ³": 8724,
      "Bottom": 8725,
      "Ġseed": 8726,
      "Sim": 8727,
      "AK": 8728,
      "']]],": 8729,
      "Ġdescribed": 8730,
      "ulated": 8731,
      "Ġadding": 8732,
      "å®ļä¹ī": 8733,
      "mx": 8734,
      "Dto": 8735,
      "Ġnative": 8736,
      "oration": 8737,
      "LD": 8738,
      "omitempty": 8739,
      "BY": 8740,
      "Validation": 8741,
      "accept": 8742,
      "icture": 8743,
      "pipeline": 8744,
      "roy": 8745,
      "ãĤĬ": 8746,
      "INTER": 8747,
      "ãģķ": 8748,
      "Ġaudio": 8749,
      "Ġcb": 8750,
      "Rows": 8751,
      "Ġorganization": 8752,
      "ĠNow": 8753,
      "Ġchoice": 8754,
      "related": 8755,
      "selection": 8756,
      "Ġcfg": 8757,
      "entries": 8758,
      "Ġsegment": 8759,
      "Ġentries": 8760,
      "Ġstatement": 8761,
      "ĠThen": 8762,
      "Objects": 8763,
      "ĠLoad": 8764,
      "Setting": 8765,
      "Docker": 8766,
      "pd": 8767,
      "Idx": 8768,
      "Ġcorresponding": 8769,
      "ĠPartial": 8770,
      "Environment": 8771,
      "Bad": 8772,
      "dropdown": 8773,
      "limate": 8774,
      "helpers": 8775,
      "ĠOp": 8776,
      "mid": 8777,
      "uge": 8778,
      "ãĥ¼ãĤ": 8779,
      "Ġmillion": 8780,
      "erry": 8781,
      "AE": 8782,
      "Ġprobably": 8783,
      "/_": 8784,
      "NU": 8785,
      "è®°": 8786,
      "ygon": 8787,
      "204": 8788,
      "compute": 8789,
      "Ġbucket": 8790,
      "Python": 8791,
      "bold": 8792,
      "olicies": 8793,
      "å®ŀçİ°": 8794,
      "Sl": 8795,
      "Worker": 8796,
      "ancer": 8797,
      "resize": 8798,
      "ARD": 8799,
      "speed": 8800,
      "Ġapplied": 8801,
      "ordinate": 8802,
      "ributed": 8803,
      "COUNT": 8804,
      "ĠLinux": 8805,
      "Ġtrace": 8806,
      "\"][\"": 8807,
      "ĠSTRE": 8808,
      "STATUS": 8809,
      "filters": 8810,
      "ĠMore": 8811,
      "SUCCESS": 8812,
      "isation": 8813,
      "Ġcancer": 8814,
      "arger": 8815,
      "ulk": 8816,
      "Ġeffort": 8817,
      "Ġscience": 8818,
      "Errors": 8819,
      "Ġdot": 8820,
      "ç»Ļ": 8821,
      "dn": 8822,
      "Ġmaterials": 8823,
      "Ġrec": 8824,
      "Ġregard": 8825,
      "Elements": 8826,
      "RECT": 8827,
      "ÐµÐ´": 8828,
      "Ġtechn": 8829,
      "standard": 8830,
      "your": 8831,
      "Implement": 8832,
      "éģĵ": 8833,
      "Ġpromise": 8834,
      "cart": 8835,
      "aign": 8836,
      "122": 8837,
      "Contact": 8838,
      "Nil": 8839,
      "Short": 8840,
      "URCE": 8841,
      "ifact": 8842,
      "REF": 8843,
      "Ms": 8844,
      "ĠRegister": 8845,
      "ĠMain": 8846,
      "gzip": 8847,
      "frames": 8848,
      "Ġfish": 8849,
      "Ġboot": 8850,
      "åģļ": 8851,
      "Ġsus": 8852,
      "venue": 8853,
      "Descriptor": 8854,
      "ãģ£": 8855,
      "}_": 8856,
      "ĠCOMMENT": 8857,
      "ebook": 8858,
      "ĠImport": 8859,
      "ĠCount": 8860,
      "attle": 8861,
      "inx": 8862,
      "Ġvertical": 8863,
      "Ġwalk": 8864,
      "More": 8865,
      "ĠProgram": 8866,
      "æĶ¾": 8867,
      "Ġruns": 8868,
      "ĠJohn": 8869,
      "Ġtemperature": 8870,
      "é»ĺ": 8871,
      "onym": 8872,
      "Ang": 8873,
      "figure": 8874,
      "Ġwin": 8875,
      "allery": 8876,
      "ĠResource": 8877,
      "osed": 8878,
      "ĠQt": 8879,
      "ICAg": 8880,
      "164": 8881,
      "Ġappropriate": 8882,
      "ãĤī": 8883,
      "@@@@": 8884,
      "#{": 8885,
      "ĠJob": 8886,
      "preview": 8887,
      "rgb": 8888,
      "mv": 8889,
      "redirect": 8890,
      "Payload": 8891,
      "cles": 8892,
      "Ġč": 8893,
      "ĠArgs": 8894,
      "Ġinflu": 8895,
      "Ġ51": 8896,
      "Ġwor": 8897,
      "Ġinstructions": 8898,
      "Bool": 8899,
      "WORK": 8900,
      "Ġisn": 8901,
      "Øª": 8902,
      "mouse": 8903,
      "Ġ09": 8904,
      "Direction": 8905,
      "Ġassume": 8906,
      "indices": 8907,
      "GER": 8908,
      "Make": 8909,
      "Ġprotect": 8910,
      "Ġsuccessful": 8911,
      "å¿ħ": 8912,
      "ĠWed": 8913,
      "116": 8914,
      "supported": 8915,
      "Ø¯": 8916,
      "weights": 8917,
      "Ġ2014": 8918,
      "206": 8919,
      "Timestamp": 8920,
      "OC": 8921,
      "Ġfive": 8922,
      "Ġ{}\",": 8923,
      "las": 8924,
      "ĠCore": 8925,
      "PASS": 8926,
      "indent": 8927,
      "TestCase": 8928,
      "ham": 8929,
      "å°±æĺ¯": 8930,
      "hub": 8931,
      "mq": 8932,
      "sheet": 8933,
      "Ġever": 8934,
      "Ãº": 8935,
      "Ġcp": 8936,
      "under": 8937,
      "éķ¿": 8938,
      "ÛĮ": 8939,
      "Double": 8940,
      "åĪ«": 8941,
      "Information": 8942,
      "west": 8943,
      "Ġproduce": 8944,
      "Ġphone": 8945,
      "La": 8946,
      "UX": 8947,
      "icator": 8948,
      "DP": 8949,
      "Ġpractice": 8950,
      "Binding": 8951,
      "Ġimpl": 8952,
      "clip": 8953,
      "scene": 8954,
      "Validator": 8955,
      "Ġtax": 8956,
      "Side": 8957,
      "ãĥ©": 8958,
      "eper": 8959,
      "Ġprec": 8960,
      "414": 8961,
      "GIN": 8962,
      "å¹³": 8963,
      "gamma": 8964,
      "Ġgas": 8965,
      "å¤ĦçĲĨ": 8966,
      "Ġpain": 8967,
      "hem": 8968,
      "çĬ¶": 8969,
      "Da": 8970,
      "Ġanaly": 8971,
      "åıĬ": 8972,
      "?(": 8973,
      "ĠMax": 8974,
      "ĠFind": 8975,
      "Ġut": 8976,
      "ĠHome": 8977,
      "ĠObservable": 8978,
      "Ġmd": 8979,
      "Ġactivities": 8980,
      "LC": 8981,
      "============": 8982,
      "Ġgets": 8983,
      "hat": 8984,
      "Visible": 8985,
      "Ġpatients": 8986,
      "Ġvisible": 8987,
      "oser": 8988,
      "processing": 8989,
      "Ġcamera": 8990,
      "cape": 8991,
      "Ġgoal": 8992,
      "132": 8993,
      "Std": 8994,
      "middle": 8995,
      "Ġmor": 8996,
      "alleng": 8997,
      "èĭ": 8998,
      "ulp": 8999,
      "LOAD": 9000,
      "PK": 9001,
      "amic": 9002,
      "æį¢": 9003,
      "ĠÐ½Ð°": 9004,
      "Word": 9005,
      "Stop": 9006,
      "ĠTYPE": 9007,
      "ĠUsing": 9008,
      "2022": 9009,
      "Ġ{...": 9010,
      "')).": 9011,
      "DEF": 9012,
      "Arr": 9013,
      "Quest": 9014,
      "urred": 9015,
      "Switch": 9016,
      "Ġmid": 9017,
      "cancel": 9018,
      "Ġsin": 9019,
      "ĠMock": 9020,
      "disk": 9021,
      "Should": 9022,
      "Ð¸Ð¼": 9023,
      "Ġstats": 9024,
      "predict": 9025,
      "ĠClone": 9026,
      "éĵ": 9027,
      "ĠSimple": 9028,
      "toHave": 9029,
      "ç³»ç»Ł": 9030,
      "Ġlooking": 9031,
      "prob": 9032,
      "COMP": 9033,
      "express": 9034,
      "kubernetes": 9035,
      "Aw": 9036,
      "calc": 9037,
      "ĠSk": 9038,
      "Ġcomplet": 9039,
      "Aut": 9040,
      "jenkins": 9041,
      "BD": 9042,
      "ĠBE": 9043,
      "Ġprior": 9044,
      "graphy": 9045,
      "Google": 9046,
      "RESULT": 9047,
      "ĠHere": 9048,
      "istr": 9049,
      "rollers": 9050,
      "methods": 9051,
      "illing": 9052,
      "ì²": 9053,
      "Ġparsed": 9054,
      "rab": 9055,
      "ĠSim": 9056,
      "pod": 9057,
      "afety": 9058,
      "Big": 9059,
      "Ġms": 9060,
      "TAG": 9061,
      "Ġsi": 9062,
      "det": 9063,
      "agnost": 9064,
      "ĠĊĠĠĠĠĠ": 9065,
      "inct": 9066,
      "Weight": 9067,
      "Ġmechan": 9068,
      "posts": 9069,
      "Many": 9070,
      "products": 9071,
      "CN": 9072,
      "é¦": 9073,
      "Ġ&[": 9074,
      "Own": 9075,
      "ida": 9076,
      "ĠProduct": 9077,
      "Ġ\"\")": 9078,
      "ĠMem": 9079,
      "çĿ": 9080,
      "iders": 9081,
      "clock": 9082,
      "1111": 9083,
      "Vertex": 9084,
      "ĠRecord": 9085,
      ".<": 9086,
      "202": 9087,
      "DEX": 9088,
      "vertical": 9089,
      "jet": 9090,
      "Ġmk": 9091,
      "áŀ": 9092,
      "Axis": 9093,
      "ĠPo": 9094,
      "floor": 9095,
      "LIN": 9096,
      "Renderer": 9097,
      ">/": 9098,
      "æķ´": 9099,
      "Ġcss": 9100,
      "maps": 9101,
      "Ġtransparent": 9102,
      "registry": 9103,
      "ĠTra": 9104,
      "Virtual": 9105,
      "folio": 9106,
      "isode": 9107,
      "Ro": 9108,
      "Ġprote": 9109,
      "Once": 9110,
      "Ġstudies": 9111,
      "neg": 9112,
      "ota": 9113,
      "Ġcancel": 9114,
      "Ġcanvas": 9115,
      "Ġtransport": 9116,
      "Trace": 9117,
      "Animation": 9118,
      "days": 9119,
      "addEventListener": 9120,
      "osite": 9121,
      "members": 9122,
      "geo": 9123,
      "Ġdesigned": 9124,
      "ç¡®": 9125,
      "IAL": 9126,
      "ãģĹãģ¦": 9127,
      "olid": 9128,
      "Permission": 9129,
      "ufact": 9130,
      "afka": 9131,
      "Ġsupports": 9132,
      "travis": 9133,
      "Ġverbose": 9134,
      "ç®¡çĲĨ": 9135,
      "Ġ54": 9136,
      "çīĩ": 9137,
      "tract": 9138,
      "START": 9139,
      "...)": 9140,
      "Ġneigh": 9141,
      "Formatter": 9142,
      "levant": 9143,
      "Rout": 9144,
      "timer": 9145,
      "Ġlogs": 9146,
      "culate": 9147,
      "Ġgrant": 9148,
      "Cancel": 9149,
      "Ġcreates": 9150,
      "states": 9151,
      "åĳĺ": 9152,
      "çĪ": 9153,
      "Ġdelta": 9154,
      "ici": 9155,
      "Ð¾Ð±": 9156,
      "Ġnegative": 9157,
      "square": 9158,
      "ĠSTREET": 9159,
      "checkbox": 9160,
      "slot": 9161,
      "Ð°Ðº": 9162,
      "Ġexecution": 9163,
      "ĠRel": 9164,
      "Radius": 9165,
      "lik": 9166,
      "ĠCurrent": 9167,
      "ruit": 9168,
      "Dispatch": 9169,
      "æŁ": 9170,
      "ĠIcon": 9171,
      "Ġsubmit": 9172,
      "review": 9173,
      "refresh": 9174,
      "ĠDist": 9175,
      "],\"": 9176,
      "Sequence": 9177,
      "ĠXCTAssert": 9178,
      "Ġsix": 9179,
      "VV": 9180,
      "reme": 9181,
      "Ġjest": 9182,
      "Ċĉĉĉĉĉĉĉĉĉ": 9183,
      "cols": 9184,
      "Ġsignature": 9185,
      "ĠAug": 9186,
      "Ty": 9187,
      "Ġ??": 9188,
      "called": 9189,
      "é»ĺè®¤": 9190,
      "ĠCAN": 9191,
      "MC": 9192,
      "ball": 9193,
      "Ġdifference": 9194,
      "Plan": 9195,
      "unct": 9196,
      "bbox": 9197,
      "providers": 9198,
      "sender": 9199,
      "Ġskills": 9200,
      "Ġcalculate": 9201,
      "ĠSize": 9202,
      "ryption": 9203,
      "ìĨ": 9204,
      "AW": 9205,
      "Ġrepl": 9206,
      "Ġ`<": 9207,
      "ĠKe": 9208,
      "čĊčĊĠ": 9209,
      "apple": 9210,
      "ama": 9211,
      "atively": 9212,
      "::*;": 9213,
      "credential": 9214,
      "Serial": 9215,
      "Im": 9216,
      "INGS": 9217,
      "Ġepoch": 9218,
      "LP": 9219,
      "Ġ123": 9220,
      "dash": 9221,
      "gp": 9222,
      "ectl": 9223,
      "207": 9224,
      "havi": 9225,
      "Å¡": 9226,
      "ĠAfric": 9227,
      "Diff": 9228,
      "Ð»Ñı": 9229,
      "Ġbackend": 9230,
      "ĠÃł": 9231,
      "Ġtook": 9232,
      "stone": 9233,
      "covered": 9234,
      "Mer": 9235,
      "scss": 9236,
      "ulations": 9237,
      "repos": 9238,
      "Ġplants": 9239,
      "Place": 9240,
      "ropy": 9241,
      "craft": 9242,
      "Ġgithub": 9243,
      "Ġled": 9244,
      "Other": 9245,
      "Ġopport": 9246,
      "Ġpip": 9247,
      "formance": 9248,
      "except": 9249,
      "gregate": 9250,
      "cout": 9251,
      "Ġ'--": 9252,
      "ĠModified": 9253,
      "balance": 9254,
      "118": 9255,
      "anches": 9256,
      "Mouse": 9257,
      "ubectl": 9258,
      "tbody": 9259,
      "åĥ": 9260,
      "ë¶": 9261,
      "208": 9262,
      "named": 9263,
      "ecause": 9264,
      "schedule": 9265,
      "Ġdetail": 9266,
      "Äģ": 9267,
      "AIN": 9268,
      "ĠOnly": 9269,
      "fake": 9270,
      "ropical": 9271,
      "æīĵ": 9272,
      "ira": 9273,
      "andas": 9274,
      "%\"": 9275,
      "\\'": 9276,
      "Ġmultip": 9277,
      ":[": 9278,
      "Platform": 9279,
      "ategor": 9280,
      "oph": 9281,
      "Ġhot": 9282,
      "Ġreach": 9283,
      "ÅŁ": 9284,
      "ç§°": 9285,
      "nes": 9286,
      "Ġeffective": 9287,
      "Ġcompleted": 9288,
      "IZ": 9289,
      "ĠMicrosoft": 9290,
      "âĸĳ": 9291,
      "Ġmp": 9292,
      "íķł": 9293,
      "ima": 9294,
      "exclude": 9295,
      "ê²Į": 9296,
      "ĠRet": 9297,
      "SDK": 9298,
      "hd": 9299,
      "Inject": 9300,
      "205": 9301,
      "World": 9302,
      "129": 9303,
      "Export": 9304,
      "Ġreverse": 9305,
      "IME": 9306,
      "Ġmoney": 9307,
      "Ġ39": 9308,
      "Ġcreation": 9309,
      "ĠEach": 9310,
      "Expected": 9311,
      "Ġ43": 9312,
      "ĠĊĉ": 9313,
      "Iss": 9314,
      "çº§": 9315,
      "æµģ": 9316,
      "Returns": 9317,
      "Med": 9318,
      "ĠRef": 9319,
      "Ġauthentication": 9320,
      "èĪ": 9321,
      "Ġdemon": 9322,
      "vation": 9323,
      "setStatus": 9324,
      "DX": 9325,
      "ĠResearch": 9326,
      "Ġtaking": 9327,
      "edition": 9328,
      "ìĥ": 9329,
      "ipping": 9330,
      "LIST": 9331,
      "ĠEngine": 9332,
      "ĠASS": 9333,
      "Ġfilters": 9334,
      "isions": 9335,
      "---------": 9336,
      "wallet": 9337,
      "social": 9338,
      "scriptor": 9339,
      "Upload": 9340,
      "Ġpanel": 9341,
      "ĠÄĳ": 9342,
      "ipt": 9343,
      "saved": 9344,
      "Ùĩ": 9345,
      "IA": 9346,
      "Ġguard": 9347,
      "ONT": 9348,
      "upt": 9349,
      "íĸ": 9350,
      "ĠWH": 9351,
      "quid": 9352,
      "VAR": 9353,
      "ita": 9354,
      "ĠLIMIT": 9355,
      "509": 9356,
      "outputs": 9357,
      "worker": 9358,
      "workflow": 9359,
      "ased": 9360,
      "VC": 9361,
      "Fore": 9362,
      "Ġmonths": 9363,
      "}-": 9364,
      "utdown": 9365,
      "Let": 9366,
      "rz": 9367,
      "ãĢĢ": 9368,
      "?)": 9369,
      "glob": 9370,
      "sil": 9371,
      "Resources": 9372,
      "Gui": 9373,
      "ĠFilter": 9374,
      "dux": 9375,
      "unknown": 9376,
      "Ġ2010": 9377,
      "customer": 9378,
      "lec": 9379,
      ")**": 9380,
      "Ġconstraint": 9381,
      "constants": 9382,
      "legal": 9383,
      "Ġvm": 9384,
      "navigation": 9385,
      "blocks": 9386,
      "èĻ": 9387,
      "ĠAddress": 9388,
      "Ġmix": 9389,
      "ĠModule": 9390,
      "ĠPRIMARY": 9391,
      "mult": 9392,
      "Ġanimation": 9393,
      "Fetch": 9394,
      "æŃ¥": 9395,
      "Ġcentury": 9396,
      "íĻ": 9397,
      "Ġmapping": 9398,
      "aciÃ³n": 9399,
      "Ġpriv": 9400,
      "ĠWar": 9401,
      "Authorization": 9402,
      "('\\": 9403,
      "ĠÑĥ": 9404,
      "ĠHy": 9405,
      "LOC": 9406,
      "ĠMib": 9407,
      "æ£": 9408,
      "ĠCent": 9409,
      "Unknown": 9410,
      "sites": 9411,
      "æķĪ": 9412,
      "eler": 9413,
      "Ġunderstanding": 9414,
      "bro": 9415,
      "Ġson": 9416,
      "avel": 9417,
      "126": 9418,
      "Ġmus": 9419,
      "gradient": 9420,
      "tooltip": 9421,
      "Ġschedule": 9422,
      "Ġpurpose": 9423,
      "Ġ'__": 9424,
      "aby": 9425,
      "Children": 9426,
      "ĠConfiguration": 9427,
      "ĠLa": 9428,
      "Ġ'')": 9429,
      "Ġrepresents": 9430,
      "ëŁ": 9431,
      "oi": 9432,
      "Ð°Ð»": 9433,
      "olar": 9434,
      "ĠIter": 9435,
      "315": 9436,
      "But": 9437,
      "Ġmetric": 9438,
      "Bind": 9439,
      "Ġwarn": 9440,
      "expression": 9441,
      "Material": 9442,
      "Ġupdates": 9443,
      "ALSE": 9444,
      "()}": 9445,
      "numpy": 9446,
      "aches": 9447,
      "ĠSch": 9448,
      "Ġ49": 9449,
      "spect": 9450,
      "aN": 9451,
      "Ġcredentials": 9452,
      "Ġnor": 9453,
      "ëį": 9454,
      "XML": 9455,
      "Fixed": 9456,
      "218": 9457,
      "rations": 9458,
      "sb": 9459,
      "dro": 9460,
      "dependent": 9461,
      "listen": 9462,
      "ĠìĤ¬ìļ©": 9463,
      "Slice": 9464,
      "hest": 9465,
      "ĠEXPECT": 9466,
      "Ð¾Ð½": 9467,
      "stderr": 9468,
      "Ġpad": 9469,
      "Ġ`.": 9470,
      "ĠFr": 9471,
      "Machine": 9472,
      "éĶĻ": 9473,
      "xE": 9474,
      "Ġslow": 9475,
      "Zone": 9476,
      "Score": 9477,
      "riends": 9478,
      "_;": 9479,
      "Ġclaim": 9480,
      "Uint": 9481,
      "hal": 9482,
      "Ġgrowth": 9483,
      "springframework": 9484,
      "Ġsit": 9485,
      "ĠBuffer": 9486,
      "Ġstand": 9487,
      "Operator": 9488,
      "keep": 9489,
      "åį³": 9490,
      "segment": 9491,
      "QUEST": 9492,
      "Ã¨": 9493,
      "Ġ?>": 9494,
      "thern": 9495,
      "ä¾Ľ": 9496,
      "miss": 9497,
      "HEAD": 9498,
      "youtube": 9499,
      "Ġsil": 9500,
      "bundle": 9501,
      "Ip": 9502,
      "900": 9503,
      "å¸Ĥ": 9504,
      "Ġoccur": 9505,
      "uzz": 9506,
      "spaces": 9507,
      "Ġmult": 9508,
      "choice": 9509,
      "åĿĹ": 9510,
      "ÅĤ": 9511,
      "changed": 9512,
      "Ġessential": 9513,
      "exe": 9514,
      "Ġagree": 9515,
      "ancial": 9516,
      "Ġinterpre": 9517,
      "æ»": 9518,
      "typescript": 9519,
      "lb": 9520,
      "future": 9521,
      "TF": 9522,
      "Ġbecame": 9523,
      "1024": 9524,
      "pography": 9525,
      "è°ĥçĶ¨": 9526,
      "Press": 9527,
      "Ġsell": 9528,
      "Ġseparate": 9529,
      "Ġsun": 9530,
      "ĠWest": 9531,
      "previous": 9532,
      "Ġdrug": 9533,
      "parts": 9534,
      "SR": 9535,
      "CESS": 9536,
      "nail": 9537,
      "æĶ¯æĮģ": 9538,
      "evalu": 9539,
      "irror": 9540,
      "SERVER": 9541,
      ".\");": 9542,
      "ĠHigh": 9543,
      "week": 9544,
      "Ġpytest": 9545,
      "oura": 9546,
      "ĠUSE": 9547,
      "Ġmanage": 9548,
      "sphere": 9549,
      "Ġworker": 9550,
      "ëĵ¤": 9551,
      "answer": 9552,
      "789": 9553,
      "!\"": 9554,
      "priv": 9555,
      "Ġthemselves": 9556,
      "Look": 9557,
      "Ġmedic": 9558,
      "Room": 9559,
      "icode": 9560,
      "ored": 9561,
      "Runtime": 9562,
      "Ġ'\"": 9563,
      "dashboard": 9564,
      "redit": 9565,
      "Ġalmost": 9566,
      "Exit": 9567,
      "ador": 9568,
      "anies": 9569,
      "MIME": 9570,
      "ience": 9571,
      "ĠMac": 9572,
      "functions": 9573,
      "crement": 9574,
      "Ġscripts": 9575,
      "Ġaddr": 9576,
      "Ġalias": 9577,
      "Ġmodern": 9578,
      "mapping": 9579,
      "Ġ65": 9580,
      "ĠLanguage": 9581,
      "Ġhistor": 9582,
      "ĠBar": 9583,
      "íĺ": 9584,
      "live": 9585,
      "Ġìĺ": 9586,
      "Ġdestroy": 9587,
      "fold": 9588,
      "Ġcompar": 9589,
      "Tools": 9590,
      "ê³¼": 9591,
      "poetry": 9592,
[...]
