{
  "version": "1.0",
  "truncation": null,
  "padding": null,
  "added_tokens": [
    {
      "id": 0,
      "content": "<|endoftext|>",
      "single_word": false,
      "lstrip": false,
      "rstrip": false,
      "normalized": false,
      "special": true
    },
    {
      "id": 1,
      "content": "<|pad|>",
      "single_word": false,
      "lstrip": false,
      "rstrip": false,
      "normalized": false,
      "special": true
    },
    {
      "id": 2,
      "content": "<|story_start|>",
      "single_word": false,
      "lstrip": false,
      "rstrip": false,
      "normalized": false,
      "special": true
    },
    {
      "id": 3,
      "content": "<|story_end|>",
      "single_word": false,
      "lstrip": false,
      "rstrip": false,
      "normalized": false,
      "special": true
    },
    {
      "id": 4,
      "content": "<|tags|>",
      "single_word": false,
      "lstrip": false,
      "rstrip": false,
      "normalized": false,
      "special": true
    },
    {
      "id": 5,
      "content": "<|end_tags|>",
      "single_word": false,
      "lstrip": false,
      "rstrip": false,
      "normalized": false,
      "special": true
    },
    {
      "id": 6,
      "content": "<|title|>",
      "single_word": false,
      "lstrip": false,
      "rstrip": false,
      "normalized": false,
      "special": true
    },
    {
      "id": 7,
      "content": "<|system|>",
      "single_word": false,
      "lstrip": false,
      "rstrip": false,
      "normalized": false,
      "special": true
    },
    {
      "id": 8,
      "content": "<|user|>",
      "single_word": false,
      "lstrip": false,
      "rstrip": false,
      "normalized": false,
      "special": true
    },
    {
      "id": 9,
      "content": "<|assistant|>",
      "single_word": false,
      "lstrip": false,
      "rstrip": false,
      "normalized": false,
      "special": true
    },
    {
      "id": 10,
      "content": "<|end_message|>",
      "single_word": false,
      "lstrip": false,
      "rstrip": false,
      "normalized": false,
      "special": true
    }
  ],
  "normalizer": null,
  "pre_tokenizer": {
    "type": "ByteLevel",
    "add_prefix_space": false,
    "trim_offsets": true,
    "use_regex": true
  },
  "post_processor": null,
  "decoder": {
    "type": "ByteLevel",
    "add_prefix_space": true,
    "trim_offsets": true,
    "use_regex": true
  },
  "model": {
    "type": "BPE",
    "dropout": null,
    "unk_token": null,
    "continuing_subword_prefix": null,
    "end_of_word_suffix": null,
    "fuse_unk": false,
    "byte_fallback": false,
    "ignore_merges": false,
    "vocab": {
      "<|endoftext|>": 0,
      "<|pad|>": 1,
      "<|story_start|>": 2,
      "<|story_end|>": 3,
      "<|tags|>": 4,
      "<|end_tags|>": 5,
      "<|title|>": 6,
      "<|system|>": 7,
      "<|user|>": 8,
      "<|assistant|>": 9,
      "<|end_message|>": 10,
      "!": 11,
      "\"": 12,
      "#": 13,
      "$": 14,
      "%": 15,
      "&": 16,
      "'": 17,
      "(": 18,
      ")": 19,
      "*": 20,
      "+": 21,
      ",": 22,
      "-": 23,
      ".": 24,
      "/": 25,
      "0": 26,
      "1": 27,
      "2": 28,
      "3": 29,
      "4": 30,
      "5": 31,
      "6": 32,
      "7": 33,
      "8": 34,
      "9": 35,
      ":": 36,
      ";": 37,
      "<": 38,
      "=": 39,
      ">": 40,
      "?": 41,
      "@": 42,
      "A": 43,
      "B": 44,
      "C": 45,
      "D": 46,
      "E": 47,
      "F": 48,
      "G": 49,
      "H": 50,
      "I": 51,
      "J": 52,
      "K": 53,
      "L": 54,
      "M": 55,
      "N": 56,
      "O": 57,
      "P": 58,
      "Q": 59,
      "R": 60,
      "S": 61,
      "T": 62,
      "U": 63,
      "V": 64,
      "W": 65,
      "X": 66,
      "Y": 67,
      "Z": 68,
      "[": 69,
      "\\": 70,
      "]": 71,
      "^": 72,
      "_": 73,
      "`": 74,
      "a": 75,
      "b": 76,
      "c": 77,
      "d": 78,
      "e": 79,
      "f": 80,
      "g": 81,
      "h": 82,
      "i": 83,
      "j": 84,
      "k": 85,
      "l": 86,
      "m": 87,
      "n": 88,
      "o": 89,
      "p": 90,
      "q": 91,
      "r": 92,
      "s": 93,
      "t": 94,
      "u": 95,
      "v": 96,
      "w": 97,
      "x": 98,
      "y": 99,
      "z": 100,
      "{": 101,
      "|": 102,
      "}": 103,
      "~": 104,
      "¡": 105,
      "¢": 106,
      "£": 107,
      "¤": 108,
      "¥": 109,
      "¦": 110,
      "§": 111,
      "¨": 112,
      "©": 113,
      "ª": 114,
      "«": 115,
      "¬": 116,
      "®": 117,
      "¯": 118,
      "°": 119,
      "±": 120,
      "²": 121,
      "³": 122,
      "´": 123,
      "µ": 124,
      "¶": 125,
      "·": 126,
      "¸": 127,
      "¹": 128,
      "º": 129,
      "»": 130,
      "¼": 131,
      "½": 132,
      "¾": 133,
      "¿": 134,
      "À": 135,
      "Á": 136,
      "Â": 137,
      "Ã": 138,
      "Ä": 139,
      "Å": 140,
      "Æ": 141,
      "Ç": 142,
      "È": 143,
      "É": 144,
      "Ê": 145,
      "Ë": 146,
      "Ì": 147,
      "Í": 148,
      "Î": 149,
      "Ï": 150,
      "Ð": 151,
      "Ñ": 152,
      "Ò": 153,
      "Ó": 154,
      "Ô": 155,
      "Õ": 156,
      "Ö": 157,
      "×": 158,
      "Ø": 159,
      "Ù": 160,
      "Ú": 161,
      "Û": 162,
      "Ü": 163,
      "Ý": 164,
      "Þ": 165,
      "ß": 166,
      "à": 167,
      "á": 168,
      "â": 169,
      "ã": 170,
      "ä": 171,
      "å": 172,
      "æ": 173,
      "ç": 174,
      "è": 175,
      "é": 176,
      "ê": 177,
      "ë": 178,
      "ì": 179,
      "í": 180,
      "î": 181,
      "ï": 182,
      "ð": 183,
      "ñ": 184,
      "ò": 185,
      "ó": 186,
      "ô": 187,
      "õ": 188,
      "ö": 189,
      "÷": 190,
      "ø": 191,
      "ù": 192,
      "ú": 193,
      "û": 194,
      "ü": 195,
      "ý": 196,
      "þ": 197,
      "ÿ": 198,
      "Ā": 199,
      "ā": 200,
      "Ă": 201,
      "ă": 202,
      "Ą": 203,
      "ą": 204,
      "Ć": 205,
      "ć": 206,
      "Ĉ": 207,
      "ĉ": 208,
      "Ċ": 209,
      "ċ": 210,
      "Č": 211,
      "č": 212,
      "Ď": 213,
      "ď": 214,
      "Đ": 215,
      "đ": 216,
      "Ē": 217,
      "ē": 218,
      "Ĕ": 219,
      "ĕ": 220,
      "Ė": 221,
      "ė": 222,
      "Ę": 223,
      "ę": 224,
      "Ě": 225,
      "ě": 226,
      "Ĝ": 227,
      "ĝ": 228,
      "Ğ": 229,
      "ğ": 230,
      "Ġ": 231,
      "ġ": 232,
      "Ģ": 233,
      "ģ": 234,
      "Ĥ": 235,
      "ĥ": 236,
      "Ħ": 237,
      "ħ": 238,
      "Ĩ": 239,
      "ĩ": 240,
      "Ī": 241,
      "ī": 242,
      "Ĭ": 243,
      "ĭ": 244,
      "Į": 245,
      "į": 246,
      "İ": 247,
      "ı": 248,
      "Ĳ": 249,
      "ĳ": 250,
      "Ĵ": 251,
      "ĵ": 252,
      "Ķ": 253,
      "ķ": 254,
      "ĸ": 255,
      "Ĺ": 256,
      "ĺ": 257,
      "Ļ": 258,
      "ļ": 259,
      "Ľ": 260,
      "ľ": 261,
      "Ŀ": 262,
      "ŀ": 263,
      "Ł": 264,
      "ł": 265,
      "Ń": 266,
      "Ġt": 267,
      "he": 268,
      "Ġa": 269,
      "in": 270,
      "Ġs": 271,
      "Ġw": 272,
      "Ġthe": 273,
      "re": 274,
      "Ġo": 275,
      "nd": 276,
      "ha": 277,
      "ou": 278,
      "er": 279,
      "ed": 280,
      "Ġb": 281,
      "Ġm": 282,
      "it": 283,
      "is": 284,
      "Ġf": 285,
      "en": 286,
      "Ġto": 287,
      "Ġc": 288,
      "on": 289,
      "ing": 290,
      "Ġand": 291,
      "or": 292,
      "ĠĠ": 293,
      "ll": 294,
      "Ġof": 295,
      "Ġhe": 296,
      "Ġd": 297,
      "Ġh": 298,
      "as": 299,
      "es": 300,
      "ar": 301,
      "Ġl": 302,
      "an": 303,
      "âĢ": 304,
      "Ġp": 305,
      "Ġin": 306,
      "Ġha": 307,
      "at": 308,
      "Ġn": 309,
      "om": 310,
      "ĠI": 311,
      "hat": 312,
      "Ġg": 313,
      "le": 314,
      "ot": 315,
      "ow": 316,
      "Ġbe": 317,
      "Ġy": 318,
      "ut": 319,
      "ld": 320,
      "id": 321,
      "ve": 322,
      "im": 323,
      "st": 324,
      "ly": 325,
      "Ġwas": 326,
      "gh": 327,
      "se": 328,
      "Ġyou": 329,
      "ic": 330,
      "Ġth": 331,
      "Ġe": 332,
      "Ġthat": 333,
      "ay": 334,
      "et": 335,
      "Ġon": 336,
      "Ġit": 337,
      "ent": 338,
      "ĠĠĠĠ": 339,
      "ac": 340,
      "ith": 341,
      "ver": 342,
      "Ġhis": 343,
      "ir": 344,
      "Ġu": 345,
      "ad": 346,
      "Ġre": 347,
      "Ġfor": 348,
      "Ġas": 349,
      "ght": 350,
      "Ġher": 351,
      "al": 352,
      "Ġwith": 353,
      "ur": 354,
      "Ġwh": 355,
      "Ġst": 356,
      "Ġhad": 357,
      "ion": 358,
      "Ġwe": 359,
      "oo": 360,
      "ĠT": 361,
      "her": 362,
      "Ġr": 363,
      "ce": 364,
      "ould": 365,
      "am": 366,
      "Ġnot": 367,
      "ke": 368,
      "Ġan": 369,
      "âĢĻ": 370,
      "âĢľ": 371,
      "ill": 372,
      "ter": 373,
      "âĢĿ": 374,
      "if": 375,
      "Ġat": 376,
      "Ġhim": 377,
      "ĠM": 378,
      "--": 379,
      "Ġsa": 380,
      "Ġshe": 381,
      "Ġme": 382,
      "ight": 383,
      "ĠS": 384,
      "and": 385,
      "ĠH": 386,
      "ain": 387,
      "ĠA": 388,
      "Ġis": 389,
      "Ġse": 390,
      "ch": 391,
      "red": 392,
      "ri": 393,
      "ro": 394,
      "il": 395,
      "Ġso": 396,
      "ome": 397,
      "ore": 398,
      "ĠB": 399,
      "th": 400,
      "ess": 401,
      "Ġk": 402,
      "'s": 403,
      "Ġmy": 404,
      "all": 405,
      "hen": 406,
      "Ġsu": 407,
      "Ġ\"": 408,
      "Ġhave": 409,
      "pp": 410,
      "Ġsaid": 411,
      "rom": 412,
      "Ġde": 413,
      ".\"": 414,
      "the": 415,
      "Ġbut": 416,
      "ct": 417,
      "Ġdo": 418,
      "Ġup": 419,
      "ge": 420,
      "Ġall": 421,
      "to": 422,
      "ĠC": 423,
      "us": 424,
      "qu": 425,
      "Ġsh": 426,
      "ĠThe": 427,
      "un": 428,
      "Ġne": 429,
      "ul": 430,
      "pe": 431,
      "ard": 432,
      "ust": 433,
      "ĠW": 434,
      "ich": 435,
      "ant": 436,
      ",\"": 437,
      "Ġthey": 438,
      "ell": 439,
      "ie": 440,
      "Ġfrom": 441,
      "Ġby": 442,
      "Ġwere": 443,
      "our": 444,
      "est": 445,
      "el": 446,
      "out": 447,
      "Ġkn": 448,
      "ind": 449,
      "Ġthis": 450,
      "ood": 451,
      "lf": 452,
      "em": 453,
      "res": 454,
      "ab": 455,
      "ĠĠĠĠĠĠĠĠ": 456,
      "ous": 457,
      "art": 458,
      "ked": 459,
      "ame": 460,
      "Ġli": 461,
      "Ġone": 462,
      "Ġno": 463,
      "Ġman": 464,
      "ong": 465,
      "Ġwould": 466,
      "ra": 467,
      "very": 468,
      "Ġwhich": 469,
      "Ġout": 470,
      "Ġv": 471,
      "Ġwho": 472,
      "ast": 473,
      "ound": 474,
      "ers": 475,
      "The": 476,
      "Ġor": 477,
      "itt": 478,
      "own": 479,
      "han": 480,
      "ĠP": 481,
      "Ġcon": 482,
      "one": 483,
      "Ġal": 484,
      "Ġthem": 485,
      "ĠHe": 486,
      "Ġex": 487,
      "ough": 488,
      "Ġab": 489,
      "ĠD": 490,
      "ack": 491,
      "Ġgo": 492,
      "ist": 493,
      "ak": 494,
      "os": 495,
      "ry": 496,
      "ĠL": 497,
      "'t": 498,
      "ace": 499,
      "ig": 500,
      "ation": 501,
      "Ġle": 502,
      "Ġthere": 503,
      "ĠG": 504,
      "Ġwor": 505,
      "um": 506,
      "ĠâĢľ": 507,
      "hed": 508,
      "ol": 509,
      "self": 510,
      "Ġbeen": 511,
      "nt": 512,
      "Ġwill": 513,
      "ck": 514,
      "Ġyour": 515,
      "ake": 516,
      "ĠF": 517,
      "pt": 518,
      "ate": 519,
      "Ġj": 520,
      "ven": 521,
      "Ġwhen": 522,
      "au": 523,
      "Ġare": 524,
      "Ġif": 525,
      "ide": 526,
      ".âĢĿ": 527,
      "Ġtheir": 528,
      "ort": 529,
      "ive": 530,
      "Ġcom": 531,
      "Ġcould": 532,
      "ook": 533,
      "ose": 534,
      "Ġwhat": 535,
      "Ġpl": 536,
      "Ġfe": 537,
      "ost": 538,
      "way": 539,
      "ep": 540,
      "ag": 541,
      "ittle": 542,
      "reat": 543,
      "?\"": 544,
      "other": 545,
      "are": 546,
      "ĠJ": 547,
      "Ġag": 548,
      "Ġdid": 549,
      "hing": 550,
      "Ġqu": 551,
      "Ġknow": 552,
      "Ġbr": 553,
      "we": 554,
      "ime": 555,
      "Ġcan": 556,
      "od": 557,
      "urn": 558,
      "ink": 559,
      "Ġsp": 560,
      "Ġaf": 561,
      "ther": 562,
      "ice": 563,
      "ure": 564,
      "ĠR": 565,
      "Ġany": 566,
      "ought": 567,
      "Ġtr": 568,
      ",âĢĿ": 569,
      "ĠE": 570,
      "Ġinto": 571,
      "nder": 572,
      "Ġar": 573,
      "ĠN": 574,
      "Ġmore": 575,
      "ine": 576,
      "ved": 577,
      "Ġlike": 578,
      "ne": 579,
      "Ġsome": 580,
      "te": 581,
      "Ġlittle": 582,
      "Ġsee": 583,
      "ĠO": 584,
      "pl": 585,
      "Ġam": 586,
      "ite": 587,
      "ass": 588,
      "ĠMr": 589,
      "here": 590,
      "ove": 591,
      "You": 592,
      "fe": 593,
      "fore": 594,
      "ng": 595,
      "Ġabout": 596,
      "Ġsha": 597,
      "Ġtoo": 598,
      "Ġnow": 599,
      "Ġcl": 600,
      "Ġover": 601,
      "ade": 602,
      "Ġgr": 603,
      "op": 604,
      "oy": 605,
      "ity": 606,
      "Ġhand": 607,
      "Ġvery": 608,
      "Ġus": 609,
      "Ġun": 610,
      "Ġtime": 611,
      "ick": 612,
      "Ġthen": 613,
      "be": 614,
      "Ġsay": 615,
      "ather": 616,
      "Ġthan": 617,
      "Ġtw": 618,
      "of": 619,
      "Ġbl": 620,
      "ish": 621,
      "able": 622,
      "ile": 623,
      "Ġdown": 624,
      "ance": 625,
      "ĊĊ": 626,
      "ĠIt": 627,
      "Ġro": 628,
      "ud": 629,
      "ear": 630,
      "Ġch": 631,
      "wn": 632,
      "Ġen": 633,
      "Ġother": 634,
      "Ġagain": 635,
      "ap": 636,
      "ble": 637,
      "age": 638,
      "ence": 639,
      "ĠAnd": 640,
      "ull": 641,
      "Ġday": 642,
      "ious": 643,
      "Ġpro": 644,
      "ĠĠĠ": 645,
      "ord": 646,
      "ress": 647,
      "!\"": 648,
      "ire": 649,
      "ife": 650,
      "ies": 651,
      "uch": 652,
      "ings": 653,
      "Ġgood": 654,
      "ĠBut": 655,
      "ally": 656,
      "Ġfl": 657,
      "ond": 658,
      "ied": 659,
      "Ġshould": 660,
      "ue": 661,
      "ild": 662,
      "Ġupon": 663,
      "Ġ_": 664,
      "ert": 665,
      "ving": 666,
      "ree": 667,
      "ave": 668,
      "Ġafter": 669,
      "Ġback": 670,
      "Ġthink": 671,
      "Ġdis": 672,
      "ĠShe": 673,
      "Ġcame": 674,
      "Ġey": 675,
      "Ġoff": 676,
      "cl": 677,
      "ment": 678,
      "Ġold": 679,
      "oll": 680,
      "ful": 681,
      "led": 682,
      "Ġad": 683,
      "ount": 684,
      "Ġbefore": 685,
      "ady": 686,
      "old": 687,
      "ran": 688,
      "Ġcome": 689,
      "Ġonly": 690,
      "ward": 691,
      "his": 692,
      "Ġpr": 693,
      "Ġmade": 694,
      "cc": 695,
      "ried": 696,
      "Ġway": 697,
      "Ġhas": 698,
      "Ġlong": 699,
      "iss": 700,
      "ves": 701,
      "Ġour": 702,
      "Ġhow": 703,
      "He": 704,
      "Ġmust": 705,
      "orn": 706,
      "Ġthr": 707,
      "Ġsm": 708,
      "Ġ'": 709,
      "ps": 710,
      "ĊĠĠĠĠ": 711,
      "Ġnever": 712,
      "ness": 713,
      "Ġim": 714,
      "Ġgreat": 715,
      "Ġtwo": 716,
      "Ġlook": 717,
      "rie": 718,
      "?âĢĿ": 719,
      "Ġpo": 720,
      "ft": 721,
      "Ġmuch": 722,
      "Ġthought": 723,
      "Ġget": 724,
      "per": 725,
      "Ġhere": 726,
      "Ġsc": 727,
      "ouse": 728,
      "ty": 729,
      "that": 730,
      "for": 731,
      "Ġgl": 732,
      "ise": 733,
      "ark": 734,
      "ted": 735,
      "irst": 736,
      "ru": 737,
      "Ġwhere": 738,
      "Ġwent": 739,
      "man": 740,
      "âĢĶ": 741,
      "ated": 742,
      "Ġeyes": 743,
      "ret": 744,
      "air": 745,
      "It": 746,
      "Ġwell": 747,
      "Ġapp": 748,
      "Ġrem": 749,
      "ew": 750,
      "ĊĠ": 751,
      "ach": 752,
      "Ġseem": 753,
      "Ġcha": 754,
      "Ġmight": 755,
      "ip": 756,
      "Ġbet": 757,
      "ily": 758,
      "Ġlet": 759,
      "Ġjust": 760,
      "ary": 761,
      "Ġaway": 762,
      "ened": 763,
      "Ġown": 764,
      "Ġdon": 765,
      "ff": 766,
      "And": 767,
      "Ġper": 768,
      "Ġsuch": 769,
      "Ġspe": 770,
      "Ġeven": 771,
      "Ġpe": 772,
      "Ġunder": 773,
      "ath": 774,
      "ber": 775,
      "act": 776,
      "ĠK": 777,
      "Ġsl": 778,
      "Ġhimself": 779,
      "Ġevery": 780,
      "Ġturn": 781,
      "de": 782,
      "Ġtell": 783,
      "Ġmake": 784,
      "Ġmen": 785,
      "Ġfirst": 786,
      "ĠĠĠĠĠĠĠĠĠĠĠĠĠĠĠĠ": 787,
      "omet": 788,
      "ons": 789,
      "Ġhead": 790,
      "ared": 791,
      "less": 792,
      "Ġke": 793,
      "Ġpart": 794,
      "sh": 795,
      "wh": 796,
      "av": 797,
      "ren": 798,
      "Ġbeg": 799,
      "ooked": 800,
      "anc": 801,
      "Ġface": 802,
      "Ġwant": 803,
      "ions": 804,
      "Ġdes": 805,
      "But": 806,
      "not": 807,
      "Ġits": 808,
      "oss": 809,
      "irl": 810,
      "bl": 811,
      "ans": 812,
      "riend": 813,
      "Ġshall": 814,
      "ign": 815,
      "row": 816,
      "Ġbec": 817,
      "Ġmay": 818,
      "Ġthrough": 819,
      "Ġwat": 820,
      "ĊĠĠĠ": 821,
      "Ġtake": 822,
      "Ġyoung": 823,
      "Ġcall": 824,
      "Ġwom": 825,
      "alk": 826,
      "Ġlast": 827,
      "Ġword": 828,
      "oth": 829,
      "ause": 830,
      "Ġpass": 831,
      "Ġright": 832,
      "'ll": 833,
      "thing": 834,
      "ting": 835,
      "Ġlife": 836,
      "leas": 837,
      "Ġbel": 838,
      "ĠYou": 839,
      "ever": 840,
      "me": 841,
      "Ġsaw": 842,
      "was": 843,
      "hes": 844,
      "..": 845,
      "ock": 846,
      "Ġres": 847,
      "ged": 848,
      "Ġgot": 849,
      "!âĢĿ": 850,
      "Ġlooked": 851,
      "li": 852,
      "get": 853,
      "Ġcont": 854,
      "Ġnight": 855,
      "Ġhouse": 856,
      "you": 857,
      "pect": 858,
      "so": 859,
      "Ġput": 860,
      "ail": 861,
      "Ġfriend": 862,
      "pped": 863,
      "oment": 864,
      "igh": 865,
      "Ġasked": 866,
      "ER": 867,
      "ect": 868,
      "Ġlove": 869,
      "Ġheart": 870,
      "hy": 871,
      "ory": 872,
      "Ġthese": 873,
      "Ġop": 874,
      "Ġgirl": 875,
      "with": 876,
      "ars": 877,
      "den": 878,
      "Ġhar": 879,
      "Ġcour": 880,
      "ger": 881,
      "Ġstill": 882,
      "Ġboy": 883,
      "Ġret": 884,
      "aking": 885,
      "ci": 886,
      "ĠV": 887,
      "Ġwhile": 888,
      "Ġpre": 889,
      "Ġdoor": 890,
      "ob": 891,
      "owed": 892,
      "Ġgoing": 893,
      "aid": 894,
      "Ġcomp": 895,
      "ss": 896,
      "aw": 897,
      "rew": 898,
      "Ġfound": 899,
      "ĠMrs": 900,
      "ears": 901,
      "atter": 902,
      "Ġwr": 903,
      "Ġsomet": 904,
      "ered": 905,
      "Ġever": 906,
      "Ġfather": 907,
      "Ġchild": 908,
      "iz": 909,
      "Ġmoment": 910,
      "Ġonce": 911,
      "Ġtook": 912,
      "Ġbo": 913,
      "up": 914,
      "ently": 915,
      "ched": 916,
      "Ġcar": 917,
      "Ġwithout": 918,
      "Ġent": 919,
      "ian": 920,
      "Ġans": 921,
      "Ġknew": 922,
      "Ġimp": 923,
      "Ġtold": 924,
      "Ġmost": 925,
      "ĠThey": 926,
      "Ġleft": 927,
      "aught": 928,
      "Ġroom": 929,
      "Ġthose": 930,
      "Ġlo": 931,
      "ways": 932,
      "int": 933,
      "Ġseemed": 934,
      "Ġarm": 935,
      "arn": 936,
      "ors": 937,
      "Ġplace": 938,
      "ody": 939,
      "ool": 940,
      "ople": 941,
      "but": 942,
      "What": 943,
      "ks": 944,
      "Ġfell": 945,
      "Ġhome": 946,
      "ince": 947,
      "mer": 948,
      "Ġhapp": 949,
      "Ġwa": 950,
      "Ġnothing": 951,
      "Ġnew": 952,
      "Ġmany": 953,
      "Ġheard": 954,
      "Ġser": 955,
      "Ġthough": 956,
      "Ġbeing": 957,
      "Ġfar": 958,
      "She": 959,
      "ia": 960,
      "elt": 961,
      "Ġmar": 962,
      "Ġyet": 963,
      "Ġend": 964,
      "oice": 965,
      "Ġlight": 966,
      "Ġmind": 967,
      "Ġmother": 968,
      "ix": 969,
      "Ġgive": 970,
      "ĠIn": 971,
      "ible": 972,
      "Ġset": 973,
      "Ġfind": 974,
      "Ġpres": 975,
      "gg": 976,
      "Yes": 977,
      "Ġthing": 978,
      "ĠSt": 979,
      "Ġhands": 980,
      "ished": 981,
      "ertain": 982,
      "Ġacc": 983,
      "Ġsw": 984,
      "med": 985,
      "ens": 986,
      "ĠThere": 987,
      "har": 988,
      "Ġwoman": 989,
      "ont": 990,
      "most": 991,
      "Ġatt": 992,
      "Ġte": 993,
      "Ġcons": 994,
      "Ġanother": 995,
      "ner": 996,
      "Ġwork": 997,
      "fect": 998,
      "ully": 999,
      "Ġgu": 1000,
      "Ġac": 1001,
      "Ġpleas": 1002,
      "ĠThen": 1003,
      "ope": 1004,
      "Ġsat": 1005,
      "Ġfeel": 1006,
      "ross": 1007,
      "les": 1008,
      "pr": 1009,
      "iv": 1010,
      "Ġthings": 1011,
      "com": 1012,
      "aut": 1013,
      "Ġsupp": 1014,
      "âĢĺ": 1015,
      "ĊĠĠĠĠĠĠĠĠ": 1016,
      "ained": 1017,
      "ict": 1018,
      "sel": 1019,
      "Ġfoll": 1020,
      "ows": 1021,
      "ised": 1022,
      "Ġalways": 1023,
      "had": 1024,
      "rest": 1025,
      "Ġpeople": 1026,
      "Ġchan": 1027,
      "Ġob": 1028,
      "ling": 1029,
      "xt": 1030,
      "Ġsoon": 1031,
      "Ġwind": 1032,
      "iness": 1033,
      "ĠWe": 1034,
      "ither": 1035,
      "ced": 1036,
      "ition": 1037,
      "ired": 1038,
      "Ġturned": 1039,
      "Ġsomething": 1040,
      "Ġdone": 1041,
      "co": 1042,
      "und": 1043,
      "Ġsame": 1044,
      "Ġenough": 1045,
      "'d": 1046,
      "Ġkind": 1047,
      "Ġcr": 1048,
      "land": 1049,
      "Ġfew": 1050,
      "apt": 1051,
      "That": 1052,
      "----": 1053,
      "Ġreturn": 1054,
      "Ġsec": 1055,
      "Ġbetter": 1056,
      "Ġsil": 1057,
      "no": 1058,
      "Ġhel": 1059,
      "Oh": 1060,
      "Ġside": 1061,
      "az": 1062,
      "oot": 1063,
      "Ġvoice": 1064,
      "ult": 1065,
      "Ġrep": 1066,
      "orning": 1067,
      "oke": 1068,
      "ier": 1069,
      "ase": 1070,
      "Ġfr": 1071,
      "Ġdist": 1072,
      "imes": 1073,
      "No": 1074,
      "ĠMiss": 1075,
      "Ġhard": 1076,
      "ined": 1077,
      "Ġcare": 1078,
      "by": 1079,
      "Ġthree": 1080,
      "Ġfelt": 1081,
      "Ġhalf": 1082,
      "aster": 1083,
      "Ġrest": 1084,
      "Ġseen": 1085,
      "Ġhour": 1086,
      "unt": 1087,
      "Ġsure": 1088,
      "Ġworld": 1089,
      "Ġgi": 1090,
      "ins": 1091,
      "Ġcomm": 1092,
      "Ġsur": 1093,
      "Ġear": 1094,
      "Ġcount": 1095,
      "Ġkeep": 1096,
      "Ġnear": 1097,
      "ower": 1098,
      "Ġ(": 1099,
      "ning": 1100,
      "amp": 1101,
      "Ġstr": 1102,
      "ale": 1103,
      "my": 1104,
      "oud": 1105,
      "._": 1106,
      "Ġquite": 1107,
      "Ġlau": 1108,
      "ott": 1109,
      "'m": 1110,
      "su": 1111,
      "Ġbelie": 1112,
      "Ġinst": 1113,
      "Ġstood": 1114,
      "Ġagainst": 1115,
      "ang": 1116,
      "Ġgave": 1117,
      "app": 1118,
      "br": 1119,
      "ĠCh": 1120,
      "Ġco": 1121,
      "uck": 1122,
      "Ġcried": 1123,
      "Ġem": 1124,
      "now": 1125,
      "Ġbre": 1126,
      "ex": 1127,
      "Ġche": 1128,
      "ited": 1129,
      "rave": 1130,
      "day": 1131,
      "Ġname": 1132,
      "Ġhear": 1133,
      "Ġbegan": 1134,
      "any": 1135,
      "she": 1136,
      "ung": 1137,
      "Ġunt": 1138,
      "There": 1139,
      "vent": 1140,
      "Ġcourse": 1141,
      "Well": 1142,
      "fully": 1143,
      "iet": 1144,
      "him": 1145,
      "Ġstre": 1146,
      "Ġste": 1147,
      "Ġherself": 1148,
      "Ġsir": 1149,
      "We": 1150,
      "Ġcle": 1151,
      "aken": 1152,
      "Ġdear": 1153,
      "ĠIf": 1154,
      "oub": 1155,
      "ener": 1156,
      "der": 1157,
      "Ġmorning": 1158,
      "plied": 1159,
      "Ġmin": 1160,
      "Ġhor": 1161,
      "gether": 1162,
      "ĠWhat": 1163,
      "Ġmo": 1164,
      "Ġtalk": 1165,
      "oney": 1166,
      "haps": 1167,
      "ween": 1168,
      "cept": 1169,
      "its": 1170,
      "Ġhelp": 1171,
      "ĊĠĠĠĠĠĠĠĠĠ": 1172,
      "Ġcur": 1173,
      "Ġtoward": 1174,
      "Ġmean": 1175,
      "ny": 1176,
      "Ġpers": 1177,
      "ĠY": 1178,
      "onder": 1179,
      "'ve": 1180,
      "ĠJo": 1181,
      "Ġwar": 1182,
      "Ġchar": 1183,
      "Ġpoor": 1184,
      "Ġyears": 1185,
      "sp": 1186,
      "Ġdark": 1187,
      "ject": 1188,
      "ib": 1189,
      "Ġdra": 1190,
      "ister": 1191,
      "Ġcalled": 1192,
      "wered": 1193,
      "HA": 1194,
      "iff": 1195,
      "Ġmatter": 1196,
      "Ġtre": 1197,
      "Ġwords": 1198,
      "Ġbus": 1199,
      "Ġposs": 1200,
      "Ġbecause": 1201,
      "ense": 1202,
      "Ġsle": 1203,
      "HE": 1204,
      "att": 1205,
      "entle": 1206,
      "ded": 1207,
      "owing": 1208,
      "Ġconf": 1209,
      "Ġact": 1210,
      "fter": 1211,
      "Ġreplied": 1212,
      "Ġgone": 1213,
      "Ġread": 1214,
      "light": 1215,
      "uth": 1216,
      "Ġopen": 1217,
      "ĠGod": 1218,
      "Ġthou": 1219,
      "Ġuntil": 1220,
      "Ġstand": 1221,
      "Ġswe": 1222,
      "Ġeach": 1223,
      "dden": 1224,
      "Ġalmost": 1225,
      "Ġmyself": 1226,
      "vers": 1227,
      "ĠHis": 1228,
      "ĠTh": 1229,
      "Then": 1230,
      "Ġbest": 1231,
      "Ġdays": 1232,
      "osed": 1233,
      "ater": 1234,
      "Ġel": 1235,
      "ĠU": 1236,
      "Ġround": 1237,
      "Ġanything": 1238,
      "stand": 1239,
      "Ġwhom": 1240,
      "gr": 1241,
      "ute": 1242,
      "ations": 1243,
      "Ġwhite": 1244,
      "Ġplay": 1245,
      "Ġdr": 1246,
      "ph": 1247,
      "Ġwater": 1248,
      "Ġboth": 1249,
      "Ġbro": 1250,
      "Ġter": 1251,
      "aim": 1252,
      "Ġnext": 1253,
      "aint": 1254,
      "Ġstran": 1255,
      "Ġsk": 1256,
      "side": 1257,
      "Ġint": 1258,
      "Ġsudden": 1259,
      "cle": 1260,
      "con": 1261,
      "Ġanswered": 1262,
      "Ġneed": 1263,
      "ating": 1264,
      "Ġstart": 1265,
      "Ġsent": 1266,
      "ĠThat": 1267,
      "Ġrel": 1268,
      "used": 1269,
      "Ġwife": 1270,
      "ank": 1271,
      "fort": 1272,
      "ason": 1273,
      "tend": 1274,
      "ey": 1275,
      "oor": 1276,
      "Ġrun": 1277,
      "imp": 1278,
      "cess": 1279,
      "Ġnor": 1280,
      "Ġdoes": 1281,
      "ton": 1282,
      "Ġalong": 1283,
      "ash": 1284,
      "Ġexp": 1285,
      ",--": 1286,
      "ief": 1287,
      "Ġcertain": 1288,
      "In": 1289,
      "hind": 1290,
      "ĠMar": 1291,
      "Ġreg": 1292,
      "ken": 1293,
      "TER": 1294,
      ".'": 1295,
      "ub": 1296,
      "Ġaw": 1297,
      "Ġbrought": 1298,
      "Mr": 1299,
      "Ġlady": 1300,
      "They": 1301,
      "Ġbeaut": 1302,
      "Ġbetween": 1303,
      "Ġnat": 1304,
      "ĠAs": 1305,
      "Ġ1": 1306,
      "Ġlay": 1307,
      "Ġspeak": 1308,
      "ĊĊĠ": 1309,
      "king": 1310,
      "Ġ*": 1311,
      "Ġdre": 1312,
      "Ġbed": 1313,
      "ual": 1314,
      "ial": 1315,
      "Ġfull": 1316,
      "ield": 1317,
      "body": 1318,
      "ĠĠĠĠĠĠ": 1319,
      "selves": 1320,
      "aptain": 1321,
      "Ġpur": 1322,
      "ene": 1323,
      "ĠWhen": 1324,
      "ĠBr": 1325,
      "iting": 1326,
      "IN": 1327,
      "ĠSo": 1328,
      "Ġrather": 1329,
      "ately": 1330,
      "ressed": 1331,
      "ery": 1332,
      "Ġsince": 1333,
      "Ġdidn": 1334,
      "og": 1335,
      "bed": 1336,
      "Ġsun": 1337,
      "Ġfire": 1338,
      "Ġhope": 1339,
      "Ġsmall": 1340,
      "men": 1341,
      "ached": 1342,
      "ured": 1343,
      "Ġass": 1344,
      "ĠAn": 1345,
      "Ġtill": 1346,
      "wer": 1347,
      "what": 1348,
      "night": 1349,
      "Ġgentle": 1350,
      "Ġmon": 1351,
      "ures": 1352,
      "Ġmoney": 1353,
      "Ġair": 1354,
      "ces": 1355,
      "Ġvis": 1356,
      "Ġfam": 1357,
      "Ġfeet": 1358,
      "Ġhaving": 1359,
      "oun": 1360,
      "Ġwhole": 1361,
      "ction": 1362,
      "ĠThis": 1363,
      "ee": 1364,
      "ern": 1365,
      "oul": 1366,
      "Ġletter": 1367,
      "hn": 1368,
      "Ġbu": 1369,
      "Ġlooking": 1370,
      "Ġsays": 1371,
      "AN": 1372,
      "ching": 1373,
      "rying": 1374,
      "Ġfore": 1375,
      "Ġref": 1376,
      "Ġsub": 1377,
      "Ġalso": 1378,
      "Ġind": 1379,
      "ĠFor": 1380,
      "Ġinter": 1381,
      "Ġocc": 1382,
      "Ġquest": 1383,
      "Ġleave": 1384,
      "Ġhum": 1385,
      "Ġsound": 1386,
      "ĠAt": 1387,
      "Ġhigh": 1388,
      "terest": 1389,
      "outh": 1390,
      "ents": 1391,
      "Ġwonder": 1392,
      "ical": 1393,
      "ets": 1394,
      "Ġfall": 1395,
      "iled": 1396,
      "Ġhold": 1397,
      "Ġthy": 1398,
      "fl": 1399,
      "ĠHer": 1400,
      "orrow": 1401,
      "aring": 1402,
      "ird": 1403,
      "Ġbelieve": 1404,
      "Ġhur": 1405,
      "Ġtaken": 1406,
      "over": 1407,
      "Ġaround": 1408,
      "alked": 1409,
      "If": 1410,
      "Ġbig": 1411,
      "Ġwhy": 1412,
      "Ġhon": 1413,
      "ular": 1414,
      "cei": 1415,
      "Ġbehind": 1416,
      "ho": 1417,
      "Ġtogether": 1418,
      "which": 1419,
      "Ġpassed": 1420,
      "ison": 1421,
      "Ġquick": 1422,
      "oubt": 1423,
      "Ġalone": 1424,
      "aughter": 1425,
      ",'": 1426,
      "Ġamong": 1427,
      "EN": 1428,
      "rent": 1429,
      "part": 1430,
      "Ġdead": 1431,
      "Ġmet": 1432,
      "Ġland": 1433,
      "have": 1434,
      "Ġblack": 1435,
      "Ġremem": 1436,
      "illed": 1437,
      "uc": 1438,
      "Ġdeep": 1439,
      "Ġless": 1440,
      "Ġprom": 1441,
      "ably": 1442,
      "Ġran": 1443,
      "Ġdeath": 1444,
      "AR": 1445,
      "ĊĠĠ": 1446,
      "iver": 1447,
      "iffe": 1448,
      "Ġreal": 1449,
      "ser": 1450,
      "head": 1451,
      "Ġfair": 1452,
      "Ġwon": 1453,
      "ĠAr": 1454,
      "Ġfin": 1455,
      "tered": 1456,
      "they": 1457,
      "Ġev": 1458,
      "band": 1459,
      "iously": 1460,
      "ying": 1461,
      "room": 1462,
      "ctor": 1463,
      "'re": 1464,
      "Ġcoming": 1465,
      "claim": 1466,
      "Ġclose": 1467,
      "Ġinde": 1468,
      "let": 1469,
      "Why": 1470,
      "Ġdro": 1471,
      "eter": 1472,
      "Ġthee": 1473,
      "Ġbrother": 1474,
      "ering": 1475,
      "ped": 1476,
      "ON": 1477,
      "Ġgre": 1478,
      "ready": 1479,
      "Ġfear": 1480,
      "Ġadv": 1481,
      "Ġdisc": 1482,
      "Ġexc": 1483,
      "ided": 1484,
      "aced": 1485,
      "oc": 1486,
      "rist": 1487,
      "like": 1488,
      "iful": 1489,
      "ug": 1490,
      "where": 1491,
      "Ġwish": 1492,
      "ah": 1493,
      "When": 1494,
      "Ġwhe": 1495,
      "ten": 1496,
      "ote": 1497,
      "als": 1498,
      "ains": 1499,
      "Ġlar": 1500,
      "ĠTo": 1501,
      "Ġhus": 1502,
      "aven": 1503,
      "ention": 1504,
      "ĠAl": 1505,
      "Ġmeet": 1506,
      "Ġuse": 1507,
      "uring": 1508,
      "well": 1509,
      "Ġserv": 1510,
      "As": 1511,
      "ued": 1512,
      "Ġfact": 1513,
      "there": 1514,
      "Ġfur": 1515,
      "HAP": 1516,
      "uff": 1517,
      "ĊĊĠĠĠĠ": 1518,
      "Ġbit": 1519,
      "ek": 1520,
      "ĠNo": 1521,
      "eared": 1522,
      "would": 1523,
      "Ġson": 1524,
      "ĠSir": 1525,
      "HAPTER": 1526,
      "wor": 1527,
      "Ġcountry": 1528,
      "ĊĠĠĠĠĠ": 1529,
      "Ġlist": 1530,
      "ĠâĢĺ": 1531,
      "Ġchildren": 1532,
      "Ġes": 1533,
      "Ġdec": 1534,
      "How": 1535,
      "ĠEng": 1536,
      "My": 1537,
      "akes": 1538,
      "Ġshort": 1539,
      "Ġheld": 1540,
      "retty": 1541,
      "Ġwhose": 1542,
      "Ġdoubt": 1543,
      "Ġhorse": 1544,
      "Ġask": 1545,
      "Ġred": 1546,
      "This": 1547,
      "Ġcontin": 1548,
      "So": 1549,
      "ĠJohn": 1550,
      "ĠHow": 1551,
      "ane": 1552,
      "ides": 1553,
      "Ġinterest": 1554,
      "Ġlad": 1555,
      "Ġbur": 1556,
      "overed": 1557,
      "aces": 1558,
      "ĠBe": 1559,
      "Ġpresent": 1560,
      "Ġadm": 1561,
      "Ġrec": 1562,
      "ley": 1563,
      "ates": 1564,
      "ude": 1565,
      "Ġsort": 1566,
      "Ġtrue": 1567,
      "enty": 1568,
      "ouble": 1569,
      "Ġreally": 1570,
      "Ġsleep": 1571,
      "Ġgiven": 1572,
      "ĠKing": 1573,
      "ift": 1574,
      "empt": 1575,
      "Ġbes": 1576,
      "Ġelse": 1577,
      "Ġfour": 1578,
      "II": 1579,
      "Ġothers": 1580,
      "Ġperson": 1581,
      "Ġsight": 1582,
      "undred": 1583,
      "Ġquiet": 1584,
      "ught": 1585,
      "Ġstay": 1586,
      "ati": 1587,
      "Ġfa": 1588,
      "ĠQ": 1589,
      "Ġspoke": 1590,
      "OR": 1591,
      "To": 1592,
      "Ġfriends": 1593,
      "Ġeas": 1594,
      "Ġbring": 1595,
      "ingly": 1596,
      "Ġlive": 1597,
      "ms": 1598,
      "Ġglad": 1599,
      "Ġ[": 1600,
      "Ġcannot": 1601,
      "claimed": 1602,
      "Ġstrong": 1603,
      "eth": 1604,
      "were": 1605,
      "ush": 1606,
      "mon": 1607,
      "Ġtri": 1608,
      "Ġide": 1609,
      "Ġunderstand": 1610,
      "from": 1611,
      "Ġarms": 1612,
      "use": 1613,
      "ident": 1614,
      "ĊĊĠĠĠĠĠĠĠĠĠĠĠĠĠĠĠĠ": 1615,
      "Ġsign": 1616,
      "Ġacross": 1617,
      "though": 1618,
      "Ġbad": 1619,
      "ats": 1620,
      "ple": 1621,
      "Ġlost": 1622,
      "atch": 1623,
      "ceed": 1624,
      "Ġsing": 1625,
      "sc": 1626,
      "how": 1627,
      "ĠNow": 1628,
      "ship": 1629,
      "Ġdire": 1630,
      "Ġexpl": 1631,
      "Ġindeed": 1632,
      "ring": 1633,
      "Ġexpect": 1634,
      "--\"": 1635,
      "Ġtable": 1636,
      "Ġart": 1637,
      "Ġhowever": 1638,
      "Ġwood": 1639,
      "Ġhusband": 1640,
      "Ġanswer": 1641,
      "ĠOn": 1642,
      "Ġkept": 1643,
      "ceived": 1644,
      "Ġstru": 1645,
      "come": 1646,
      "Ġsto": 1647,
      "vel": 1648,
      "Ġpap": 1649,
      "Ġreturned": 1650,
      "ants": 1651,
      "Ġcol": 1652,
      "Ġstrange": 1653,
      "ized": 1654,
      "Now": 1655,
      "ney": 1656,
      "Ġtown": 1657,
      "Ġleast": 1658,
      "ĠDon": 1659,
      "Ġground": 1660,
      "Ġevening": 1661,
      "Ġfoot": 1662,
      "ĠCl": 1663,
      "Ġye": 1664,
      "Ġmis": 1665,
      "this": 1666,
      "airs": 1667,
      "Ġready": 1668,
      "Ġlow": 1669,
      "do": 1670,
      "Ġquestion": 1671,
      "Ġwalk": 1672,
      "CHAPTER": 1673,
      "ments": 1674,
      "Ġstep": 1675,
      "Ġroad": 1676,
      "Ġsoul": 1677,
      "Ġlaugh": 1678,
      "son": 1679,
      "ĠâĢĻ": 1680,
      "itting": 1681,
      "Ġmist": 1682,
      "Ġfellow": 1683,
      "Ġlarge": 1684,
      "ghed": 1685,
      "Ġboys": 1686,
      "Ġslow": 1687,
      "Ġsea": 1688,
      "Ġreason": 1689,
      "Ġsuddenly": 1690,
      "Ġgener": 1691,
      "Ġbusiness": 1692,
      "ards": 1693,
      "Ġused": 1694,
      "ES": 1695,
      "Ġperhaps": 1696,
      "ham": 1697,
      "_,": 1698,
      "them": 1699,
      "une": 1700,
      "ches": 1701,
      "Ġrose": 1702,
      "ĠMy": 1703,
      "Ġbook": 1704,
      "rank": 1705,
      "Ġill": 1706,
      "Ġcold": 1707,
      "Ġinv": 1708,
      "ster": 1709,
      "ĠAll": 1710,
      "ĠGr": 1711,
      "Ġpretty": 1712,
      "Ġbreat": 1713,
      "ĠPr": 1714,
      "Ġlearn": 1715,
      "ually": 1716,
      "Ġexclaimed": 1717,
      "Ġhair": 1718,
      "Ġalready": 1719,
      "ĠLord": 1720,
      "ead": 1721,
      "Ġra": 1722,
      "For": 1723,
      "At": 1724,
      "Ġknown": 1725,
      "Th": 1726,
      "Ġtimes": 1727,
      "ider": 1728,
      "Ġgold": 1729,
      "Ġhundred": 1730,
      "Ġwomen": 1731,
      "Ġsoft": 1732,
      "Ġins": 1733,
      "Ġdev": 1734,
      "Ġforg": 1735,
      "Ġstory": 1736,
      "raid": 1737,
      "ines": 1738,
      "Ġpoint": 1739,
      "ls": 1740,
      "Ġabove": 1741,
      "Ġprop": 1742,
      "Ġdri": 1743,
      "Ġfollowed": 1744,
      "Ġpri": 1745,
      "Ġsurpr": 1746,
      "Ġsweet": 1747,
      "Ġshow": 1748,
      "pro": 1749,
      "Ġpast": 1750,
      "Ġtra": 1751,
      "Ġbar": 1752,
      "cy": 1753,
      "Ġoften": 1754,
      "Ġstra": 1755,
      "Ġeye": 1756,
      "Ġten": 1757,
      "ĠDo": 1758,
      "ump": 1759,
      "US": 1760,
      "eng": 1761,
      "ushed": 1762,
      "ĠInd": 1763,
      "Ġsecond": 1764,
      "Ġhast": 1765,
      "Ġwithin": 1766,
      "Ġwanted": 1767,
      "Ġwall": 1768,
      "Ġmaster": 1769,
      "Ġsn": 1770,
      "Ġtou": 1771,
      "tr": 1772,
      "Ġspir": 1773,
      "lish": 1774,
      "Ġopp": 1775,
      "Ġcut": 1776,
      "osition": 1777,
      "Ġpower": 1778,
      "Ġsuppose": 1779,
      "Ġwindow": 1780,
      "iles": 1781,
      "ousand": 1782,
      "chool": 1783,
      "Ġthemselves": 1784,
      "Not": 1785,
      "go": 1786,
      "antly": 1787,
      "Ġsum": 1788,
      "bo": 1789,
      "Ġbreak": 1790,
      "Ġclear": 1791,
      "ĠTom": 1792,
      "Ġmaking": 1793,
      "under": 1794,
      "cho": 1795,
      "Ġsister": 1796,
      "Ġmine": 1797,
      "ĠHar": 1798,
      "read": 1799,
      "iew": 1800,
      "ec": 1801,
      "cted": 1802,
      "Ġlea": 1803,
      "Ġlaughed": 1804,
      "utes": 1805,
      "ement": 1806,
      "Ġblood": 1807,
      "hand": 1808,
      "Ġyear": 1809,
      "Ġcase": 1810,
      "Ġpol": 1811,
      "Ġmer": 1812,
      "Ġheav": 1813,
      "dle": 1814,
      "Ġdog": 1815,
      "form": 1816,
      "Ġfort": 1817,
      "Ġcond": 1818,
      "mb": 1819,
      "Ġwild": 1820,
      "will": 1821,
      "Ġadded": 1822,
      "Ġmount": 1823,
      "Do": 1824,
      "Ġsqu": 1825,
      "isf": 1826,
      "Ġabs": 1827,
      "Ġwhis": 1828,
      "io": 1829,
      "ĠIs": 1830,
      "Ġmid": 1831,
      "Ġaff": 1832,
      "ony": 1833,
      "Ġbeautiful": 1834,
      "Ġmur": 1835,
      "who": 1836,
      "anger": 1837,
      "Ġorder": 1838,
      "Ġhappy": 1839,
      "ald": 1840,
      "Ġdel": 1841,
      "Ġbody": 1842,
      "itted": 1843,
      "Ġforward": 1844,
      "Ġtruth": 1845,
      "Ġinc": 1846,
      "Ġsuff": 1847,
      "Ġdream": 1848,
      "Ġlead": 1849,
      "Ġreached": 1850,
      "Ġdiffe": 1851,
      "Ġpain": 1852,
      "Ġable": 1853,
      "bit": 1854,
      "when": 1855,
      "Ġking": 1856,
      "str": 1857,
      "Ġtowards": 1858,
      "ĠChrist": 1859,
      "ising": 1860,
      "Ġsit": 1861,
      "ters": 1862,
      "Ġfront": 1863,
      "rence": 1864,
      "ĠJack": 1865,
      "lled": 1866,
      "ĠTHE": 1867,
      "Ġremember": 1868,
      "Ġfool": 1869,
      "chan": 1870,
      "Ġsad": 1871,
      "ames": 1872,
      "irt": 1873,
      "Ġthus": 1874,
      "Ġdin": 1875,
      "ĠWill": 1876,
      "Ġmad": 1877,
      "Ġlips": 1878,
      "Ġtried": 1879,
      "Ġhot": 1880,
      "Ġfine": 1881,
      "aged": 1882,
      "ned": 1883,
      "ific": 1884,
      "dis": 1885,
      "inted": 1886,
      "Ġsmile": 1887,
      "hil": 1888,
      "Ġdaughter": 1889,
      "umb": 1890,
      "Ã©": 1891,
      "ager": 1892,
      "Ġpray": 1893,
      "Ġhat": 1894,
      "ening": 1895,
      "Ġpay": 1896,
      "Ġtry": 1897,
      "Ġopened": 1898,
      "ĠX": 1899,
      "ities": 1900,
      "ots": 1901,
      "ages": 1902,
      "ĠUn": 1903,
      "ĊĊĠĠĠ": 1904,
      "off": 1905,
      "could": 1906,
      "Ġearth": 1907,
      "Ġsix": 1908,
      "Ġpar": 1909,
      "Ġought": 1910,
      "Ġbecame": 1911,
      "Ġeverything": 1912,
      "ances": 1913,
      "Ġfamily": 1914,
      "ĠWith": 1915,
      "uss": 1916,
      "Ġed": 1917,
      "ustr": 1918,
      "Ġchair": 1919,
      "Ġoffic": 1920,
      "Ġafraid": 1921,
      "Ġappro": 1922,
      "Ġarri": 1923,
      "Ġadd": 1924,
      "Ġfig": 1925,
      "their": 1926,
      "ĠBl": 1927,
      "Ġwalked": 1928,
      "Ġthousand": 1929,
      "Ġmanner": 1930,
      "Ġidea": 1931,
      "ĠWhy": 1932,
      "Ġfast": 1933,
      "cious": 1934,
      "Ġext": 1935,
      "ĊĠĠĠĠĠĠĠ": 1936,
      "some": 1937,
      "Ġworth": 1938,
      "Ġmus": 1939,
      "Ġmeans": 1940,
      "Ġdrew": 1941,
      "Ġcorn": 1942,
      "Ġut": 1943,
      "veral": 1944,
      "Ġlord": 1945,
      "Ġcontinued": 1946,
      "Ġpu": 1947,
      "look": 1948,
      "house": 1949,
      "Ġbright": 1950,
      "Ġyourself": 1951,
      "Ġfive": 1952,
      "Ġfight": 1953,
      "Ġdraw": 1954,
      "ression": 1955,
      "Ġsaying": 1956,
      "ipp": 1957,
      "resh": 1958,
      "Ġcir": 1959,
      "icked": 1960,
      "Ġlonger": 1961,
      "ously": 1962,
      "Ġsold": 1963,
      "ax": 1964,
      "dy": 1965,
      "gn": 1966,
      "Ġwhether": 1967,
      "Ġcross": 1968,
      "riage": 1969,
      "urch": 1970,
      "Ġesc": 1971,
      "Ġdoing": 1972,
      "Ġbegin": 1973,
      "ask": 1974,
      "Ġtaking": 1975,
      "Ġsend": 1976,
      "Ġho": 1977,
      "aj": 1978,
      "Ġchance": 1979,
      "Ġsecret": 1980,
      "Ġeither": 1981,
      "Ġmonth": 1982,
      "Ġcal": 1983,
      "Ġir": 1984,
      "ging": 1985,
      "Ġled": 1986,
      "iling": 1987,
      "Ġcaught": 1988,
      "rem": 1989,
      "oof": 1990,
      "Ġfree": 1991,
      "Ġcor": 1992,
      "Ġeng": 1993,
      "Ġpossible": 1994,
      "gl": 1995,
      "Ġcomes": 1996,
      "Ġdeal": 1997,
      "Ġyes": 1998,
      "mand": 1999,
      "Ġboat": 2000,
      "Ġwin": 2001,
      ".âĢĻ": 2002,
      "otion": 2003,
      "Ġvill": 2004,
      "On": 2005,
      "peri": 2006,
      "Ġperfect": 2007,
      "illy": 2008,
      "Ġlaw": 2009,
      "Ġsilence": 2010,
      "che": 2011,
      "Ġappear": 2012,
      "ffect": 2013,
      "iece": 2014,
      "Ġanx": 2015,
      "ians": 2016,
      "Ġhours": 2017,
      "Ġgentleman": 2018,
      "Ġca": 2019,
      "Ġjoy": 2020,
      "Ġlater": 2021,
      "Ġform": 2022,
      "arent": 2023,
      "Ġtrouble": 2024,
      "attle": 2025,
      "Ġfeeling": 2026,
      "alth": 2027,
      "All": 2028,
      "Ġslowly": 2029,
      "ounded": 2030,
      "noon": 2031,
      "orm": 2032,
      "ĠDe": 2033,
      "Ġmove": 2034,
      "ze": 2035,
      "ones": 2036,
      "els": 2037,
      "owers": 2038,
      "Ġminutes": 2039,
      "ilt": 2040,
      "Ġcast": 2041,
      "Ġstarted": 2042,
      "wo": 2043,
      "Ġlate": 2044,
      "Ġappeared": 2045,
      "more": 2046,
      "rel": 2047,
      "rupt": 2048,
      "your": 2049,
      "LE": 2050,
      "Ġhappened": 2051,
      "umber": 2052,
      "rench": 2053,
      "IS": 2054,
      "Ġvisit": 2055,
      "ancy": 2056,
      "gu": 2057,
      "ĠLady": 2058,
      "ma": 2059,
      "ĠOne": 2060,
      "anced": 2061,
      "du": 2062,
      "par": 2063,
      "ggest": 2064,
      "Ġstopped": 2065,
      "gin": 2066,
      "ety": 2067,
      "Ġele": 2068,
      "Ġwrong": 2069,
      "iffic": 2070,
      "Ġscar": 2071,
      "idence": 2072,
      "Ġobser": 2073,
      "Ġcomfort": 2074,
      "eks": 2075,
      "ĠWh": 2076,
      "Ġsimp": 2077,
      "_.": 2078,
      "Is": 2079,
      "Don": 2080,
      "reed": 2081,
      "cons": 2082,
      "Ġwait": 2083,
      "Ġgirls": 2084,
      "Ġrid": 2085,
      "Ġcrow": 2086,
      "Ġbear": 2087,
      "Ġmouth": 2088,
      "ĠOh": 2089,
      "about": 2090,
      "Ġseveral": 2091,
      "Ġschool": 2092,
      "Ġcap": 2093,
      "Ġdanger": 2094,
      "Ġhill": 2095,
      "Ġship": 2096,
      "mp": 2097,
      "Ġce": 2098,
      "nded": 2099,
      "Ġjo": 2100,
      "essed": 2101,
      "can": 2102,
      "Ġdecl": 2103,
      "ror": 2104,
      "Ġshar": 2105,
      "amed": 2106,
      "Ġgaz": 2107,
      "olly": 2108,
      "said": 2109,
      "hall": 2110,
      "little": 2111,
      "ĠCar": 2112,
      "ility": 2113,
      "Ġprof": 2114,
      "ĠMad": 2115,
      "been": 2116,
      "Ġdress": 2117,
      "ĠCaptain": 2118,
      "ices": 2119,
      "arden": 2120,
      "Ġwouldn": 2121,
      "Ġblue": 2122,
      "Ġrock": 2123,
      "Ġforth": 2124,
      "yond": 2125,
      "iam": 2126,
      "ession": 2127,
      "ively": 2128,
      "cri": 2129,
      "Ġcarried": 2130,
      "...": 2131,
      "Ġgrand": 2132,
      "Ġentered": 2133,
      "Ġbecome": 2134,
      "Ġthinking": 2135,
      "Ġago": 2136,
      "Ġstud": 2137,
      "ĠEnglish": 2138,
      "With": 2139,
      "ination": 2140,
      "Ġfav": 2141,
      "Ġstri": 2142,
      "Ġleg": 2143,
      "Ġquickly": 2144,
      "joy": 2145,
      "Ġdelight": 2146,
      "Ġnone": 2147,
      "Ġsy": 2148,
      "ĊĊĠĠ": 2149,
      "val": 2150,
      "Ġcry": 2151,
      "asion": 2152,
      "Ġcommand": 2153,
      "rible": 2154,
      "Ġstraight": 2155,
      "St": 2156,
      "AL": 2157,
      "Ġloved": 2158,
      "Ġmeant": 2159,
      "Ġsatisf": 2160,
      "Ġeat": 2161,
      "ĠSp": 2162,
      "Ġve": 2163,
      "ĠLe": 2164,
      "Ġitself": 2165,
      "oe": 2166,
      "Ġline": 2167,
      "Ġfing": 2168,
      "Ġdet": 2169,
      "Ġcity": 2170,
      "Ġcompan": 2171,
      "Ġdisapp": 2172,
      "Ġwatch": 2173,
      "Ġsense": 2174,
      "Ġtears": 2175,
      "Ġlaid": 2176,
      "fered": 2177,
      "pre": 2178,
      "Ġbreath": 2179,
      "Ġriver": 2180,
      "Ġexcept": 2181,
      "Ġmiss": 2182,
      "right": 2183,
      "Ġpull": 2184,
      "bling": 2185,
      "ape": 2186,
      "Ġreco": 2187,
      "itude": 2188,
      "Ġweek": 2189,
      "ĠRe": 2190,
      "Ġheavy": 2191,
      "Ġquar": 2192,
      "ming": 2193,
      "pose": 2194,
      "Ġain": 2195,
      "na": 2196,
      "sm": 2197,
      "tended": 2198,
      "Ġduring": 2199,
      "oose": 2200,
      "cha": 2201,
      "aded": 2202,
      "orses": 2203,
      "orry": 2204,
      "Ġstanding": 2205,
      "iar": 2206,
      "Ġcouldn": 2207,
      "Ġwit": 2208,
      "Ġgetting": 2209,
      "Ġinqu": 2210,
      "cour": 2211,
      "Ġsave": 2212,
      "isted": 2213,
      "ray": 2214,
      "ĠNor": 2215,
      "eor": 2216,
      "morrow": 2217,
      "Ġseems": 2218,
      "after": 2219,
      "inc": 2220,
      "Ġsharp": 2221,
      "cely": 2222,
      "ler": 2223,
      "ĠChar": 2224,
      "Ġdut": 2225,
      "Ġparty": 2226,
      "ĠNot": 2227,
      "Ġrepe": 2228,
      "Ġknows": 2229,
      "cul": 2230,
      "Ġshout": 2231,
      "unk": 2232,
      "time": 2233,
      "Ġsafe": 2234,
      "Ġfail": 2235,
      "Ġspirit": 2236,
      "Ġbeside": 2237,
      "Ġpict": 2238,
      "Ġmere": 2239,
      "rid": 2240,
      "ĠMary": 2241,
      "ĠPer": 2242,
      "Ġgrew": 2243,
      "Ġ.": 2244,
      "ĠJim": 2245,
      "Ġcamp": 2246,
      "medi": 2247,
      "Ġlived": 2248,
      "Ġkiss": 2249,
      "irm": 2250,
      "Ġspo": 2251,
      "set": 2252,
      "Ġsuggest": 2253,
      "Ġdoctor": 2254,
      "llustr": 2255,
      "erv": 2256,
      "Mrs": 2257,
      "ically": 2258,
      "Ġisn": 2259,
      "ĠWell": 2260,
      "Ġtop": 2261,
      "Ġdie": 2262,
      "Ġhung": 2263,
      "Ġbeyond": 2264,
      "ified": 2265,
      "Ġenem": 2266,
      "OL": 2267,
      "ĠBy": 2268,
      "ode": 2269,
      "while": 2270,
      "Ġnature": 2271,
      "Ġplain": 2272,
      "spect": 2273,
      "ĠQu": 2274,
      "ĠNew": 2275,
      "ize": 2276,
      ",âĢĻ": 2277,
      "ĠEd": 2278,
      "rief": 2279,
      "Ġsett": 2280,
      "then": 2281,
      "athe": 2282,
      "Ġtwenty": 2283,
      "Ġcoll": 2284,
      "ented": 2285,
      "Ġjud": 2286,
      "Ġdiffic": 2287,
      "bar": 2288,
      "ining": 2289,
      "Ġgrave": 2290,
      "._]": 2291,
      "Ġwaiting": 2292,
      "pered": 2293,
      "wards": 2294,
      "Ġobject": 2295,
      "ric": 2296,
      "eal": 2297,
      "Ġsmiled": 2298,
      "fast": 2299,
      "into": 2300,
      "Ġnecess": 2301,
      "Ġtrust": 2302,
      "Ġstruck": 2303,
      "tern": 2304,
      "Ġhuman": 2305,
      "Ġconc": 2306,
      "Ġprot": 2307,
      "Be": 2308,
      "Illustr": 2309,
      "Ġtree": 2310,
      "Ġdifferent": 2311,
      "Ġafternoon": 2312,
      "Ġtone": 2313,
      "ighb": 2314,
      "ury": 2315,
      "Ġcourt": 2316,
      "Ġfaith": 2317,
      "Ġheaven": 2318,
      "Ġfloor": 2319,
      "Ġdinner": 2320,
      "ient": 2321,
      "Of": 2322,
      "Ġself": 2323,
      "Ġaccount": 2324,
      "Ġforget": 2325,
      "Ġslight": 2326,
      "Ġshad": 2327,
      "Illustration": 2328,
      "Ġrespect": 2329,
      "Ġang": 2330,
      "An": 2331,
      "Ġclot": 2332,
      "hard": 2333,
      "Ġyouth": 2334,
      "Ġdesp": 2335,
      "hel": 2336,
      "Ġrequ": 2337,
      "Ġimag": 2338,
      "Ġreceived": 2339,
      "Ġwarm": 2340,
      "Ġview": 2341,
      "aining": 2342,
      "Ġshook": 2343,
      "Ġtem": 2344,
      "Ġpeace": 2345,
      "Ġtor": 2346,
      "hood": 2347,
      "onel": 2348,
      "Ġhop": 2349,
      "Ġcompany": 2350,
      "Ġgun": 2351,
      "just": 2352,
      "rance": 2353,
      "ural": 2354,
      "Ġfurther": 2355,
      "....": 2356,
      "ett": 2357,
      "Ġchange": 2358,
      "Ġsubject": 2359,
      "Ġsitting": 2360,
      "ĠOf": 2361,
      "Ġplease": 2362,
      "ike": 2363,
      "Ġnearly": 2364,
      "kn": 2365,
      "hold": 2366,
      "TH": 2367,
      "rough": 2368,
      "Ġbene": 2369,
      "oom": 2370,
      "again": 2371,
      "Ġearly": 2372,
      "Ġda": 2373,
      "should": 2374,
      "iced": 2375,
      "Ġstreet": 2376,
      "Ġmoved": 2377,
      "Ġ2": 2378,
      "?'": 2379,
      "Ġconsider": 2380,
      "oes": 2381,
      "ased": 2382,
      "ĠBar": 2383,
      "ours": 2384,
      "ĠGer": 2385,
      "meric": 2386,
      "Ġtrees": 2387,
      "bert": 2388,
      "ifted": 2389,
      "kes": 2390,
      "oved": 2391,
      "Ġfun": 2392,
      "Ġsucc": 2393,
      "Ġprison": 2394,
      "Ġpleasure": 2395,
      "long": 2396,
      "Ġaffect": 2397,
      "Ġbroke": 2398,
      "Ġburn": 2399,
      "ength": 2400,
      "aul": 2401,
      "ĠFrench": 2402,
      "iment": 2403,
      "Ġcomple": 2404,
      "ossible": 2405,
      "Ġeff": 2406,
      "Ġeager": 2407,
      "THE": 2408,
      "Ġcre": 2409,
      "Ġsometimes": 2410,
      "Ġpen": 2411,
      "Ġmem": 2412,
      "stood": 2413,
      "icular": 2414,
      "happ": 2415,
      "Ġpal": 2416,
      "Ġann": 2417,
      "ina": 2418,
      "Ġhorses": 2419,
      "Ġdisp": 2420,
      "Ġfield": 2421,
      "cum": 2422,
      "Ġdoll": 2423,
      "Wh": 2424,
      "Ġsal": 2425,
      "Ġdef": 2426,
      "Ġhardly": 2427,
      "Ġlie": 2428,
      "Ġgreen": 2429,
      "Ġbroken": 2430,
      "inct": 2431,
      "Ġcertainly": 2432,
      "Ġcaptain": 2433,
      "ored": 2434,
      "Ġcause": 2435,
      "Ġpaper": 2436,
      "Ġcab": 2437,
      "Ġminute": 2438,
      "ING": 2439,
      "ĠĠĠĠĠĠĠĠĠĠĠĠ": 2440,
      "Ġaccom": 2441,
      "ius": 2442,
      "ĠSc": 2443,
      "His": 2444,
      "upon": 2445,
      "ustom": 2446,
      "Ġinf": 2447,
      "Ġcra": 2448,
      "oured": 2449,
      "ding": 2450,
      "ative": 2451,
      "Ġord": 2452,
      "ĠPar": 2453,
      "zz": 2454,
      "Ġsilent": 2455,
      "Ġstop": 2456,
      "uke": 2457,
      "Ġmaid": 2458,
      "Ah": 2459,
      "heart": 2460,
      "Ġsorry": 2461,
      "Ġbird": 2462,
      "ĠDick": 2463,
      "Ġdrink": 2464,
      "itten": 2465,
      "down": 2466,
      "Ġeasy": 2467,
      "ips": 2468,
      "ĠFl": 2469,
      "acter": 2470,
      "ges": 2471,
      "Ġregard": 2472,
      "ounds": 2473,
      "oman": 2474,
      "Ġtrave": 2475,
      "before": 2476,
      "father": 2477,
      "spe": 2478,
      "Ġplan": 2479,
      "Ġtrying": 2480,
      "ĠCol": 2481,
      "Ġthoughts": 2482,
      "Ġeffect": 2483,
      "Ġshowed": 2484,
      "Ġfigure": 2485,
      "ĠLet": 2486,
      "ipped": 2487,
      "Ġcreat": 2488,
      "Ġnews": 2489,
      "Ġdied": 2490,
      "Ġpock": 2491,
      "Come": 2492,
      "pping": 2493,
      "Ġhid": 2494,
      "--------": 2495,
      "Ġseeing": 2496,
      "ean": 2497,
      "arch": 2498,
      "cont": 2499,
      "bel": 2500,
      "Ġdemand": 2501,
      "Ġdep": 2502,
      "Ġrich": 2503,
      "back": 2504,
      "ashion": 2505,
      "Ġstate": 2506,
      "EL": 2507,
      "Ġport": 2508,
      "Ġliving": 2509,
      "leep": 2510,
      "Ġest": 2511,
      "ngth": 2512,
      "arm": 2513,
      "Ġtalking": 2514,
      "iers": 2515,
      "see": 2516,
      "ution": 2517,
      "Where": 2518,
      "did": 2519,
      "ixed": 2520,
      "eorge": 2521,
      "Let": 2522,
      "bs": 2523,
      "Ġsol": 2524,
      "Ġdiv": 2525,
      "Ġenjoy": 2526,
      "urs": 2527,
      "Ġshot": 2528,
      "que": 2529,
      "thought": 2530,
      "ries": 2531,
      "ishing": 2532,
      "ĠHere": 2533,
      "cial": 2534,
      "Ġnice": 2535,
      "eterm": 2536,
      "Ġacqu": 2537,
      "ĠRob": 2538,
      "ceive": 2539,
      "ellow": 2540,
      "Ġcou": 2541,
      "Ġprob": 2542,
      "ashed": 2543,
      "Ġchief": 2544,
      "Ġfif": 2545,
      "Ġcorner": 2546,
      "irty": 2547,
      "end": 2548,
      "Ġmag": 2549,
      "Ġfilled": 2550,
      "usion": 2551,
      "pper": 2552,
      "omething": 2553,
      "Ġneither": 2554,
      "Ġque": 2555,
      "Ġgarden": 2556,
      "ledge": 2557,
      "Ġneck": 2558,
      "ston": 2559,
      "Ġsick": 2560,
      "Ġhall": 2561,
      "know": 2562,
      "Ġru": 2563,
      "bered": 2564,
      "than": 2565,
      "Ġlean": 2566,
      "Ġmarried": 2567,
      "Ġguess": 2568,
      "idly": 2569,
      "vol": 2570,
      "Ġlength": 2571,
      "Ġreply": 2572,
      "cent": 2573,
      "Ġsail": 2574,
      "versation": 2575,
      "Ġfright": 2576,
      "Ġdistance": 2577,
      "Ġfresh": 2578,
      "Ġval": 2579,
      "Ġprov": 2580,
      "arer": 2581,
      "Ġsnow": 2582,
      "Ġposition": 2583,
      "Ġtherefore": 2584,
      "place": 2585,
      "blic": 2586,
      "Ġbelow": 2587,
      "Ġbeauty": 2588,
      "af": 2589,
      "Ġage": 2590,
      "aff": 2591,
      "Ġgall": 2592,
      "Ġprep": 2593,
      "Ġglass": 2594,
      "Ġmakes": 2595,
      "Who": 2596,
      "iol": 2597,
      "Ġearn": 2598,
      "only": 2599,
      "ondon": 2600,
      "Ġoccasion": 2601,
      ".]": 2602,
      "Ġremained": 2603,
      "ature": 2604,
      "clock": 2605,
      "ĠAfter": 2606,
      "Ġwasn": 2607,
      "new": 2608,
      "Ġwide": 2609,
      "sit": 2610,
      "otten": 2611,
      "Ġbott": 2612,
      "Ġfollow": 2613,
      "ives": 2614,
      "Ġhang": 2615,
      "Ġanim": 2616,
      "Ġwatched": 2617,
      "Ġlot": 2618,
      "Ġhun": 2619,
      "ality": 2620,
      "Ġconst": 2621,
      "ork": 2622,
      "aby": 2623,
      "Ġknight": 2624,
      "zen": 2625,
      "Ġmiles": 2626,
      "Ġpale": 2627,
      "By": 2628,
      "min": 2629,
      "Here": 2630,
      "Ġhonour": 2631,
      "IC": 2632,
      "AT": 2633,
      "Ġplaced": 2634,
      "mother": 2635,
      "Ġneighb": 2636,
      "every": 2637,
      "Ġbox": 2638,
      "Ġnod": 2639,
      "Ġpost": 2640,
      "Ġloud": 2641,
      "Ġsurprise": 2642,
      "action": 2643,
      "Ex": 2644,
      "road": 2645,
      "range": 2646,
      "Ġshut": 2647,
      "reg": 2648,
      "Ġimmedi": 2649,
      "ĠAmeric": 2650,
      "Ġsens": 2651,
      "Ġdest": 2652,
      "Ġattention": 2653,
      "IL": 2654,
      "Ġcarry": 2655,
      "Ġlooks": 2656,
      "ĠSe": 2657,
      "AS": 2658,
      "Ġmess": 2659,
      "count": 2660,
      "Ġduty": 2661,
      "Good": 2662,
      "Ġoutside": 2663,
      "ousin": 2664,
      "Ġsky": 2665,
      "cked": 2666,
      "retched": 2667,
      ".--": 2668,
      "Ġgrow": 2669,
      "Ġears": 2670,
      "Ġfly": 2671,
      "Ġraised": 2672,
      "Ġdesire": 2673,
      "Ġturning": 2674,
      "Ġav": 2675,
      "ann": 2676,
      "inary": 2677,
      "Ġequ": 2678,
      "ĠOF": 2679,
      "RO": 2680,
      "After": 2681,
      "Ġkill": 2682,
      "good": 2683,
      "nding": 2684,
      "Ġthrew": 2685,
      "Ġimport": 2686,
      "don": 2687,
      "One": 2688,
      "Ġweak": 2689,
      "Ġpa": 2690,
      "aching": 2691,
      "Ġattempt": 2692,
      "ford": 2693,
      "face": 2694,
      "Ġdirect": 2695,
      "Ġinstant": 2696,
      "Ġcent": 2697,
      "Ġcat": 2698,
      "Ġspot": 2699,
      "together": 2700,
      "gan": 2701,
      "Ġguard": 2702,
      "Ġusual": 2703,
      "Ġune": 2704,
      "ires": 2705,
      "Ġalthough": 2706,
      "Ġnote": 2707,
      "ris": 2708,
      "bet": 2709,
      "des": 2710,
      "Ġchurch": 2711,
      "Ġclosed": 2712,
      "ume": 2713,
      "Ġresol": 2714,
      "Ġsteps": 2715,
      "ceeded": 2716,
      "Ġthank": 2717,
      "Ġtrans": 2718,
      "Ġtrain": 2719,
      "ĠOr": 2720,
      "ancho": 2721,
      "lling": 2722,
      "Her": 2723,
      "Ġjour": 2724,
      "bing": 2725,
      "Ġpresence": 2726,
      "Ġglance": 2727,
      "orted": 2728,
      "Ġdepart": 2729,
      "Ġdropped": 2730,
      "miss": 2731,
      "Ġ[_": 2732,
      "Ġsword": 2733,
      "Ġentire": 2734,
      "Ġconv": 2735,
      "cause": 2736,
      "Ġgame": 2737,
      "rit": 2738,
      "Ġstrength": 2739,
      "Ġhath": 2740,
      "Ġboard": 2741,
      "Ġwished": 2742,
      "dered": 2743,
      "oint": 2744,
      "ĠPeter": 2745,
      "ĠPe": 2746,
      "Ġbound": 2747,
      "arrow": 2748,
      "Ġeffort": 2749,
      "ts": 2750,
      "Ġoffice": 2751,
      "Ġshore": 2752,
      "ĠAd": 2753,
      "Ġremark": 2754,
      "!'": 2755,
      "ron": 2756,
      "Ġgod": 2757,
      "Ġmark": 2758,
      "Ġcommon": 2759,
      "Ġvillage": 2760,
      "eed": 2761,
      "Ġuncle": 2762,
      "ĠCon": 2763,
      "Ġthick": 2764,
      "ĠMay": 2765,
      "asp": 2766,
      "Ġfat": 2767,
      "himself": 2768,
      "Ġcloud": 2769,
      "Ġaccept": 2770,
      "Ġpath": 2771,
      "pass": 2772,
      "Ġpurpose": 2773,
      "ortun": 2774,
      "Ġmonths": 2775,
      "Ġsuccess": 2776,
      "Ġbank": 2777,
      "ĠSam": 2778,
      "Ġfollowing": 2779,
      "Ġfle": 2780,
      "IR": 2781,
      "Ġtall": 2782,
      "Ġdread": 2783,
      "aped": 2784,
      "Ġnumber": 2785,
      "Ġservice": 2786,
      "Ġcharacter": 2787,
      "acked": 2788,
      "ech": 2789,
      "ues": 2790,
      "lem": 2791,
      "Ġrecogn": 2792,
      "Al": 2793,
      "Ġparticular": 2794,
      "think": 2795,
      "Ġmut": 2796,
      "Ġcompl": 2797,
      "cell": 2798,
      "jo": 2799,
      "UR": 2800,
      "Ġcalm": 2801,
      "mar": 2802,
      "Ġleaving": 2803,
      "car": 2804,
      "Ġbelong": 2805,
      "Ġgeneral": 2806,
      "Ġresp": 2807,
      "Ġcru": 2808,
      "even": 2809,
      "Ġpriv": 2810,
      "pit": 2811,
      "Ġmoon": 2812,
      "looking": 2813,
      "Ġforce": 2814,
      "Ġladies": 2815,
      "oop": 2816,
      "pan": 2817,
      "say": 2818,
      "ĠGeorge": 2819,
      "\"'": 2820,
      "Ġmarry": 2821,
      "ĠSome": 2822,
      "Ġcrowd": 2823,
      "Ġgoes": 2824,
      "rer": 2825,
      "Ġwhispered": 2826,
      "Ġclothes": 2827,
      "Ġmod": 2828,
      "Ġpleasant": 2829,
      "Ġcheer": 2830,
      "Ġexact": 2831,
      "Ġbell": 2832,
      "Ġspring": 2833,
      "ĠLondon": 2834,
      "ĠHen": 2835,
      "Ġbuild": 2836,
      "gar": 2837,
      "Ġproud": 2838,
      "ox": 2839,
      "Ġtender": 2840,
      "Ġrunning": 2841,
      "has": 2842,
      "ĠDr": 2843,
      "never": 2844,
      "wood": 2845,
      "Ġtired": 2846,
      "ĠEngland": 2847,
      "),": 2848,
      "vern": 2849,
      "Ġcontr": 2850,
      "ories": 2851,
      "rey": 2852,
      "Ġund": 2853,
      "ĠUncle": 2854,
      "Ġeight": 2855,
      "Ġexpected": 2856,
      "Ġstro": 2857,
      "reet": 2858,
      "[_": 2859,
      "Ġrepeated": 2860,
      "Ġrap": 2861,
      "Ġdeterm": 2862,
      "Ġfaint": 2863,
      "key": 2864,
      "oyal": 2865,
      "ĠEm": 2866,
      "iter": 2867,
      "Ġobl": 2868,
      "ibly": 2869,
      "Ġpassion": 2870,
      "Ġarrived": 2871,
      "ky": 2872,
      "Ġbeat": 2873,
      "Ġmusic": 2874,
      "Ġdecided": 2875,
      "Ġnoble": 2876,
      "ĠPhil": 2877,
      "ille": 2878,
      "Ġworse": 2879,
      "Ġpleased": 2880,
      "teen": 2881,
      "Ġlearned": 2882,
      "ĠCom": 2883,
      "cher": 2884,
      "ĠAunt": 2885,
      "ED": 2886,
      "Ġenemy": 2887,
      "pleas": 2888,
      "came": 2889,
      "Ġstone": 2890,
      "iny": 2891,
      "osing": 2892,
      "Ġclim": 2893,
      "ora": 2894,
      "Ġtreat": 2895,
      "cumst": 2896,
      "ism": 2897,
      "wise": 2898,
      "great": 2899,
      "Ġinstead": 2900,
      "Ġcompanion": 2901,
      "gy": 2902,
      "Ġscarcely": 2903,
      "Ġtouch": 2904,
      "iant": 2905,
      "Ġpocket": 2906,
      "Ġbitter": 2907,
      "cially": 2908,
      "Ġterrible": 2909,
      "Miss": 2910,
      "Ġpiece": 2911,
      "tering": 2912,
      "Ġmurm": 2913,
      "idge": 2914,
      "Ġgiving": 2915,
      "Ġwear": 2916,
      "Ġpati": 2917,
      "Ġver": 2918,
      "Ġpit": 2919,
      "idently": 2920,
      "uct": 2921,
      "Ġconversation": 2922,
      "Ġwarn": 2923,
      "ĠZ": 2924,
      "chief": 2925,
      "Ġkne": 2926,
      "Ġquietly": 2927,
      "Ġfol": 2928,
      "fer": 2929,
      "aled": 2930,
      "Ġsusp": 2931,
      "Ġexperi": 2932,
      "Ġfro": 2933,
      "Ġspeaking": 2934,
      "Ġtong": 2935,
      "arked": 2936,
      "mit": 2937,
      "Ġfirm": 2938,
      "ests": 2939,
      "Ġhurt": 2940,
      "Ġwrite": 2941,
      "aret": 2942,
      "rop": 2943,
      "ND": 2944,
      "ram": 2945,
      "rang": 2946,
      "Ġfut": 2947,
      "Ġden": 2948,
      "Ġwis": 2949,
      "Ġexpression": 2950,
      "Ġball": 2951,
      "IT": 2952,
      "Ġfood": 2953,
      "Ġwaited": 2954,
      "Ġshoulder": 2955,
      "inging": 2956,
      "inion": 2957,
      "Ġris": 2958,
      "alled": 2959,
      "ĠWho": 2960,
      "ils": 2961,
      "Ġhesit": 2962,
      "angu": 2963,
      "uge": 2964,
      "certain": 2965,
      "Ġfal": 2966,
      "Ġpract": 2967,
      "udden": 2968,
      "Ġsac": 2969,
      "Ġletters": 2970,
      "ev": 2971,
      "Ġlikely": 2972,
      "erry": 2973,
      "Ġhonest": 2974,
      "Ġcoun": 2975,
      "Ġseat": 2976,
      "ĠFrank": 2977,
      "Ġremain": 2978,
      "Ġsummer": 2979,
      "Ġgate": 2980,
      "Ġsake": 2981,
      "Ġlying": 2982,
      "ĠWhere": 2983,
      "bur": 2984,
      "raw": 2985,
      "Ġsmo": 2986,
      "onsie": 2987,
      "unch": 2988,
      "Ġreach": 2989,
      "Ġescape": 2990,
      "Ġjourney": 2991,
      "ĠBob": 2992,
      "Ġdare": 2993,
      "Ġsomewhat": 2994,
      "eness": 2995,
      "Ġbattle": 2996,
      "chen": 2997,
      "Ġbrave": 2998,
      "ences": 2999,
      "lect": 3000,
      "dom": 3001,
      "ancing": 3002,
      "eneral": 3003,
      "might": 3004,
      "Ġbow": 3005,
      "gel": 3006,
      "Ġpromise": 3007,
      "ague": 3008,
      "Did": 3009,
      "Ġbeginning": 3010,
      "Ġvar": 3011,
      "tis": 3012,
      "through": 3013,
      "rat": 3014,
      "AC": 3015,
      "Ġhaven": 3016,
      "acher": 3017,
      "Ġchanged": 3018,
      "Ġpat": 3019,
      "Ġhurried": 3020,
      "sed": 3021,
      "Ġfingers": 3022,
      "Ġluck": 3023,
      "yn": 3024,
      "pres": 3025,
      "Ġpaid": 3026,
      "Ġburst": 3027,
      "Ġoccup": 3028,
      "Ġdeclared": 3029,
      "Ch": 3030,
      "Ġmed": 3031,
      "Ġnecessary": 3032,
      "Ġsuit": 3033,
      "made": 3034,
      "ĠGerman": 3035,
      "asped": 3036,
      "ĠAm": 3037,
      "Ġstrugg": 3038,
      "Ġer": 3039,
      "Ġlives": 3040,
      "ait": 3041,
      "Ġspite": 3042,
      "acy": 3043,
      "iety": 3044,
      "----\"": 3045,
      "Ġangry": 3046,
      "pend": 3047,
      "vere": 3048,
      "alley": 3049,
      "onsieur": 3050,
      "emed": 3051,
      "Ġdirection": 3052,
      "oon": 3053,
      "Ġstranger": 3054,
      "Ġscene": 3055,
      "Ġevent": 3056,
      "Ġfier": 3057,
      "Ġstream": 3058,
      "formed": 3059,
      "Ġbreakfast": 3060,
      "Ġdarkness": 3061,
      "Ġprobably": 3062,
      "Ġshoulders": 3063,
      "uous": 3064,
      "umed": 3065,
      "ker": 3066,
      "Ġcomplete": 3067,
      "nie": 3068,
      "Ġmention": 3069,
      "ckon": 3070,
      "Ġanxious": 3071,
      "Ġtea": 3072,
      "ics": 3073,
      "ST": 3074,
      "Ġkilled": 3075,
      "Ġdoesn": 3076,
      "Ġbeneath": 3077,
      "Ġforest": 3078,
      "bre": 3079,
      "bles": 3080,
      "ists": 3081,
      "yed": 3082,
      "keep": 3083,
      "gain": 3084,
      "Ġtalked": 3085,
      "sequ": 3086,
      "away": 3087,
      "Ġwond": 3088,
      "ashing": 3089,
      "Ġfinished": 3090,
      "ĠCome": 3091,
      "Ġwise": 3092,
      "sec": 3093,
      "Ġgro": 3094,
      "Ġdam": 3095,
      "Ġthro": 3096,
      "Ġremarked": 3097,
      "Ġpicture": 3098,
      "Ġcharge": 3099,
      "Ġincl": 3100,
      "Ġviol": 3101,
      "Ġsorrow": 3102,
      "Ġstick": 3103,
      "ream": 3104,
      "Ġlab": 3105,
      "ails": 3106,
      "Ġgrace": 3107,
      "Ġeasily": 3108,
      "Ġflowers": 3109,
      "Ġcovered": 3110,
      "Ġpity": 3111,
      "Ġwel": 3112,
      "Ġnatural": 3113,
      "reen": 3114,
      "Ġla": 3115,
      "Ġwatching": 3116,
      "Ġfashion": 3117,
      "urned": 3118,
      "stairs": 3119,
      "ays": 3120,
      "Ġempt": 3121,
      "Ġod": 3122,
      "ouses": 3123,
      "Ġfortune": 3124,
      "Ġimmediately": 3125,
      "friend": 3126,
      "ĠMan": 3127,
      "ipe": 3128,
      "ĠQue": 3129,
      "Ġutter": 3130,
      "Ġpromised": 3131,
      "ĠYet": 3132,
      "Ġtrem": 3133,
      "Ġfit": 3134,
      "nter": 3135,
      "Ġinfl": 3136,
      "Ġpublic": 3137,
      "ardon": 3138,
      "Ġcow": 3139,
      "Ġrain": 3140,
      "lo": 3141,
      "Per": 3142,
      "sha": 3143,
      "Ġsong": 3144,
      "Ġinterrupt": 3145,
      "Ġlatter": 3146,
      "ajor": 3147,
      "Ġimpossible": 3148,
      "ishment": 3149,
      "Ġappearance": 3150,
      "ĊĠĠĠĠĠĠĠĠĠĠĠĠĠĠĠĠ": 3151,
      "Ġgrass": 3152,
      ").": 3153,
      "Ġcost": 3154,
      "erson": 3155,
      "Ġliked": 3156,
      "Ġwhatever": 3157,
      "acing": 3158,
      "ĠHarry": 3159,
      "Ġobserved": 3160,
      "Ġyours": 3161,
      "Ġvict": 3162,
      "Ġwid": 3163,
      "boy": 3164,
      "Ġwoods": 3165,
      "ounced": 3166,
      "Ġdelic": 3167,
      "ĠYork": 3168,
      "ĠFrom": 3169,
      "asure": 3170,
      "Ġsingle": 3171,
      "lin": 3172,
      "anted": 3173,
      "Ġlose": 3174,
      "Ġrode": 3175,
      "requ": 3176,
      "Ġsurprised": 3177,
      "Ġstir": 3178,
      "sl": 3179,
      "Ġwritten": 3180,
      "Ġtelling": 3181,
      "Ġfuture": 3182,
      "Ġspeech": 3183,
      "uation": 3184,
      "Ġisland": 3185,
      "ĠIndian": 3186,
      "Ġauth": 3187,
      "ises": 3188,
      "Ġbrown": 3189,
      "Will": 3190,
      "Your": 3191,
      "ĠBen": 3192,
      "ĠPro": 3193,
      "lend": 3194,
      "Ġaccord": 3195,
      "Ġweeks": 3196,
      "hor": 3197,
      "Ġhost": 3198,
      "Ġwonderful": 3199,
      "Ġdescri": 3200,
      "must": 3201,
      "ĠLa": 3202,
      "hus": 3203,
      "Ġspent": 3204,
      "Ġsuspic": 3205,
      "Ġclean": 3206,
      "may": 3207,
      "irth": 3208,
      "ament": 3209,
      "rap": 3210,
      "Mar": 3211,
      "Ġfamil": 3212,
      "ior": 3213,
      "Ġsimple": 3214,
      "Ġcoat": 3215,
      "mas": 3216,
      "Ġpresently": 3217,
      "Ġmil": 3218,
      "itchen": 3219,
      "Ġban": 3220,
      "Ġbroad": 3221,
      "Ġfallen": 3222,
      "Ġwinter": 3223,
      "Ġaston": 3224,
      "Ġblind": 3225,
      "gged": 3226,
      "ision": 3227,
      "Ġthird": 3228,
      "Ġones": 3229,
      "ĠBill": 3230,
      "ĠYes": 3231,
      "Ġmarriage": 3232,
      "Ġlistened": 3233,
      "ĠPaul": 3234,
      "!--": 3235,
      "play": 3236,
      "Ġofficer": 3237,
      "Ġcatch": 3238,
      "ocked": 3239,
      "Ġrob": 3240,
      "Ġdry": 3241,
      "Ġnotice": 3242,
      "two": 3243,
      "Ġlim": 3244,
      "much": 3245,
      "Ġnarrow": 3246,
      "Ġknowledge": 3247,
      "something": 3248,
      "ushing": 3249,
      "elle": 3250,
      "ĊĊĠĠĠĠĠĠĠĠ": 3251,
      "uly": 3252,
      "Ġblow": 3253,
      "Ġdrawing": 3254,
      "Ġlaughing": 3255,
      "Ġcabin": 3256,
      "ressing": 3257,
      "Ġconcl": 3258,
      "Ġexam": 3259,
      "Ġholding": 3260,
      "Ġfancy": 3261,
      "kin": 3262,
      "Ġfixed": 3263,
      "Ġnodded": 3264,
      "pecially": 3265,
      "Ġbent": 3266,
      "itement": 3267,
      "Ġgar": 3268,
      "Ġcand": 3269,
      "Ġdemanded": 3270,
      "urred": 3271,
      "Ġpassing": 3272,
      "Ġlifted": 3273,
      "Ġdifficult": 3274,
      "Ġsand": 3275,
      "Ġshadow": 3276,
      "Ġsin": 3277,
      "idered": 3278,
      "ciety": 3279,
      "Ġinside": 3280,
      "Ġthin": 3281,
      "olute": 3282,
      "Ġstar": 3283,
      "Ġvan": 3284,
      "Ġenter": 3285,
      "Ġdollars": 3286,
      ".,": 3287,
      "ĠJoe": 3288,
      "Ġsupper": 3289,
      "Ġbreast": 3290,
      "Ġperfectly": 3291,
      "Ġlisten": 3292,
      "ET": 3293,
      "Ġspeed": 3294,
      "Ġsmiling": 3295,
      "Ġ(_": 3296,
      "Ġbelieved": 3297,
      "child": 3298,
      "orough": 3299,
      "lie": 3300,
      "ĠDan": 3301,
      "lt": 3302,
      "Ġconce": 3303,
      "Ġrough": 3304,
      "take": 3305,
      "worth": 3306,
      "Ġmeeting": 3307,
      "ĠSh": 3308,
      "Ġvain": 3309,
      "Ġmiddle": 3310,
      "ĠEvery": 3311,
      "Ġdiscovered": 3312,
      "iring": 3313,
      "uddenly": 3314,
      "Ġdeck": 3315,
      "Ġproper": 3316,
      "Ġremembered": 3317,
      "Ġearnest": 3318,
      "oup": 3319,
      "Ġborn": 3320,
      "Ġcircumst": 3321,
      "Ġwand": 3322,
      "Ġforgotten": 3323,
      "Ġtast": 3324,
      "ploy": 3325,
      "Ġbooks": 3326,
      "ulty": 3327,
      "Ġbare": 3328,
      "Ġspoken": 3329,
      "bly": 3330,
      "Ġur": 3331,
      "Ġsimply": 3332,
      "erve": 3333,
      "ĠParis": 3334,
      "Ġtongue": 3335,
      "Ġdesert": 3336,
      "ortunity": 3337,
      "mber": 3338,
      "Ġdim": 3339,
      "inter": 3340,
      "Ġride": 3341,
      "round": 3342,
      "Ġsymp": 3343,
      "lessly": 3344,
      "ĠCount": 3345,
      "ested": 3346,
      "Ġshame": 3347,
      "ĠDav": 3348,
      "Ġedge": 3349,
      "Ġpulled": 3350,
      "asc": 3351,
      "Ġdisco": 3352,
      "Ġevil": 3353,
      "Ġopinion": 3354,
      "Ġplaces": 3355,
      "ĠPrince": 3356,
      "nes": 3357,
      "ĠGu": 3358,
      "Ġpick": 3359,
      "Ġahead": 3360,
      "athered": 3361,
      "Ġcousin": 3362,
      "Ġexplained": 3363,
      "ĠAb": 3364,
      "Ġtouched": 3365,
      "Ġbaby": 3366,
      "Ġaside": 3367,
      "ĠCan": 3368,
      "ifle": 3369,
      "Ġapart": 3370,
      "ĠMart": 3371,
      "Ġwrote": 3372,
      "Ġfond": 3373,
      "Ġnoise": 3374,
      "Ġauthor": 3375,
      "Ġstore": 3376,
      "rose": 3377,
      "Ġdrawn": 3378,
      "uded": 3379,
      "Ġswift": 3380,
      "Ġshouted": 3381,
      "Ġexactly": 3382,
      "Ġsav": 3383,
      "Ġsilver": 3384,
      "Ġunless": 3385,
      "field": 3386,
      "Ġoffered": 3387,
      "Ġ3": 3388,
      "Ġwalls": 3389,
      "Ġaunt": 3390,
      "Ġnoticed": 3391,
      "without": 3392,
      "Ġband": 3393,
      "Ġhappiness": 3394,
      "kind": 3395,
      "nothing": 3396,
      "known": 3397,
      "urse": 3398,
      "Ġallowed": 3399,
      "Ġbusy": 3400,
      "00": 3401,
      "ĠMadame": 3402,
      "Ġmighty": 3403,
      "Ġservant": 3404,
      "Ġstation": 3405,
      "Ġagreed": 3406,
      "Ġpra": 3407,
      "Ġoffer": 3408,
      "Ġarmy": 3409,
      "Ġhig": 3410,
      "Ġnose": 3411,
      "Ġpaused": 3412,
      "Ġknowing": 3413,
      "Ġcourage": 3414,
      "tic": 3415,
      "Ġpun": 3416,
      "ieve": 3417,
      "Ġunderstood": 3418,
      "Ġsuc": 3419,
      "nce": 3420,
      "incess": 3421,
      "Ġadvent": 3422,
      "Ġmountain": 3423,
      "Ġmill": 3424,
      "Ġmot": 3425,
      "ĠWilliam": 3426,
      "Ġign": 3427,
      "Ġspread": 3428,
      "ĠQueen": 3429,
      "Ġdrive": 3430,
      "ience": 3431,
      "Ġ...": 3432,
      "oses": 3433,
      "Ġhappen": 3434,
      "ĠTr": 3435,
      "ste": 3436,
      "Ġwore": 3437,
      "Ġmerely": 3438,
      "ency": 3439,
      "Ġformer": 3440,
      "ners": 3441,
      "aud": 3442,
      "Ġpair": 3443,
      "Ġoblig": 3444,
      "Ġreve": 3445,
      "ator": 3446,
      "Ġbuy": 3447,
      "Ġways": 3448,
      "Ġpride": 3449,
      "aving": 3450,
      "ois": 3451,
      "word": 3452,
      "osite": 3453,
      "Ġplayed": 3454,
      "Ġfault": 3455,
      "ĠOld": 3456,
      "Ġfavour": 3457,
      "Ġlovely": 3458,
      "Ġfurn": 3459,
      "Ġhide": 3460,
      "Ġasleep": 3461,
      "Ġbag": 3462,
      "ointed": 3463,
      "dist": 3464,
      "Ġiron": 3465,
      "Ġhate": 3466,
      "Than": 3467,
      "Ġattend": 3468,
      "duced": 3469,
      "cr": 3470,
      "lected": 3471,
      "Ġmistress": 3472,
      "Ġfaces": 3473,
      "Ġring": 3474,
      "Ġlegs": 3475,
      "ĠFather": 3476,
      "Ġhist": 3477,
      "work": 3478,
      "urely": 3479,
      "Ġserious": 3480,
      "ĠLou": 3481,
      "Ġapparent": 3482,
      "ĠLuc": 3483,
      "Ġsmoke": 3484,
      "first": 3485,
      "Ġsoftly": 3486,
      "lemn": 3487,
      "Ġpack": 3488,
      "Ġpursu": 3489,
      "Ġsuggested": 3490,
      "Ġdevil": 3491,
      "IA": 3492,
      "Ġvol": 3493,
      "Ġid": 3494,
      "Ġclass": 3495,
      "Ġvo": 3496,
      "esty": 3497,
      "fall": 3498,
      "Ġheads": 3499,
      "wr": 3500,
      "etty": 3501,
      "Ġsigh": 3502,
      "Ġentirely": 3503,
      "Ġstepped": 3504,
      "pected": 3505,
      "woman": 3506,
      "ocks": 3507,
      "Ġneg": 3508,
      "Ġcreature": 3509,
      "Are": 3510,
      "Ġinform": 3511,
      "fortun": 3512,
      "such": 3513,
      "Ġhit": 3514,
      "amma": 3515,
      "Ġcarefully": 3516,
      "bro": 3517,
      "eds": 3518,
      "enced": 3519,
      "tell": 3520,
      "ĠAND": 3521,
      "Ġimm": 3522,
      "ĠMaster": 3523,
      "sy": 3524,
      "llen": 3525,
      "Ġvent": 3526,
      "Ġdressed": 3527,
      "Ġcapt": 3528,
      "Ġknees": 3529,
      "itation": 3530,
      "Ġdetermined": 3531,
      "Just": 3532,
      "osity": 3533,
      "Ġlangu": 3534,
      "eping": 3535,
      "Ġfellows": 3536,
      "ĠGood": 3537,
      "III": 3538,
      "Ġcool": 3539,
      "Ġinno": 3540,
      "ĠHel": 3541,
      "Ġempty": 3542,
      "iding": 3543,
      "Ġleaves": 3544,
      "Ġthreat": 3545,
      "Ġbold": 3546,
      "Ġstorm": 3547,
      "Ġere": 3548,
      "ades": 3549,
      "ĠColonel": 3550,
      "Ar": 3551,
      "Ġmass": 3552,
      "Ġallow": 3553,
      "rav": 3554,
      "Ġkitchen": 3555,
      "ux": 3556,
      "wind": 3557,
      "arest": 3558,
      "Ġseven": 3559,
      "AD": 3560,
      "law": 3561,
      "Ġgreater": 3562,
      "ĠThese": 3563,
      "Ġwag": 3564,
      "eyes": 3565,
      "Ġdust": 3566,
      "ĠMor": 3567,
      "Ġhealth": 3568,
      "Ġgray": 3569,
      "ples": 3570,
      "Ġmel": 3571,
      "Ġdefe": 3572,
      "Ġharm": 3573,
      "Ġhandsome": 3574,
      "ember": 3575,
      "esides": 3576,
      "ivers": 3577,
      "Ġgentlemen": 3578,
      "?âĢĻ": 3579,
      "Ġbull": 3580,
      "terday": 3581,
      "rig": 3582,
      "Ġclaim": 3583,
      "Ġmemory": 3584,
      "sur": 3585,
      "ye": 3586,
      "Go": 3587,
      "Ġsim": 3588,
      "Ġcruel": 3589,
      "Ġshoot": 3590,
      "ĠYour": 3591,
      "elve": 3592,
      "hys": 3593,
      "Ġcook": 3594,
      "Ġroof": 3595,
      "reme": 3596,
      "ole": 3597,
      "Ġmoments": 3598,
      "Ġresult": 3599,
      "board": 3600,
      "Ġglanced": 3601,
      "Ġprotect": 3602,
      "ĠNe": 3603,
      "Ġfinally": 3604,
      "rant": 3605,
      "Ġcover": 3606,
      "ĠChristian": 3607,
      "Ġaffection": 3608,
      "Ġteeth": 3609,
      "Ġwants": 3610,
      "ixote": 3611,
      "Ġsoldier": 3612,
      "ĠFran": 3613,
      "OU": 3614,
      "Ġyellow": 3615,
      "ĠJust": 3616,
      "ĠEven": 3617,
      "Have": 3618,
      "itions": 3619,
      "happy": 3620,
      "Ġhadn": 3621,
      "Ġnobody": 3622,
      "Ġsoldiers": 3623,
      "IO": 3624,
      "Ġbread": 3625,
      "erty": 3626,
      "thur": 3627,
      "Ġsettled": 3628,
      "Ġrising": 3629,
      "Ġmatters": 3630,
      "Ġanybody": 3631,
      "attered": 3632,
      "Ġprove": 3633,
      "Ġpie": 3634,
      "Ġorders": 3635,
      "Ġpointed": 3636,
      "acted": 3637,
      "Ġfate": 3638,
      "Look": 3639,
      "Ġunto": 3640,
      "pol": 3641,
      "Ġbeast": 3642,
      "Ġwalking": 3643,
      "looked": 3644,
      "door": 3645,
      "aked": 3646,
      "Ġcarriage": 3647,
      "Ġshop": 3648,
      "Ġprepared": 3649,
      "col": 3650,
      "Ġlines": 3651,
      "Ġsearch": 3652,
      "Ġstock": 3653,
      "half": 3654,
      "pany": 3655,
      "essel": 3656,
      "nor": 3657,
      "Ġrail": 3658,
      "Ġwelcome": 3659,
      "Ġexcitement": 3660,
      "iration": 3661,
      "uh": 3662,
      "Ġcouple": 3663,
      "Ġalive": 3664,
      "ĠMc": 3665,
      "ĠPerhaps": 3666,
      "tw": 3667,
      "Ġconcern": 3668,
      "Ġfish": 3669,
      "Ġgrown": 3670,
      "ĠHenry": 3671,
      "ĠGl": 3672,
      "ĠPl": 3673,
      "Ġinquired": 3674,
      "found": 3675,
      "Ġafterwards": 3676,
      "olf": 3677,
      "udge": 3678,
      "Ġemploy": 3679,
      "Ġconscious": 3680,
      "oted": 3681,
      "Ġstairs": 3682,
      "Ġgovern": 3683,
      "Ġcott": 3684,
      "ills": 3685,
      "Ġquestions": 3686,
      "Ġattack": 3687,
      "Ġdeli": 3688,
      "lly": 3689,
      "Ġprevent": 3690,
      "kins": 3691,
      "ometimes": 3692,
      "Ġcurious": 3693,
      "Ġwine": 3694,
      "ighed": 3695,
      "Ġfalse": 3696,
      "Ġfifty": 3697,
      "Ġmotion": 3698,
      "oubled": 3699,
      "using": 3700,
      "Ġobt": 3701,
      "Ġwindows": 3702,
      "gi": 3703,
      "Ġsuffic": 3704,
      "nat": 3705,
      "mbled": 3706,
      "Ġgen": 3707,
      "Ġevidently": 3708,
      "isto": 3709,
      "gs": 3710,
      ":--": 3711,
      "Ġassist": 3712,
      "Ġ4": 3713,
      "too": 3714,
      "Ġjudge": 3715,
      "Ġintell": 3716,
      "Ġloss": 3717,
      "Ġsuspect": 3718,
      "RE": 3719,
      "erable": 3720,
      "AM": 3721,
      "Ġthrown": 3722,
      "Ġordered": 3723,
      "Ġsplend": 3724,
      "Ġbid": 3725,
      "Ġdozen": 3726,
      "arther": 3727,
      "Ġvirt": 3728,
      "Ġimpati": 3729,
      "Ġsurely": 3730,
      "Ġinflu": 3731,
      "inst": 3732,
      "Ġsprang": 3733,
      "ales": 3734,
      "Ġwondered": 3735,
      "zy": 3736,
      "unday": 3737,
      "acious": 3738,
      "IV": 3739,
      "owned": 3740,
      "pri": 3741,
      ",âĢĶ": 3742,
      "view": 3743,
      "Ġexcited": 3744,
      "Ġvessel": 3745,
      "ption": 3746,
      "Ġopportunity": 3747,
      "Some": 3748,
      "Ġdrove": 3749,
      "fin": 3750,
      "Ġseated": 3751,
      "ĠDuke": 3752,
      "enance": 3753,
      "alt": 3754,
      "iction": 3755,
      "Ġgently": 3756,
      "ulous": 3757,
      "Ġsolemn": 3758,
      "Ġsought": 3759,
      "mind": 3760,
      "ĠDid": 3761,
      "Ġfarm": 3762,
      "Ġcaused": 3763,
      "Ġweather": 3764,
      "Ġfra": 3765,
      "ichard": 3766,
      "Ġrace": 3767,
      "Ġputting": 3768,
      "Ġstern": 3769,
      "Ġprev": 3770,
      "Ġpapers": 3771,
      "Ġble": 3772,
      "Ġsaved": 3773,
      "Ġgolden": 3774,
      "Ġhabit": 3775,
      "still": 3776,
      "umped": 3777,
      "Ġlower": 3778,
      "Ġreport": 3779,
      "Ġgrief": 3780,
      "Ġamaz": 3781,
      "Ġmurmured": 3782,
      "occ": 3783,
      "Ġcustom": 3784,
      "Ġfoolish": 3785,
      "because": 3786,
      "Ġreckon": 3787,
      "Ġbottom": 3788,
      "Ġincre": 3789,
      "Ġobe": 3790,
      "Ġpicked": 3791,
      "antage": 3792,
      "Ġfrightened": 3793,
      "Ġtrick": 3794,
      "ĠDoctor": 3795,
      "Ġreading": 3796,
      "going": 3797,
      "Ġgle": 3798,
      "Ġaction": 3799,
      "Ġshr": 3800,
      "aves": 3801,
      "Ġappre": 3802,
      "ailed": 3803,
      "Perhaps": 3804,
      "Ġeld": 3805,
      "Ġkeen": 3806,
      "Ġkeeping": 3807,
      "Ġ18": 3808,
      "went": 3809,
      "del": 3810,
      "Ġworked": 3811,
      "Ġstared": 3812,
      "ables": 3813,
      "ĠFrance": 3814,
      "ĠQuixote": 3815,
      "Ġtele": 3816,
      "ading": 3817,
      "From": 3818,
      "Ġgathered": 3819,
      "Ġdistur": 3820,
      "God": 3821,
      "young": 3822,
      "ĠSm": 3823,
      "Ġespecially": 3824,
      "Ġcheeks": 3825,
      "ĠAmerican": 3826,
      "ĠMother": 3827,
      "Ġnearer": 3828,
      "Ġattr": 3829,
      "Ġsuper": 3830,
      "Ġseized": 3831,
      "Ġopposite": 3832,
      "ĠRed": 3833,
      "Ġgloom": 3834,
      "ĠXX": 3835,
      "Ġmor": 3836,
      "amb": 3837,
      "Ġsituation": 3838,
      "Ġsupposed": 3839,
      "Ġcondition": 3840,
      "itary": 3841,
      "heard": 3842,
      "essor": 3843,
      "Ġengaged": 3844,
      "Ġsatisfied": 3845,
      "ias": 3846,
      "hant": 3847,
      "Ġbrief": 3848,
      "Tis": 3849,
      "cil": 3850,
      "Ġcup": 3851,
      "ĠAh": 3852,
      "Ġty": 3853,
      "Ġwilling": 3854,
      "Ġlod": 3855,
      "Ġmain": 3856,
      "Ġhero": 3857,
      "athy": 3858,
      "bell": 3859,
      "Ġtrail": 3860,
      "Ġkey": 3861,
      "Ġgrowing": 3862,
      "OW": 3863,
      "Ġrub": 3864,
      "Ġfamiliar": 3865,
      "Ġforced": 3866,
      "rol": 3867,
      "ases": 3868,
      "cient": 3869,
      "last": 3870,
      "Ġawful": 3871,
      "Ġproved": 3872,
      "Ġtwice": 3873,
      "Ġtail": 3874,
      "Ġdull": 3875,
      "ĠWest": 3876,
      "Ġkindly": 3877,
      "Ġseek": 3878,
      "itor": 3879,
      "Ġexperience": 3880,
      "aly": 3881,
      "Ġtight": 3882,
      "step": 3883,
      "oring": 3884,
      "Ġph": 3885,
      "Ġaffair": 3886,
      "Ġeverybody": 3887,
      "ette": 3888,
      "Ġfeelings": 3889,
      "ĠWas": 3890,
      "ospit": 3891,
      "usted": 3892,
      "Ġbless": 3893,
      "Ġopening": 3894,
      "Ġagree": 3895,
      "Ġi": 3896,
      "Ġhouses": 3897,
      "another": 3898,
      "itive": 3899,
      "Ġgreet": 3900,
      "ĠIndians": 3901,
      "Ġimportant": 3902,
      "ĠHad": 3903,
      "Ġprivate": 3904,
      "ENT": 3905,
      "Ġtemper": 3906,
      "Ġhotel": 3907,
      "Ġcig": 3908,
      "umbled": 3909,
      "ĠHeaven": 3910,
      "andy": 3911,
      "Ġquarter": 3912,
      "sat": 3913,
      "char": 3914,
      "fit": 3915,
      "Very": 3916,
      "Ġforgot": 3917,
      "Ġrise": 3918,
      "Ġservants": 3919,
      "port": 3920,
      "Ġthrow": 3921,
      "Sir": 3922,
      "yer": 3923,
      "Ġblank": 3924,
      "Ġinterrupted": 3925,
      "Un": 3926,
      "ĠMer": 3927,
      "foot": 3928,
      "Ġaware": 3929,
      "ollow": 3930,
      "water": 3931,
      "Ġhearts": 3932,
      "ĠSancho": 3933,
      "culiar": 3934,
      "Ġmoving": 3935,
      "ĠJul": 3936,
      "Jo": 3937,
      "Ġfailed": 3938,
      "aming": 3939,
      "Ġplaying": 3940,
      "make": 3941,
      "Ġnorth": 3942,
      "pet": 3943,
      "quis": 3944,
      "Ġdesce": 3945,
      "Ġbore": 3946,
      "asy": 3947,
      "enn": 3948,
      "ument": 3949,
      "seemed": 3950,
      "urally": 3951,
      "Ġworthy": 3952,
      "got": 3953,
      "life": 3954,
      "girl": 3955,
      "ival": 3956,
      "host": 3957,
      "apped": 3958,
      "Ġgift": 3959,
      "Ġbesides": 3960,
      "Ġtrack": 3961,
      "Ġcrossed": 3962,
      "Ġstudy": 3963,
      "ĠGeneral": 3964,
      "Ġworking": 3965,
      "Never": 3966,
      "arl": 3967,
      "Ġanger": 3968,
      "por": 3969,
      "OM": 3970,
      "Ġfinding": 3971,
      "umph": 3972,
      "Ġvalley": 3973,
      "Ġshare": 3974,
      "things": 3975,
      "aker": 3976,
      "these": 3977,
      "Ġplenty": 3978,
      "Ġmort": 3979,
      "quest": 3980,
      "May": 3981,
      "Ġhearing": 3982,
      "Ġthirty": 3983,
      "Ġdrop": 3984,
      "put": 3985,
      "Ġbrain": 3986,
      "Ġprec": 3987,
      "ĠPat": 3988,
      "ĠLittle": 3989,
      "Ġrelief": 3990,
      "hal": 3991,
      "Ġodd": 3992,
      "Ġcircumstances": 3993,
      "reek": 3994,
      "ĠRobert": 3995,
      "Ġourselves": 3996,
      "Ġdesper": 3997,
      "Ġhonor": 3998,
      "Ġvoices": 3999,
      "Ġgay": 4000,
      "unning": 4001,
      "Ġwed": 4002,
      "Ġneeded": 4003,
      "iest": 4004,
      "Ġwitness": 4005,
      "Ġthroat": 4006,
      "Ġbirds": 4007,
      "rees": 4008,
      "Ġdifficulty": 4009,
      "Ġgreatly": 4010,
      "Ġcler": 4011,
      "Ġlover": 4012,
      "Ġdiscuss": 4013,
      "Ġpardon": 4014,
      "Ġcurt": 4015,
      "Ġsociety": 4016,
      "Can": 4017,
      "Ind": 4018,
      "Ġsuffer": 4019,
      "Ġconsidered": 4020,
      "Ġexcell": 4021,
      "ĠBrit": 4022,
      "Ġinterested": 4023,
      "Ġdespair": 4024,
      "ĠMag": 4025,
      "ĠBilly": 4026,
      "add": 4027,
      "Ġofficers": 4028,
      "Ġparent": 4029,
      "illing": 4030,
      "Ġnerv": 4031,
      "Ġstuff": 4032,
      "Ġkissed": 4033,
      "ville": 4034,
      "ĠBur": 4035,
      "CH": 4036,
      "Ġpassage": 4037,
      "Ġwounded": 4038,
      "ĠDor": 4039,
      "ĠRo": 4040,
      "rand": 4041,
      "Ġfru": 4042,
      "Ġmyst": 4043,
      "Ġabsolute": 4044,
      "sing": 4045,
      "love": 4046,
      "ollect": 4047,
      "Ġgazed": 4048,
      "bus": 4049,
      "sw": 4050,
      "pon": 4051,
      "Ġshel": 4052,
      "ĠSy": 4053,
      "people": 4054,
      "Ġworst": 4055,
      "Ġtwelve": 4056,
      "Ġexist": 4057,
      "uten": 4058,
      "ais": 4059,
      "ses": 4060,
      "igned": 4061,
      "comfort": 4062,
      "Ġhuge": 4063,
      "mitted": 4064,
      "Ġsquare": 4065,
      "Ġavo": 4066,
      "those": 4067,
      "Ġtakes": 4068,
      "erved": 4069,
      "Ġwriting": 4070,
      "Ġbuilt": 4071,
      "Ġmeaning": 4072,
      "een": 4073,
      "umn": 4074,
      "five": 4075,
      "Ġfarther": 4076,
      "eling": 4077,
      "Ġhoped": 4078,
      "Ġintended": 4079,
      "ĠMon": 4080,
      "aper": 4081,
      "ĠJane": 4082,
      "Ġcalling": 4083,
      "Ġhistory": 4084,
      "ĠPres": 4085,
      "Ġdign": 4086,
      "Ġhills": 4087,
      "Ġdance": 4088,
      "igg": 4089,
      "supp": 4090,
      "Ġwealth": 4091,
      "ĠFred": 4092,
      "Ġrevol": 4093,
      "ĠSunday": 4094,
      "Ġwet": 4095,
      "Ġextra": 4096,
      "ĠChristmas": 4097,
      "Ġslipped": 4098,
      "vi": 4099,
      "Ġspirits": 4100,
      "Ġtim": 4101,
      "oused": 4102,
      "held": 4103,
      "ibility": 4104,
      "wild": 4105,
      "ĠMark": 4106,
      "give": 4107,
      "Ġbecom": 4108,
      "Ġterror": 4109,
      "moment": 4110,
      "Ġpor": 4111,
      "Ġhers": 4112,
      "Ġfavor": 4113,
      "ify": 4114,
      "ĠArthur": 4115,
      "ites": 4116,
      "Cl": 4117,
      "Ġstat": 4118,
      "Ġmistake": 4119,
      "Ġdue": 4120,
      "Ġregret": 4121,
      "Ġthrust": 4122,
      "ara": 4123,
      "ainted": 4124,
      "Ġcontent": 4125,
      "Ġmyster": 4126,
      "top": 4127,
      "Ġrooms": 4128,
      "Ġpoet": 4129,
      "Re": 4130,
      "Ġobliged": 4131,
      "uel": 4132,
      "Ġexpress": 4133,
      "ealous": 4134,
      "cast": 4135,
      "Ġarg": 4136,
      "Ġadvice": 4137,
      "ĠEl": 4138,
      "Ġdistant": 4139,
      "Ġeagerly": 4140,
      "Ġconne": 4141,
      "inking": 4142,
      "Ġloose": 4143,
      "ĠMe": 4144,
      "ĠGo": 4145,
      "Ġflo": 4146,
      "Ġreceive": 4147,
      "seen": 4148,
      "Ġhy": 4149,
      "Ġwhisper": 4150,
      "Ġsides": 4151,
      "gment": 4152,
      "Ġsepar": 4153,
      "ĠJames": 4154,
      "Ġterr": 4155,
      "Ġrefused": 4156,
      "Ġphys": 4157,
      "orne": 4158,
      "icated": 4159,
      "Ġrelig": 4160,
      "Ġmuttered": 4161,
      "book": 4162,
      "arling": 4163,
      "cur": 4164,
      "shall": 4165,
      "raph": 4166,
      "lease": 4167,
      "conf": 4168,
      "Ġdoors": 4169,
      "Ġyield": 4170,
      "hens": 4171,
      "vis": 4172,
      "wa": 4173,
      "Ġdisappeared": 4174,
      "Ġrushed": 4175,
      "ivid": 4176,
      "----------------": 4177,
      "van": 4178,
      "antic": 4179,
      "Ġaltogether": 4180,
      "Ġexplain": 4181,
      "Ġconfidence": 4182,
      "low": 4183,
      "Ġhurry": 4184,
      "etch": 4185,
      "Ġgrin": 4186,
      "Ġnames": 4187,
      "Ġgrat": 4188,
      "Ġgrey": 4189,
      "Ġwicked": 4190,
      "ĠRos": 4191,
      "Ġpause": 4192,
      "ĠSee": 4193,
      "Ġfinger": 4194,
      "oft": 4195,
      "fa": 4196,
      "ground": 4197,
      "mond": 4198,
      "Ġhelped": 4199,
      "Ġyesterday": 4200,
      "ĠSte": 4201,
      "Ġfolks": 4202,
      "arily": 4203,
      "mission": 4204,
      "Ġassu": 4205,
      "ĠBlack": 4206,
      "ivered": 4207,
      "Ġflat": 4208,
      "ĠAnt": 4209,
      "Ġjoin": 4210,
      "ĊĊĠĠĠĠĠĠĠĠĠ": 4211,
      "Ġaut": 4212,
      "Ġqueer": 4213,
      "Ġmir": 4214,
      "Ġsouth": 4215,
      "Ġburning": 4216,
      "conscious": 4217,
      "always": 4218,
      "enny": 4219,
      "acle": 4220,
      "Ġdogs": 4221,
      "Ġpressed": 4222,
      "bes": 4223,
      "aine": 4224,
      "Ġjoined": 4225,
      "Ġice": 4226,
      "Ġgaze": 4227,
      "garet": 4228,
      "ugg": 4229,
      "standing": 4230,
      "Ġacquaint": 4231,
      "Ġori": 4232,
      "ule": 4233,
      "pless": 4234,
      "ital": 4235,
      "Ġhol": 4236,
      "hum": 4237,
      "eless": 4238,
      "ĠĠĠĠĠ": 4239,
      "Ġanimal": 4240,
      "Ġhidden": 4241,
      "Ġgreatest": 4242,
      "Ġslept": 4243,
      "Ġhole": 4244,
      "cience": 4245,
      "ams": 4246,
      "Ġasking": 4247,
      "orious": 4248,
      "being": 4249,
      "?--": 4250,
      "Ġpushed": 4251,
      "Ġconsequ": 4252,
      "took": 4253,
      "Ġrare": 4254,
      "Ġpure": 4255,
      "Ġdeg": 4256,
      "Ġceased": 4257,
      "ĠOnly": 4258,
      "Ġjob": 4259,
      "Ġgrim": 4260,
      "ral": 4261,
      "Ġlaughter": 4262,
      "Ġstreets": 4263,
      "Ġcommun": 4264,
      "Ġple": 4265,
      "esh": 4266,
      "iosity": 4267,
      "Ġsooner": 4268,
      "ĠDavid": 4269,
      "Ġfully": 4270,
      "Ġtaste": 4271,
      "ĠRichard": 4272,
      "Ġpot": 4273,
      "Ġspend": 4274,
      "Ġcred": 4275,
      "rows": 4276,
      "Ġserved": 4277,
      "ĠTheir": 4278,
      "Ġheat": 4279,
      "Ġcrown": 4280,
      "Ġrapidly": 4281,
      "Ġrate": 4282,
      "three": 4283,
      "Ġfer": 4284,
      "atures": 4285,
      "Ġoccurred": 4286,
      "Ġyards": 4287,
      "Ġchap": 4288,
      "Ġintro": 4289,
      "inting": 4290,
      "Ġserve": 4291,
      "ĠCharles": 4292,
      "Ġleading": 4293,
      "Ġbuilding": 4294,
      "Le": 4295,
      "Ġlistening": 4296,
      "Ġgather": 4297,
      "arry": 4298,
      "exp": 4299,
      "Ġet": 4300,
      "Ġsomewhere": 4301,
      "Ġsuf": 4302,
      "Ġma": 4303,
      "ĠJean": 4304,
      "Ġrejo": 4305,
      "Ġextreme": 4306,
      "Ġinj": 4307,
      "Ġleaned": 4308,
      "Ġcareful": 4309,
      "Ġdreadful": 4310,
      "velop": 4311,
      "Ġclever": 4312,
      "Ġweight": 4313,
      "tle": 4314,
      "Ġindign": 4315,
      "Ġpeculiar": 4316,
      "Ġaffairs": 4317,
      "Ġmurder": 4318,
      "ĠRose": 4319,
      "ESS": 4320,
      "Ġmessage": 4321,
      "sil": 4322,
      "Ġfold": 4323,
      "cing": 4324,
      "Ġbirth": 4325,
      "Ġfalling": 4326,
      "war": 4327,
      "fee": 4328,
      "master": 4329,
      "Ġpieces": 4330,
      "Ġspace": 4331,
      "ranged": 4332,
      "Ġsinging": 4333,
      "atic": 4334,
      "ĠStreet": 4335,
      "ID": 4336,
      "Qu": 4337,
      "Ġflung": 4338,
      "Ġstage": 4339,
      "Ġdawn": 4340,
      "isc": 4341,
      "Ġcarrying": 4342,
      "ugh": 4343,
      "mend": 4344,
      "Ġdeeply": 4345,
      "wed": 4346,
      "hamed": 4347,
      "Ġentertain": 4348,
      "utenant": 4349,
      "Ġweary": 4350,
      "mount": 4351,
      "Ġtear": 4352,
      "ieved": 4353,
      "Ã¨": 4354,
      "Ġcollect": 4355,
      "Ġprisoner": 4356,
      "theless": 4357,
      "ĠBrown": 4358,
      "ĠHam": 4359,
      "ouring": 4360,
      "ĠJan": 4361,
      "ĠSus": 4362,
      "Ġaud": 4363,
      "ander": 4364,
      "Ġthorough": 4365,
      "osom": 4366,
      "Ġvarious": 4367,
      "ifferent": 4368,
      "Ġsomebody": 4369,
      "Ġpersons": 4370,
      "ingu": 4371,
      "Ġassured": 4372,
      "Ġregular": 4373,
      "Mad": 4374,
      "Ġstars": 4375,
      "rate": 4376,
      "Ġstead": 4377,
      "SE": 4378,
      "Ġcaut": 4379,
      "Ġlake": 4380,
      "Ġskin": 4381,
      "lot": 4382,
      "Ġpossession": 4383,
      "ajesty": 4384,
      "Ġmeal": 4385,
      "Ġrocks": 4386,
      "Ġproceed": 4387,
      "Ġbought": 4388,
      "Ġlone": 4389,
      "ĠPet": 4390,
      "Ġcheek": 4391,
      "!âĢĻ": 4392,
      "ths": 4393,
      "OT": 4394,
      "arse": 4395,
      "ANT": 4396,
      "Ġdangerous": 4397,
      "Ġflight": 4398,
      "Ġgets": 4399,
      "Ġmountains": 4400,
      "Ġcastle": 4401,
      "Ġtempt": 4402,
      "Ġcomb": 4403,
      "Ġlies": 4404,
      "Ġorigin": 4405,
      "Ġmile": 4406,
      "Ġinfluence": 4407,
      "Ġprompt": 4408,
      "Ġrolled": 4409,
      "coming": 4410,
      "Ġsteam": 4411,
      "course": 4412,
      "Ġfairly": 4413,
      "turned": 4414,
      "ctions": 4415,
      "Ġremind": 4416,
      "Ġbegun": 4417,
      "gress": 4418,
      "Ġinstantly": 4419,
      "Ġpersu": 4420,
      "itable": 4421,
      "Enter": 4422,
      "Ġdifference": 4423,
      "Ġimagine": 4424,
      "against": 4425,
      "Ġgoin": 4426,
      "Ġpriest": 4427,
      "Ġflew": 4428,
      "Ġshape": 4429,
      "Ġmood": 4430,
      "herself": 4431,
      "ĠMac": 4432,
      "ems": 4433,
      "ĠGrand": 4434,
      "ustomed": 4435,
      "roy": 4436,
      "Ġapparently": 4437,
      "omen": 4438,
      "ien": 4439,
      "Ġqueen": 4440,
      "ĠChe": 4441,
      "Ġchamber": 4442,
      "agement": 4443,
      "morning": 4444,
      "ĠFar": 4445,
      "ĠOur": 4446,
      "âĢķ": 4447,
      "Ġtale": 4448,
      "Ġpill": 4449,
      "ference": 4450,
      "Ġpuzz": 4451,
      "Ġtur": 4452,
      "ribut": 4453,
      "Ġwound": 4454,
      "Ġnamed": 4455,
      "ĠHelen": 4456,
      "arted": 4457,
      "aur": 4458,
      "Ġmagn": 4459,
      "wing": 4460,
      "Ġprince": 4461,
      "Ġcrew": 4462,
      "ĠHouse": 4463,
      "Ġtent": 4464,
      "Ġaid": 4465,
      "Ġdeb": 4466,
      "Ġdying": 4467,
      "Ġsighed": 4468,
      "Ġadmitted": 4469,
      "urd": 4470,
      "âĢĶâĢĿ": 4471,
      "Ġtrembling": 4472,
      "Or": 4473,
      "whe": 4474,
      "Ġdetect": 4475,
      "Ġnine": 4476,
      "uted": 4477,
      "Ġentrance": 4478,
      "Ġheight": 4479,
      "Ġignor": 4480,
      "Ġstrike": 4481,
      "Ġfrequ": 4482,
      "Ġswept": 4483,
      "Ġfortun": 4484,
      "ĠCr": 4485,
      "anything": 4486,
      "Ġpet": 4487,
      "serv": 4488,
      "interest": 4489,
      "irgin": 4490,
      "Ġjustice": 4491,
      "izing": 4492,
      "case": 4493,
      "Ġworn": 4494,
      "Ġtask": 4495,
      "liz": 4496,
      "Ġwhist": 4497,
      "Ġgives": 4498,
      "LA": 4499,
      "ĠWil": 4500,
      "stru": 4501,
      "Ġformed": 4502,
      "asket": 4503,
      "Ġsatisfaction": 4504,
      "Ġrage": 4505,
      "Ġended": 4506,
      "Ġsomehow": 4507,
      "ggy": 4508,
      "ik": 4509,
      "ium": 4510,
      "opp": 4511,
      "once": 4512,
      "enough": 4513,
      "Ġsell": 4514,
      "ĠCour": 4515,
      "ĠRome": 4516,
      "Ġthinks": 4517,
      "Ġgenerally": 4518,
      "Ġgods": 4519,
      "stone": 4520,
      "ĠSpan": 4521,
      "dr": 4522,
      "Ġstiff": 4523,
      "ĠNever": 4524,
      "table": 4525,
      "Ġforehead": 4526,
      "Ġproperty": 4527,
      "Ġpolice": 4528,
      "Ġafford": 4529,
      "Ġgroup": 4530,
      "Ġhungry": 4531,
      "Ġappeal": 4532,
      "imate": 4533,
      "Ġmidst": 4534,
      "--âĢĿ": 4535,
      "white": 4536,
      "Ġconduct": 4537,
      "Ġrag": 4538,
      "Ġforty": 4539,
      "Ġpop": 4540,
      "Ġrope": 4541,
      "bu": 4542,
      "incip": 4543,
      "oops": 4544,
      "Ġdelay": 4545,
      "why": 4546,
      "Every": 4547,
      "Ġcomfortable": 4548,
      "orous": 4549,
      "Ġhither": 4550,
      "ĠEx": 4551,
      "Ġlanguage": 4552,
      "Ġmovement": 4553,
      "Ġshown": 4554,
      "ext": 4555,
      "Ġdared": 4556,
      "upid": 4557,
      "AND": 4558,
      "Ġscorn": 4559,
      "Ġstretched": 4560,
      "ĠHall": 4561,
      "Ġnurse": 4562,
      "yes": 4563,
      "Ġtied": 4564,
      "Ġadvantage": 4565,
      "bid": 4566,
      "ella": 4567,
      "Ġciv": 4568,
      "Ġdistr": 4569,
      "itch": 4570,
      "Ġcountenance": 4571,
      "Ġinformation": 4572,
      "Ġappl": 4573,
      "Ġhaste": 4574,
      "erc": 4575,
      "John": 4576,
      "Ġecho": 4577,
      "oh": 4578,
      "Ġjealous": 4579,
      "Ġshining": 4580,
      "ache": 4581,
      "Ġpolit": 4582,
      "IM": 4583,
      "Ġtruly": 4584,
      "asons": 4585,
      "Ġknife": 4586,
      "Ġfriendly": 4587,
      "IG": 4588,
      "Ġdom": 4589,
      "arewell": 4590,
      "Ġflower": 4591,
      "acc": 4592,
      "mist": 4593,
      "ĠMonsieur": 4594,
      "atched": 4595,
      "Ġ5": 4596,
      "Ġbowed": 4597,
      "pelled": 4598,
      "Ġhastily": 4599,
      "Ġapproached": 4600,
      "Ġspark": 4601,
      "Ġhigher": 4602,
      "Ġresolved": 4603,
      "unted": 4604,
      "peror": 4605,
      "home": 4606,
      "Ġbetray": 4607,
      "Ġsympathy": 4608,
      "fulness": 4609,
      "eff": 4610,
      "Ġlighted": 4611,
      "Ġinstinct": 4612,
      "Ġdouble": 4613,
      "ourn": 4614,
      "ĠThom": 4615,
      "rs": 4616,
      "Ġfighting": 4617,
      "Ġdwell": 4618,
      "andon": 4619,
      "eav": 4620,
      "order": 4621,
      "Ġsaf": 4622,
      "Ġaccompl": 4623,
      "illa": 4624,
      "Ġdirectly": 4625,
      "ĠHave": 4626,
      "Ġhospit": 4627,
      "esc": 4628,
      "ĠWal": 4629,
      "Ġanxiety": 4630,
      "Ġmercy": 4631,
      "fact": 4632,
      "Ġevents": 4633,
      "ĠGreat": 4634,
      "ĠĠĠĠĠĠĠĠĠĠĠĠĠ": 4635,
      "Ġancient": 4636,
      "Ġvague": 4637,
      "Ġexcellent": 4638,
      "Ġproceeded": 4639,
      "Ġfrank": 4640,
      "Ġpipe": 4641,
      "Ġbridge": 4642,
      "Ġburied": 4643,
      "ointment": 4644,
      "foll": 4645,
      "Ġsacr": 4646,
      "Ġknock": 4647,
      "Ġdesired": 4648,
      "Ġbal": 4649,
      "inger": 4650,
      "hin": 4651,
      "hod": 4652,
      "aps": 4653,
      "itty": 4654,
      "Ġspecial": 4655,
      "Ġvast": 4656,
      "Ġarrange": 4657,
      "Ġpossessed": 4658,
      "Ġspect": 4659,
      "ints": 4660,
      "ĠWar": 4661,
      "Ġfo": 4662,
      "poss": 4663,
      "Ġmatch": 4664,
      "Ġescaped": 4665,
      "ĠLook": 4666,
      "Ġyell": 4667,
      "Ġchat": 4668,
      "Ġaccident": 4669,
      "Ġhorror": 4670,
      "Ġsob": 4671,
      "offee": 4672,
      "conc": 4673,
      "Ġseason": 4674,
      "abbit": 4675,
      "Ġtiny": 4676,
      "four": 4677,
      "Ġbosom": 4678,
      "ordinary": 4679,
      "hest": 4680,
      "Ġflesh": 4681,
      "Ġrepro": 4682,
      "Ġaloud": 4683,
      "Ġpounds": 4684,
      "Ġpin": 4685,
      "Ġprefer": 4686,
      "Ġtaught": 4687,
      "Ġworship": 4688,
      "Ġolder": 4689,
      "ample": 4690,
      "Ġforgive": 4691,
      "Ġoh": 4692,
      "Ġcrying": 4693,
      "Ġbrill": 4694,
      "Ġsank": 4695,
      "Ġfeared": 4696,
      "Ġease": 4697,
      "ication": 4698,
      "world": 4699,
      "Ġconfess": 4700,
      "tow": 4701,
      "Ġclo": 4702,
      "Ġsettle": 4703,
      "IUS": 4704,
      "Ġweap": 4705,
      "Ġsheep": 4706,
      "uz": 4707,
      "Ġfever": 4708,
      "Ġdriven": 4709,
      "Ġannounced": 4710,
      "Ġdiscover": 4711,
      "!_": 4712,
      "vin": 4713,
      "Ġfanc": 4714,
      "fam": 4715,
      "Sh": 4716,
      "cal": 4717,
      "Ġrang": 4718,
      "Ġpictures": 4719,
      "Ġwest": 4720,
      "ishop": 4721,
      "Ġbree": 4722,
      "vey": 4723,
      "Ġinstru": 4724,
      "Ġlit": 4725,
      "abel": 4726,
      "Ġflying": 4727,
      "Ġhopes": 4728,
      "Ġsucceeded": 4729,
      "aval": 4730,
      "inite": 4731,
      "Ġglory": 4732,
      "Ġinnocent": 4733,
      "met": 4734,
      "ĠHal": 4735,
      "Ġsounds": 4736,
      "Ġmud": 4737,
      "ception": 4738,
      "ns": 4739,
      "ilty": 4740,
      "Ġclouds": 4741,
      "uce": 4742,
      "Ġdoth": 4743,
      "Ġactually": 4744,
      "ifice": 4745,
      "panied": 4746,
      "Thank": 4747,
      "Ġwheel": 4748,
      "Ġsmell": 4749,
      "Ġbrothers": 4750,
      "Ġpalace": 4751,
      "fire": 4752,
      "pers": 4753,
      "Ġgest": 4754,
      "arr": 4755,
      "These": 4756,
      "Ġstaring": 4757,
      "Ġashamed": 4758,
      "ĠWhile": 4759,
      "Ġghost": 4760,
      "ĠMajor": 4761,
      "vy": 4762,
      "ĠStill": 4763,
      "Ġuttered": 4764,
      "ulse": 4765,
      "Ġsharply": 4766,
      "beaut": 4767,
      "Ġkindness": 4768,
      "saw": 4769,
      "Ġemotion": 4770,
      "Ġwondering": 4771,
      "Ġsplendid": 4772,
      "Ġpress": 4773,
      "better": 4774,
      "Ġpossibly": 4775,
      "\"--": 4776,
      "Ġdelighted": 4777,
      "atr": 4778,
      "Ġmanaged": 4779,
      "Ġrepres": 4780,
      "acqu": 4781,
      "ĠMore": 4782,
      "Ġsear": 4783,
      "Ġloves": 4784,
      "covered": 4785,
      "Ġblame": 4786,
      "perhaps": 4787,
      "Ġsuffered": 4788,
      "bow": 4789,
      "Ġusually": 4790,
      "Ġpersonal": 4791,
      "Ġoper": 4792,
      "ench": 4793,
      "Ġcompanions": 4794,
      "bers": 4795,
      "While": 4796,
      "oly": 4797,
      "Ġhesitated": 4798,
      "Ġsmooth": 4799,
      "armed": 4800,
      "Ġlonely": 4801,
      "inal": 4802,
      "Ġexcuse": 4803,
      "ese": 4804,
      "Ġthunder": 4805,
      "kerchief": 4806,
      "ims": 4807,
      "Ġbill": 4808,
      "Ġcuriosity": 4809,
      "Ġcolour": 4810,
      "ĠTO": 4811,
      "âĢľâĢĺ": 4812,
      "Ġunhappy": 4813,
      "Ġarrest": 4814,
      "Ġsounded": 4815,
      "Ġbra": 4816,
      "hern": 4817,
      "Ġdelicate": 4818,
      "care": 4819,
      "ads": 4820,
      "Ġchest": 4821,
      "Ġroyal": 4822,
      "ifting": 4823,
      "ere": 4824,
      "called": 4825,
      "many": 4826,
      "Ġimpro": 4827,
      "Ġoccupied": 4828,
      "Ġloving": 4829,
      "ilar": 4830,
      "ids": 4831,
      "Ġbegged": 4832,
      "ĠIN": 4833,
      "Ġarose": 4834,
      "Ġunable": 4835,
      "ĠEdward": 4836,
      "Ġjumped": 4837,
      "Ġyer": 4838,
      "Ġamount": 4839,
      "aling": 4840,
      "ĠMin": 4841,
      "uls": 4842,
      "Ġwaters": 4843,
      "Ġsupport": 4844,
      "lor": 4845,
      "Ġholy": 4846,
      "Ġguns": 4847,
      "Ġplans": 4848,
      "Ġtroubled": 4849,
      "Ġmamma": 4850,
      "usual": 4851,
      "rily": 4852,
      "Ġhanded": 4853,
      "quite": 4854,
      "Ġchoose": 4855,
      "Ġjew": 4856,
      "Ġinteresting": 4857,
      "aned": 4858,
      "Ġlights": 4859,
      "Ġclosely": 4860,
      "Ġintellig": 4861,
      "din": 4862,
      "oner": 4863,
      "ĠSqu": 4864,
      "Ġmach": 4865,
      "aws": 4866,
      "Ġgrate": 4867,
      "mo": 4868,
      "Ġdistinct": 4869,
      "Ġordinary": 4870,
      "isher": 4871,
      "ĠBesides": 4872,
      "Ġhell": 4873,
      "enger": 4874,
      "Ġriding": 4875,
      "ĠNorth": 4876,
      "ĠAre": 4877,
      "Ġspare": 4878,
      "retch": 4879,
      "ĠSat": 4880,
      "Ġbrow": 4881,
      "Ġadventure": 4882,
      "Ġanyone": 4883,
      "sub": 4884,
      "hands": 4885,
      "iod": 4886,
      "Ġ&": 4887,
      "Ġyounger": 4888,
      "GE": 4889,
      "iance": 4890,
      "Ġfruit": 4891,
      "Nothing": 4892,
      "uses": 4893,
      "Ġsport": 4894,
      "bye": 4895,
      "ĠMargaret": 4896,
      "Ġtest": 4897,
      "Ġenc": 4898,
      "Ġguests": 4899,
      "Ġfierce": 4900,
      "Ġblaz": 4901,
      "AB": 4902,
      "See": 4903,
      "Ġmiserable": 4904,
      "knew": 4905,
      "Ġlack": 4906,
      "Ġevidence": 4907,
      "Ġadvanced": 4908,
      "ĠAnne": 4909,
      "ulf": 4910,
      "ĠCal": 4911,
      "Ġparents": 4912,
      "ION": 4913,
      "lex": 4914,
      "Ġinn": 4915,
      "Ġaddress": 4916,
      "Ġvig": 4917,
      "Ġfought": 4918,
      "reck": 4919,
      "sem": 4920,
      "find": 4921,
      "Ġcop": 4922,
      ".)": 4923,
      "born": 4924,
      "Ġmystery": 4925,
      "Ġaccording": 4926,
      "Ġarrival": 4927,
      "Ġsavage": 4928,
      "bout": 4929,
      "ially": 4930,
      "Ġboats": 4931,
      "Ġcolor": 4932,
      "urning": 4933,
      "Ġthanks": 4934,
      "Ġengine": 4935,
      "lar": 4936,
      "',": 4937,
      "Ġprecious": 4938,
      "Ġcrit": 4939,
      "Ġsuffering": 4940,
      "Ġparts": 4941,
      "Ġfeatures": 4942,
      "ĠGrace": 4943,
      "Ġfem": 4944,
      "Ġrush": 4945,
      "Ġstones": 4946,
      "Ġyard": 4947,
      "Ġlamp": 4948,
      "Ġprayer": 4949,
      "chair": 4950,
      "Ġgri": 4951,
      "ĠMont": 4952,
      "Ġlest": 4953,
      "stead": 4954,
      "cis": 4955,
      "vation": 4956,
      "Ġbod": 4957,
      "Ġrow": 4958,
      "Ġstrang": 4959,
      "ĠBel": 4960,
      "left": 4961,
      "ĠPhilip": 4962,
      "resp": 4963,
      "Ġrear": 4964,
      "Ġproof": 4965,
      "ĠGreen": 4966,
      "Ay": 4967,
      "Ġcord": 4968,
      "Ġstartled": 4969,
      "Ġjump": 4970,
      "Ġnervous": 4971,
      "Ġsafety": 4972,
      "lau": 4973,
      "line": 4974,
      "Ġunex": 4975,
      "Ġmilk": 4976,
      "Ġenthus": 4977,
      "Ġmarked": 4978,
      "Ġroll": 4979,
      "ĠHim": 4980,
      "Ġant": 4981,
      "ĊĊĠĠĠĠĠ": 4982,
      "shine": 4983,
      "Ġcontempt": 4984,
      "barr": 4985,
      "Ġrum": 4986,
      "berty": 4987,
      "Ġhom": 4988,
      "anny": 4989,
      "abs": 4990,
      "Ġguide": 4991,
      "da": 4992,
      "pel": 4993,
      "Ġwithd": 4994,
      "ulated": 4995,
      "ĠWhite": 4996,
      "Tell": 4997,
      "Ġprospect": 4998,
      "Ġnative": 4999,
      "Which": 5000,
      "Ġslightly": 5001,
      "quar": 5002,
      "between": 5003,
      "Ġmerry": 5004,
      "UL": 5005,
      "Ġamid": 5006,
      "Ġmounted": 5007,
      "Ġtoss": 5008,
      "swe": 5009,
      "perior": 5010,
      "remon": 5011,
      "note": 5012,
      "Ġabsence": 5013,
      "Ġhanging": 5014,
      "Ġsuspicion": 5015,
      "Ġminister": 5016,
      "ĠOnce": 5017,
      "Ġmysterious": 5018,
      "Ġdi": 5019,
      "agger": 5020,
      "Ġdaily": 5021,
      "ĊĊĠĠĠĠĠĠ": 5022,
      "Ġmentioned": 5023,
      "Thou": 5024,
      "Ġenemies": 5025,
      "Ġcrack": 5026,
      "Ġcompletely": 5027,
      "Ġsore": 5028,
      "Ġham": 5029,
      "break": 5030,
      "Ġsne": 5031,
      "Ġfreed": 5032,
      "Ġrul": 5033,
      "boat": 5034,
      "ĠChurch": 5035,
      "Bec": 5036,
      "Ġstories": 5037,
      "Ġcoast": 5038,
      "hearted": 5039,
      "Ġstayed": 5040,
      "Ġbringing": 5041,
      "venge": 5042,
      "Ġpresented": 5043,
      "Ġbay": 5044,
      "ĠCha": 5045,
      "Ġvalue": 5046,
      "ĠHowever": 5047,
      "almost": 5048,
      "Ġelder": 5049,
      "ĠSim": 5050,
      "Ġabrupt": 5051,
      "Ġamb": 5052,
      "ĠHigh": 5053,
      "Ġsevere": 5054,
      "ggs": 5055,
      "Ġfled": 5056,
      "ĠCor": 5057,
      "Ġcrim": 5058,
      "ĠTwo": 5059,
      "Ġprice": 5060,
      "Ġfields": 5061,
      "Ġrisk": 5062,
      "Ġpos": 5063,
      "aches": 5064,
      "Ġcottage": 5065,
      "ipping": 5066,
      "Ġsang": 5067,
      "sk": 5068,
      "told": 5069,
      "erves": 5070,
      "Ġtit": 5071,
      "Ġotherwise": 5072,
      "Ġrust": 5073,
      "Our": 5074,
      "gon": 5075,
      "Ġclub": 5076,
      "Ġcho": 5077,
      "ĠWould": 5078,
      "Ġhelpless": 5079,
      "iamond": 5080,
      "Ġadmit": 5081,
      "Ġgazing": 5082,
      "Ġalarm": 5083,
      "osop": 5084,
      "Ġspr": 5085,
      "Because": 5086,
      "Nor": 5087,
      "Ġexplan": 5088,
      "hur": 5089,
      "Ġuh": 5090,
      "Ġemp": 5091,
      "Ġgrie": 5092,
      "Ġswung": 5093,
      "gone": 5094,
      "Ġgrad": 5095,
      "Ġaccepted": 5096,
      "rounded": 5097,
      "Ġnaturally": 5098,
      "ĠLouis": 5099,
      "yet": 5100,
      "ita": 5101,
      "Ġupper": 5102,
      "geant": 5103,
      "iments": 5104,
      "Ġreward": 5105,
      "Ġfill": 5106,
      "hon": 5107,
      "Ġunknown": 5108,
      "Ġamuse": 5109,
      "ĠPolly": 5110,
      "ounce": 5111,
      "Br": 5112,
      "Ġeh": 5113,
      "Ġarranged": 5114,
      "Ġleaning": 5115,
      "aunt": 5116,
      "Ġshock": 5117,
      "icks": 5118,
      "Ġcrept": 5119,
      "Ġbearing": 5120,
      "Ġwings": 5121,
      "adv": 5122,
      "Ġcrime": 5123,
      "Ġclearly": 5124,
      "ĠIr": 5125,
      "Ġshru": 5126,
      "Ġdarling": 5127,
      "Ġstruggle": 5128,
      "ĠBefore": 5129,
      "chant": 5130,
      "Ġfeast": 5131,
      "Ġrealized": 5132,
      "Ġsaddle": 5133,
      "ĠBo": 5134,
      "fell": 5135,
      "Ġshowing": 5136,
      "Ġwra": 5137,
      "Ġencour": 5138,
      "othe": 5139,
      "ĠSha": 5140,
      "ref": 5141,
      "Ġdesk": 5142,
      "Ġequal": 5143,
      "piece": 5144,
      "Ġflag": 5145,
      "Ġcivil": 5146,
      "Ġtrou": 5147,
      "osen": 5148,
      "Ġjest": 5149,
      "Tom": 5150,
      "wl": 5151,
      "Ġsons": 5152,
      "Ġpossess": 5153,
      "Ġregarded": 5154,
      "Ġtrip": 5155,
      "Ġwidow": 5156,
      "Ġlock": 5157,
      "UT": 5158,
      "Ġrifle": 5159,
      "Ġmeat": 5160,
      "Ġbade": 5161,
      "Ġbase": 5162,
      "Ġpatient": 5163,
      "Ġshone": 5164,
      "barrass": 5165,
      "ĠTell": 5166,
      "Ġcoffee": 5167,
      "Ġsleeping": 5168,
      "Ġneeds": 5169,
      "pic": 5170,
      "asked": 5171,
      "Ġsilk": 5172,
      "Ġsufficient": 5173,
      "ĠĠĠĠĠĠĠ": 5174,
      "Yet": 5175,
      "mbers": 5176,
      "ĠLucy": 5177,
      "Ġfamous": 5178,
      "Ġshoes": 5179,
      "prom": 5180,
      "onsense": 5181,
      "Ġcharming": 5182,
      "Ġplainly": 5183,
      "upp": 5184,
      "Ġrested": 5185,
      "KING": 5186,
      "Ġacquaintance": 5187,
      "Ġpan": 5188,
      "Ġgained": 5189,
      "Ġcircle": 5190,
      "urope": 5191,
      "icken": 5192,
      "Ġdignity": 5193,
      "Ġrom": 5194,
      "Ġfriendship": 5195,
      "Ġeast": 5196,
      "keeper": 5197,
      "Ġrule": 5198,
      "Bl": 5199,
      "Ġretreat": 5200,
      "Ġmaybe": 5201,
      "hib": 5202,
      "orse": 5203,
      "ĠCle": 5204,
      "Ġexistence": 5205,
      "ĠNed": 5206,
      "Ġexec": 5207,
      "Ġcorre": 5208,
      "Ġspl": 5209,
      "Ġintention": 5210,
      "Poor": 5211,
      "Ġdepend": 5212,
      "real": 5213,
      "Ġbeard": 5214,
      "ĠCast": 5215,
      "Ġswear": 5216,
      "pleasant": 5217,
      "win": 5218,
      "Ġgain": 5219,
      "herd": 5220,
      "Ġdreams": 5221,
      "Ġconscience": 5222,
      "lady": 5223,
      "Ġprincip": 5224,
      "Ġcomr": 5225,
      "Ġperiod": 5226,
      "Ġendeav": 5227,
      "ege": 5228,
      "Ġsche": 5229,
      "abb": 5230,
      "pie": 5231,
      "Ġforeign": 5232,
      "ĠBritish": 5233,
      "Ġunfortun": 5234,
      "Ġinquir": 5235,
      "satisf": 5236,
      "Ġmate": 5237,
      "dark": 5238,
      "others": 5239,
      "uts": 5240,
      "rived": 5241,
      "Ġannoy": 5242,
      "Ġshake": 5243,
      "ertainly": 5244,
      "Ġfifteen": 5245,
      "ball": 5246,
      "bon": 5247,
      "Ġremoved": 5248,
      "maid": 5249,
      "Ġreturning": 5250,
      "ĠAnn": 5251,
      "ĠMartin": 5252,
      "ĠAlice": 5253,
      "eding": 5254,
      "Ġcart": 5255,
      "Ġanimals": 5256,
      "ooped": 5257,
      "Ġadvance": 5258,
      "ipper": 5259,
      "otted": 5260,
      "myself": 5261,
      "Ġdat": 5262,
      "Ġships": 5263,
      "Ġbuck": 5264,
      "oseph": 5265,
      "Ġembr": 5266,
      "Was": 5267,
      "ĠSil": 5268,
      "Ġdistingu": 5269,
      "ĠGover": 5270,
      "ums": 5271,
      "ugust": 5272,
      "UN": 5273,
      "far": 5274,
      "Ġimpression": 5275,
      "ĠĠĠĠĠĠĠĠĠĠĠĠĠĠĠ": 5276,
      "Ġmater": 5277,
      "acon": 5278,
      "ĠTim": 5279,
      "mean": 5280,
      "Ġshaking": 5281,
      "Ġterms": 5282,
      "Ġaim": 5283,
      "ĠTe": 5284,
      "Ġsigns": 5285,
      "until": 5286,
      "erning": 5287,
      "Ġtones": 5288,
      "Ġhorn": 5289,
      "Ġemer": 5290,
      "Ġfaithful": 5291,
      "sey": 5292,
      "Ġhal": 5293,
      "oser": 5294,
      "Ġtum": 5295,
      "iently": 5296,
      "pur": 5297,
      "ental": 5298,
      "rett": 5299,
      "gentle": 5300,
      "appeared": 5301,
      "Ġvision": 5302,
      "Ġfunny": 5303,
      "phe": 5304,
      "ĠEliz": 5305,
      "aver": 5306,
      "Ġrespond": 5307,
      "Ġsty": 5308,
      "Ġpapa": 5309,
      "Ġresc": 5310,
      "iel": 5311,
      "ĠLove": 5312,
      "zed": 5313,
      "Ġperform": 5314,
      "Ġwaves": 5315,
      "uns": 5316,
      "TR": 5317,
      "Ġ6": 5318,
      "taken": 5319,
      "ico": 5320,
      "Ġfee": 5321,
      "clam": 5322,
      "ĠVan": 5323,
      "Ġstands": 5324,
      "Ġwretched": 5325,
      "black": 5326,
      "Ġsteady": 5327,
      "Ġexchan": 5328,
      "ĠSuch": 5329,
      "Ġpink": 5330,
      "po": 5331,
      "cles": 5332,
      "rier": 5333,
      "Ġawake": 5334,
      "brary": 5335,
      "Ġguilty": 5336,
      "Ġrequest": 5337,
      "Ġcared": 5338,
      "Ġdem": 5339,
      "Exit": 5340,
      "Con": 5341,
      "Ġresist": 5342,
      "Ġpowerful": 5343,
      "ĠSouth": 5344,
      "post": 5345,
      "ĠJud": 5346,
      "ĠJew": 5347,
      "othy": 5348,
      "ldom": 5349,
      "Ġ8": 5350,
      "eunt": 5351,
      "children": 5352,
      "having": 5353,
      "reason": 5354,
      "Ġhunt": 5355,
      "Ġrecollect": 5356,
      "Ġestab": 5357,
      "ilst": 5358,
      "Ġprocess": 5359,
      "Ġstout": 5360,
      "ĠJes": 5361,
      "Ġshadows": 5362,
      "voice": 5363,
      "Ġcong": 5364,
      "Ġliberty": 5365,
      "steps": 5366,
      "Ġparticularly": 5367,
      "Ġwave": 5368,
      "icate": 5369,
      "Ġwarning": 5370,
      "Ġshouldn": 5371,
      "Ġmal": 5372,
      "Ġcries": 5373,
      "ĠLy": 5374,
      "Ġcell": 5375,
      "Ġlocked": 5376,
      "ĠThou": 5377,
      "ĠCa": 5378,
      "rison": 5379,
      "Ġate": 5380,
      "Ġartic": 5381,
      "sent": 5382,
      "vo": 5383,
      "Ġshed": 5384,
      "Ġawa": 5385,
      "Christ": 5386,
      "CE": 5387,
      "ĠBetty": 5388,
      "abeth": 5389,
      "Ġeduc": 5390,
      "nel": 5391,
      "Ġheavily": 5392,
      "Ġnewsp": 5393,
      "awn": 5394,
      "amps": 5395,
      "ĠBert": 5396,
      "iolet": 5397,
      "strong": 5398,
      "Ġshell": 5399,
      "Ġexpressed": 5400,
      "istic": 5401,
      "iture": 5402,
      "pent": 5403,
      "ĠSmith": 5404,
      "Ġcredit": 5405,
      "ĠCourt": 5406,
      "Ġclimbed": 5407,
      "Ġinsp": 5408,
      "Ġteach": 5409,
      "olog": 5410,
      "Ġflash": 5411,
      "Ġbreaking": 5412,
      "PH": 5413,
      "Ġconsiderable": 5414,
      "ancholy": 5415,
      "Ġdish": 5416,
      "Ġmarch": 5417,
      "Ġswim": 5418,
      "Ġrequired": 5419,
      "Eng": 5420,
      "fr": 5421,
      "eman": 5422,
      "uced": 5423,
      "Ġrespons": 5424,
      "Ġwagon": 5425,
      "lying": 5426,
      "iven": 5427,
      "Ġaddressed": 5428,
      "Ġrecognized": 5429,
      "suff": 5430,
      "Ġpisto": 5431,
      "near": 5432,
      "Ġaccustomed": 5433,
      "ĊĠĠĠĠĠĠĠĠĠĠĠ": 5434,
      "Ġabsolutely": 5435,
      "call": 5436,
      "sue": 5437,
      "ARD": 5438,
      "Ġtreated": 5439,
      "done": 5440,
      "Ġcraft": 5441,
      "utch": 5442,
      "Ġbottle": 5443,
      "country": 5444,
      "Would": 5445,
      "rian": 5446,
      ".âĢĶ": 5447,
      "Ġrude": 5448,
      "Ġevident": 5449,
      "achel": 5450,
      "Ġunexpected": 5451,
      "ouch": 5452,
      "Ġlog": 5453,
      "obody": 5454,
      "Ġsacred": 5455,
      "Ġintend": 5456,
      "ĠEr": 5457,
      "ĠThus": 5458,
      "Ġener": 5459,
      "iot": 5460,
      "Ġconcerned": 5461,
      "list": 5462,
      "Ġcave": 5463,
      "expl": 5464,
      "necess": 5465,
      "inced": 5466,
      "everything": 5467,
      "grace": 5468,
      "Ġpolic": 5469,
      "inks": 5470,
      "coat": 5471,
      "inn": 5472,
      "Ġknocked": 5473,
      "Ġrecord": 5474,
      "Ġtravel": 5475,
      "Ġinsisted": 5476,
      "Ġinclined": 5477,
      "Ġrank": 5478,
      "ĠJimmy": 5479,
      "ago": 5480,
      "Ġcattle": 5481,
      "yard": 5482,
      "matter": 5483,
      "amped": 5484,
      "lla": 5485,
      "mis": 5486,
      "Only": 5487,
      "Ġwishes": 5488,
      "ENE": 5489,
      "ensive": 5490,
      "Ġaccompanied": 5491,
      "Ġgrasp": 5492,
      "xed": 5493,
      "Ġses": 5494,
      "ndered": 5495,
      "brought": 5496,
      "Ġfirmly": 5497,
      "hess": 5498,
      "Ġguest": 5499,
      "Ġurged": 5500,
      "itated": 5501,
      "Ġfix": 5502,
      "Ġexerc": 5503,
      "Ġdancing": 5504,
      "duce": 5505,
      "Ġvic": 5506,
      "ault": 5507,
      "Ġapproach": 5508,
      "Ġ16": 5509,
      "ĠCHAPTER": 5510,
      "Ġshade": 5511,
      "Ġburden": 5512,
      "ĠKe": 5513,
      "oms": 5514,
      "themselves": 5515,
      "Ġado": 5516,
      "Ġboots": 5517,
      "Ġrefuse": 5518,
      "bor": 5519,
      "Ġrib": 5520,
      "utter": 5521,
      "Ġwarri": 5522,
      "vil": 5523,
      "rock": 5524,
      "bury": 5525,
      "Ġphil": 5526,
      "Ġven": 5527,
      "aks": 5528,
      "Ġraise": 5529,
      "ĠEve": 5530,
      "Ġutterly": 5531,
      "De": 5532,
      "Ġburned": 5533,
      "cean": 5534,
      "Ġsisters": 5535,
      "Ġtriumph": 5536,
      "Take": 5537,
      "Ġintense": 5538,
      "Ġpier": 5539,
      "Ġchoice": 5540,
      "Ġflashed": 5541,
      "urance": 5542,
      "apping": 5543,
      "oiselle": 5544,
      "Exeunt": 5545,
      "fortune": 5546,
      "olt": 5547,
      "rog": 5548,
      "Ġappreci": 5549,
      "anches": 5550,
      "Am": 5551,
      "sus": 5552,
      "since": 5553,
      "Ġdeparture": 5554,
      "Ġhence": 5555,
      "Ġdesperate": 5556,
      "Ġproduced": 5557,
      "Ġsurface": 5558,
      "Ġhunting": 5559,
      "ĠBoy": 5560,
      "Ġcontrary": 5561,
      "essie": 5562,
      "Jack": 5563,
      "ician": 5564,
      "Ġneat": 5565,
      "Ġug": 5566,
      "Ġgit": 5567,
      "anch": 5568,
      "Ġlightly": 5569,
      "Ġoath": 5570,
      "Ġbasket": 5571,
      "Ġperceived": 5572,
      "Ġrad": 5573,
      "Ġslave": 5574,
      "Ġash": 5575,
      "ĠII": 5576,
      "Ġthoroughly": 5577,
      "bour": 5578,
      "Ġwaist": 5579,
      "Ġwaste": 5580,
      "ĠHugh": 5581,
      "elly": 5582,
      "Ġslip": 5583,
      "lection": 5584,
      "ĠFort": 5585,
      "Ġcheerful": 5586,
      "same": 5587,
      "Captain": 5588,
      "Ġfigures": 5589,
      "alian": 5590,
      "Ġexha": 5591,
      "Ġhousehold": 5592,
      "Ġpil": 5593,
      "mes": 5594,
      "past": 5595,
      "Ġsen": 5596,
      "hast": 5597,
      "Ġtells": 5598,
      "Ġframe": 5599,
      "ĠLu": 5600,
      "Before": 5601,
      "Ġliter": 5602,
      "Ġmeasure": 5603,
      "ĠMic": 5604,
      "Ġnation": 5605,
      "Even": 5606,
      "astic": 5607,
      "Ġsilly": 5608,
      "name": 5609,
      "ceiving": 5610,
      "ige": 5611,
      "Ġthine": 5612,
      "Ġinformed": 5613,
      "ĠAny": 5614,
      "Ġavoid": 5615,
      "dire": 5616,
      "Ġchin": 5617,
      "Ġswall": 5618,
      "Ġattitude": 5619,
      "atory": 5620,
      "talk": 5621,
      "Ġadmiration": 5622,
      "years": 5623,
      "Ġmaiden": 5624,
      "Ġfired": 5625,
      "Ġbadly": 5626,
      "ĠFair": 5627,
      "jud": 5628,
      "emoiselle": 5629,
      "oubted": 5630,
      "ĠPrincess": 5631,
      "ĠXV": 5632,
      "ĠRuth": 5633,
      "Ġcloth": 5634,
      "Ġmidnight": 5635,
      "edy": 5636,
      "ĠMal": 5637,
      "box": 5638,
      "Ġlap": 5639,
      "Ġdisplay": 5640,
      "Ġbecoming": 5641,
      "Ġpuzzled": 5642,
      "die": 5643,
      "Ġenjoyed": 5644,
      "Ġswiftly": 5645,
      "ĠCam": 5646,
      "Ġcard": 5647,
      "ĠEurope": 5648,
      "cond": 5649,
      "ĠVer": 5650,
      "Ġastonishment": 5651,
      "fessor": 5652,
      "Ġpatience": 5653,
      "Ġideas": 5654,
      "irit": 5655,
      ";\"": 5656,
      "Tr": 5657,
      "SC": 5658,
      "ĠLong": 5659,
      "Ġlevel": 5660,
      "Ġinterview": 5661,
      "aries": 5662,
      "Ġpraise": 5663,
      "Pr": 5664,
      "soci": 5665,
      "Ġplun": 5666,
      "hael": 5667,
      "Ġrecovered": 5668,
      "Ġconfusion": 5669,
      "Ġimper": 5670,
      "question": 5671,
      "Lord": 5672,
      "utation": 5673,
      "INE": 5674,
      "ĠKate": 5675,
      "Ġbehold": 5676,
      "Ġdig": 5677,
      "Ġbride": 5678,
      "appear": 5679,
      "ĠThomas": 5680,
      "ability": 5681,
      "cir": 5682,
      "Ġtreasure": 5683,
      "Ġtroops": 5684,
      "Ġbrilliant": 5685,
      "Ġimportance": 5686,
      "Ġshelter": 5687,
      "wonder": 5688,
      "Ġgravely": 5689,
      "Nay": 5690,
      "Ġleaped": 5691,
      "Ġdining": 5692,
      "ca": 5693,
      "Ġgra": 5694,
      "Ġcalls": 5695,
      "va": 5696,
      "acity": 5697,
      "Ġlan": 5698,
      "ester": 5699,
      "Ġapproaching": 5700,
      "Ġmadam": 5701,
      "days": 5702,
      "live": 5703,
      "Ġsetting": 5704,
      "UC": 5705,
      "iqu": 5706,
      "lord": 5707,
      "net": 5708,
      "Ġbark": 5709,
      "Ġtick": 5710,
      "ĠCo": 5711,
      "Ġpoints": 5712,
      "ĠTur": 5713,
      "ama": 5714,
      "Ã±": 5715,
      "Ġhated": 5716,
      "verse": 5717,
      "itiz": 5718,
      "Ã¦": 5719,
      "ĠNothing": 5720,
      "Ġmanage": 5721,
      "rive": 5722,
      "Ġpartly": 5723,
      "Ġprofession": 5724,
      "ribly": 5725,
      "ĠAmerica": 5726,
      "oard": 5727,
      "ĠDel": 5728,
      "--_": 5729,
      "Ġclock": 5730,
      "glass": 5731,
      "Ġpace": 5732,
      "Ġcliff": 5733,
      "horse": 5734,
      "close": 5735,
      "mod": 5736,
      "Ġlift": 5737,
      "Ġlawyer": 5738,
      "lier": 5739,
      "----âĢĿ": 5740,
      "understand": 5741,
      "words": 5742,
      "ĠDen": 5743,
      "Ġnoon": 5744,
      "Ġefforts": 5745,
      "want": 5746,
      "Ġeating": 5747,
      "Ġconsent": 5748,
      "Ġreasons": 5749,
      "ĠEnter": 5750,
      "Ġdrunk": 5751,
      "Ġtrade": 5752,
      "Ġflame": 5753,
      "Ġsunshine": 5754,
      "fashion": 5755,
      "UE": 5756,
      "liness": 5757,
      "Ġcoward": 5758,
      "Ġbelief": 5759,
      "Ġneighbour": 5760,
      "ators": 5761,
      "Ġconqu": 5762,
      "eyed": 5763,
      "hour": 5764,
      "ĠSer": 5765,
      "Ġsteep": 5766,
      "Ġvirtue": 5767,
      "wall": 5768,
      "felt": 5769,
      "Ġbas": 5770,
      "stit": 5771,
      "Ġknights": 5772,
      "open": 5773,
      "Ġdegree": 5774,
      "Se": 5775,
      "Ġnights": 5776,
      "Ġbeach": 5777,
      "Ġparted": 5778,
      "Ġinstance": 5779,
      "Ġastonished": 5780,
      "Ġbelonged": 5781,
      "Ġstupid": 5782,
      "Ġsmart": 5783,
      "Ġugly": 5784,
      "Ġspell": 5785,
      "Ġsuperior": 5786,
      "Ġwisdom": 5787,
      "Ġchuck": 5788,
      "Ġdoorway": 5789,
      "Ġcoach": 5790,
      "Ġsees": 5791,
      "asing": 5792,
      "Ġconcluded": 5793,
      "ividual": 5794,
      "Ġpage": 5795,
      "ĠSar": 5796,
      "Ġmistaken": 5797,
      "Ġhandkerchief": 5798,
      "gram": 5799,
      "ĠThough": 5800,
      "gie": 5801,
      "Ġwhilst": 5802,
      "Ġshirt": 5803,
      "ef": 5804,
      "Ġabandon": 5805,
      "ĠDes": 5806,
      "Ġattract": 5807,
      "lay": 5808,
      "walk": 5809,
      "Ġknee": 5810,
      "Ġanyway": 5811,
      "Ġpolite": 5812,
      "Ġruin": 5813,
      "cknow": 5814,
      "Ġfeather": 5815,
      "present": 5816,
      "Ġdragged": 5817,
      "Ġconvinced": 5818,
      "Char": 5819,
      "rep": 5820,
      "Ġmock": 5821,
      "Ġexplanation": 5822,
      "stra": 5823,
      "Ġrapid": 5824,
      "mos": 5825,
      "Ġheels": 5826,
      "Ġpig": 5827,
      "Ġworry": 5828,
      "Ġhorrible": 5829,
      "Ġassure": 5830,
      "Ġshud": 5831,
      "Ġwedding": 5832,
      "Ġskill": 5833,
      "Ġwhenever": 5834,
      "aping": 5835,
      "ĠPark": 5836,
      "Ġflood": 5837,
      "Ġhollow": 5838,
      "Ġrig": 5839,
      "Ġnotes": 5840,
      "Ġfears": 5841,
      "erted": 5842,
      "Ġwooden": 5843,
      "Ġdeparted": 5844,
      "Ġsocial": 5845,
      "Ġcharm": 5846,
      "pherd": 5847,
      "Ġswell": 5848,
      "Ġleader": 5849,
      "Ġanywhere": 5850,
      "Ġjudgment": 5851,
      "OO": 5852,
      "Ġbon": 5853,
      "Ġstol": 5854,
      "Ġsteel": 5855,
      "thy": 5856,
      "empl": 5857,
      "ĠPal": 5858,
      "Ġexample": 5859,
      "ĠWin": 5860,
      "rather": 5861,
      "wit": 5862,
      "ĠSan": 5863,
      "Ġtorn": 5864,
      "money": 5865,
      "Ġvanished": 5866,
      "Ġder": 5867,
      "Ġacknow": 5868,
      "Ġstair": 5869,
      "Ġtort": 5870,
      "ĠMur": 5871,
      "Ġpoison": 5872,
      "ĠFrancis": 5873,
      "ĠWood": 5874,
      "Ġplate": 5875,
      "lad": 5876,
      "IX": 5877,
      "Ġimagination": 5878,
      "ĠRuss": 5879,
      "ante": 5880,
      "Ġoffe": 5881,
      "ĠScot": 5882,
      "Say": 5883,
      "ĠHon": 5884,
      "thr": 5885,
      "wife": 5886,
      "Ġflushed": 5887,
      "Ġwake": 5888,
      "ĠJohnny": 5889,
      "Ġgesture": 5890,
      "Ġchosen": 5891,
      "sa": 5892,
      "Ġapol": 5893,
      "Indeed": 5894,
      "passed": 5895,
      "Ġarmed": 5896,
      "exc": 5897,
      "along": 5898,
      "Ġunf": 5899,
      "Ġentreat": 5900,
      "Ġcommanded": 5901,
      "erous": 5902,
      "Ġmat": 5903,
      "Ġprogress": 5904,
      "making": 5905,
      "ares": 5906,
      "Ġsevent": 5907,
      "ĠLaw": 5908,
      "Me": 5909,
      "contin": 5910,
      "Ġpainted": 5911,
      "Ġpurcha": 5912,
      "Ġgenerous": 5913,
      "arms": 5914,
      "Ġlux": 5915,
      "Ġbranches": 5916,
      "EM": 5917,
      "rels": 5918,
      "ĠJerry": 5919,
      "tree": 5920,
      "Ġreflect": 5921,
      "Ġstole": 5922,
      "oqu": 5923,
      "Ġgasped": 5924,
      "THER": 5925,
      "Ġintent": 5926,
      "pled": 5927,
      "arson": 5928,
      "dep": 5929,
      "ĠDave": 5930,
      "Ġvisitor": 5931,
      "Ġheed": 5932,
      "Ġblessed": 5933,
      "izz": 5934,
      "Ġdu": 5935,
      "Ġowner": 5936,
      "Ġresumed": 5937,
      "Ġfreedom": 5938,
      "ĠVirgin": 5939,
      "faced": 5940,
      "Two": 5941,
      "ĠJones": 5942,
      "Ġming": 5943,
      "Ġcomment": 5944,
      "ĠVal": 5945,
      "Ġtrial": 5946,
      "Ġprisoners": 5947,
      "Ġinvent": 5948,
      "Ġgown": 5949,
      "Ġwrath": 5950,
      "Ġminds": 5951,
      "ials": 5952,
      "ĠIII": 5953,
      "Ġinvited": 5954,
      "Ġportion": 5955,
      "ores": 5956,
      "Ġimpl": 5957,
      "bled": 5958,
      "ĠArch": 5959,
      "Ġmisery": 5960,
      "Ġlately": 5961,
      "Ġetern": 5962,
      "Ġembarrass": 5963,
      "Ġdriving": 5964,
      "Ġseldom": 5965,
      "Ġsteadily": 5966,
      "Ġsurrounded": 5967,
      "AY": 5968,
      "Ġangel": 5969,
      "Ġsecure": 5970,
      "Ġsignal": 5971,
      "ĠIndeed": 5972,
      "\"_": 5973,
      "posed": 5974,
      "vious": 5975,
      "IAN": 5976,
      "acks": 5977,
      "ĠRod": 5978,
      "Com": 5979,
      "Thus": 5980,
      "Ġgrandfather": 5981,
      "Foot": 5982,
      "poor": 5983,
      "Ġextraordinary": 5984,
      "KE": 5985,
      "Ġmissed": 5986,
      "dra": 5987,
      "gent": 5988,
      "leg": 5989,
      "Lady": 5990,
      "Ġsize": 5991,
      "Ġdevelop": 5992,
      "Ġpoured": 5993,
      "uchess": 5994,
      "lim": 5995,
      "Ġ|": 5996,
      "Ġworks": 5997,
      "ĠJoseph": 5998,
      "behind": 5999,
      "Ġtroubles": 6000,
      "ĠNat": 6001,
      "wick": 6002,
      "icted": 6003,
      "forward": 6004,
      "Ġauthority": 6005,
      "Ġdeliber": 6006,
      "Ġwholly": 6007,
      "Ġcounsel": 6008,
      "ĠSal": 6009,
      "AP": 6010,
      "FF": 6011,
      "heriff": 6012,
      "believe": 6013,
      "Ġmembers": 6014,
      "isk": 6015,
      "Ġjoke": 6016,
      "cross": 6017,
      "Ġcheck": 6018,
      "Ġindul": 6019,
      "Pro": 6020,
      "via": 6021,
      "Ġstuck": 6022,
      "Ġinvol": 6023,
      "Ġabsurd": 6024,
      "ruction": 6025,
      "Ġhumble": 6026,
      "scar": 6027,
      "Ġshrie": 6028,
      "Ġsour": 6029,
      "Ġdelightful": 6030,
      "Ġmission": 6031,
      "ĠFa": 6032,
      "non": 6033,
      "lyn": 6034,
      "Ġeverywhere": 6035,
      "Ġbewild": 6036,
      "Ġscream": 6037,
      "Ġgiant": 6038,
      "ĠSusan": 6039,
      "habit": 6040,
      "enc": 6041,
      "Ġmelancholy": 6042,
      "closed": 6043,
      "Ġcalmly": 6044,
      "either": 6045,
      "alph": 6046,
      "ĠSaint": 6047,
      "ĊĠĠĠĠĠĠ": 6048,
      "Ġfence": 6049,
      "kward": 6050,
      "began": 6051,
      "Ġcloak": 6052,
      "acles": 6053,
      "Ġcrowded": 6054,
      "Ġsouls": 6055,
      "Ġnurs": 6056,
      "Ġshield": 6057,
      "Ġpeas": 6058,
      "Ġyonder": 6059,
      "Ġyuh": 6060,
      "Ġbutter": 6061,
      "Ġnearest": 6062,
      "Ġsilently": 6063,
      "ĠTed": 6064,
      "Ġperil": 6065,
      "Ġdeserted": 6066,
      "Ġdesign": 6067,
      "Ġsailor": 6068,
      "Ġceremon": 6069,
      "Ġfetch": 6070,
      "Ġturns": 6071,
      "Ġlibrary": 6072,
      "town": 6073,
      "Ġupstairs": 6074,
      "Ġabruptly": 6075,
      "Ġamongst": 6076,
      "Ġpointing": 6077,
      "Ġspec": 6078,
      "Ġstyle": 6079,
      "sembled": 6080,
      "ighted": 6081,
      "Ġdisg": 6082,
      "Ġscout": 6083,
      "ucky": 6084,
      "ĠSpanish": 6085,
      "Ġnovel": 6086,
      "Ġmild": 6087,
      "hill": 6088,
      "ino": 6089,
      "Ġbeloved": 6090,
      "asper": 6091,
      "ĠMa": 6092,
      "eanwhile": 6093,
      "Ġarch": 6094,
      "Ġrestr": 6095,
      "Ġsuggestion": 6096,
      "Ġhiding": 6097,
      "Ġbeha": 6098,
      "Ġstraw": 6099,
      "lebr": 6100,
      "quick": 6101,
      "gging": 6102,
      "mouth": 6103,
      "iddle": 6104,
      "CON": 6105,
      "Ġcloser": 6106,
      "Ġfarmer": 6107,
      "person": 6108,
      "Ġconceal": 6109,
      "Ġequally": 6110,
      "Ġpant": 6111,
      "Ġexceed": 6112,
      "Ġsuppl": 6113,
      "Ġetc": 6114,
      "Ġfacts": 6115,
      "nest": 6116,
      "Ed": 6117,
      "la": 6118,
      "Ġresponded": 6119,
      "Ġsimilar": 6120,
      "ouched": 6121,
      "ulation": 6122,
      "Ġretired": 6123,
      "Ġtower": 6124,
      "Ġgallant": 6125,
      "ĠStep": 6126,
      "Ġing": 6127,
      "Ġadmir": 6128,
      "ĠIrish": 6129,
      "eral": 6130,
      "Ġbushes": 6131,
      "Ġfinish": 6132,
      "Ġfinal": 6133,
      "Ġvisible": 6134,
      "Ġfairy": 6135,
      "chance": 6136,
      "yr": 6137,
      "Ġunusual": 6138,
      "Ġdevoted": 6139,
      "Ġnest": 6140,
      "mark": 6141,
      "Ġglorious": 6142,
      "Once": 6143,
      "Ġassistance": 6144,
      "Ġdaz": 6145,
      "mun": 6146,
      "Ġgrateful": 6147,
      "Ġbab": 6148,
      "Ġslightest": 6149,
      "Ġsacrifice": 6150,
      "ĠFirst": 6151,
      "Ġplant": 6152,
      "taking": 6153,
      "Ġlun": 6154,
      "Ġga": 6155,
      "ĠBer": 6156,
      "Ġdiscour": 6157,
      "Shall": 6158,
      "sper": 6159,
      "Ġhastened": 6160,
      "engers": 6161,
      "Footnote": 6162,
      "TA": 6163,
      "Ġprepar": 6164,
      "Ġcandle": 6165,
      "mir": 6166,
      "forth": 6167,
      "Ġnecessity": 6168,
      "Ġprevious": 6169,
      "bably": 6170,
      "cor": 6171,
      "Ġquarrel": 6172,
      "Ġphilosop": 6173,
      "ĠEast": 6174,
      "mal": 6175,
      "ĠMount": 6176,
      "Ġbund": 6177,
      "Ġteacher": 6178,
      "Ġanxiously": 6179,
      "Ġcentre": 6180,
      "Ġdiamond": 6181,
      "asted": 6182,
      "Ġdistress": 6183,
      ".'\"": 6184,
      "Ġvac": 6185,
      "ĠBell": 6186,
      "Dear": 6187,
      "mie": 6188,
      "ĠHard": 6189,
      "business": 6190,
      "Ġneighbor": 6191,
      "Ġfearful": 6192,
      "Ġbarn": 6193,
      "Ġcounter": 6194,
      "stre": 6195,
      "Ġincreased": 6196,
      "tem": 6197,
      "point": 6198,
      "daughter": 6199,
      "avy": 6200,
      "Ġforever": 6201,
      "cott": 6202,
      "omed": 6203,
      "quiet": 6204,
      "Ġtrunk": 6205,
      "Ġseriously": 6206,
      "speak": 6207,
      "Ġabroad": 6208,
      "lessness": 6209,
      "Ġax": 6210,
      "Ġsuspected": 6211,
      "RS": 6212,
      "Ġcleared": 6213,
      "Ġsenses": 6214,
      "ĠWalter": 6215,
      "ĠKnight": 6216,
      "Ġbeating": 6217,
      "Ġnois": 6218,
      "Ġmanners": 6219,
      "Ġsadly": 6220,
      "ublic": 6221,
      "aging": 6222,
      "iana": 6223,
      "Ġdeed": 6224,
      "Ġends": 6225,
      "HAR": 6226,
      "Ġkingdom": 6227,
      "ashington": 6228,
      "Ġhed": 6229,
      "whom": 6230,
      "Ġproposed": 6231,
      "iasm": 6232,
      "Ġgradually": 6233,
      "Ġpainful": 6234,
      "Ġshy": 6235,
      "prise": 6236,
      "bird": 6237,
      "aughters": 6238,
      "Any": 6239,
      "Again": 6240,
      "ban": 6241,
      "Ġdrank": 6242,
      "usk": 6243,
      "athetic": 6244,
      "Ġbreeze": 6245,
      "small": 6246,
      "het": 6247,
      "ena": 6248,
      "ordon": 6249,
      "dro": 6250,
      "Ġimmense": 6251,
      "full": 6252,
      "ĠBet": 6253,
      "addy": 6254,
      "ĠMajesty": 6255,
      "headed": 6256,
      "Ġdescended": 6257,
      "umes": 6258,
      "Ġsentence": 6259,
      "urday": 6260,
      "worthy": 6261,
      "aire": 6262,
      "Ġmaint": 6263,
      "Ġwaved": 6264,
      "Ġhut": 6265,
      "ĠAugust": 6266,
      "Ġsafely": 6267,
      "Gr": 6268,
      "ĠDun": 6269,
      "osure": 6270,
      "power": 6271,
      "Ġobey": 6272,
      "Ġfury": 6273,
      "Certainly": 6274,
      "anim": 6275,
      "ilities": 6276,
      "Ġvoy": 6277,
      "Ġstirred": 6278,
      "Ġfarewell": 6279,
      "Ġlunch": 6280,
      "Ġclerk": 6281,
      "ana": 6282,
      "brother": 6283,
      "Ġobtain": 6284,
      "Ġroar": 6285,
      "Ġtrembled": 6286,
      "ona": 6287,
      "ulate": 6288,
      "ĠThose": 6289,
      "Ġdiscovery": 6290,
      "inent": 6291,
      "ĠFox": 6292,
      "omin": 6293,
      "Ġaboard": 6294,
      "Ġconcerning": 6295,
      "OS": 6296,
      "Pe": 6297,
      "ĠFer": 6298,
      "ification": 6299,
      "Ġduties": 6300,
      "ĠAlex": 6301,
      "Ġglow": 6302,
      "Ġmagic": 6303,
      "Ġunfortunate": 6304,
      "Ġridic": 6305,
      "Ġthrowing": 6306,
      "ashes": 6307,
      "Ġtide": 6308,
      "ĠSen": 6309,
      "stri": 6310,
      "Ġ19": 6311,
      "beautiful": 6312,
      "rick": 6313,
      "akened": 6314,
      "Ġprovided": 6315,
      "Ġgard": 6316,
      "ĠEmperor": 6317,
      "ĠHill": 6318,
      "Ġheap": 6319,
      "quet": 6320,
      "Ġsentiment": 6321,
      "Ye": 6322,
      "Ġassoci": 6323,
      "stem": 6324,
      "Ġexped": 6325,
      "Ġmethod": 6326,
      "Ġretorted": 6327,
      "Ġviolent": 6328,
      "Ġbedroom": 6329,
      "Ġmagnific": 6330,
      "BER": 6331,
      "Pres": 6332,
      "till": 6333,
      "ĠEn": 6334,
      "Ġchim": 6335,
      "lands": 6336,
      "Ġeleven": 6337,
      "does": 6338,
      "respect": 6339,
      "ĠMat": 6340,
      "ili": 6341,
      "ailing": 6342,
      "Ġsucceed": 6343,
      "Ġorgan": 6344,
      "appro": 6345,
      "Ġgates": 6346,
      "Ġcapable": 6347,
      "Ġmarket": 6348,
      "ĠIm": 6349,
      "Ġwash": 6350,
      "Ġreflected": 6351,
      "Ġsingular": 6352,
      "Ġearnestly": 6353,
      "phere": 6354,
      "ĠPoor": 6355,
      "owder": 6356,
      "Ġfolk": 6357,
      "pring": 6358,
      "ifference": 6359,
      "Ġborne": 6360,
      "ĠThan": 6361,
      "comfortable": 6362,
      "around": 6363,
      "cture": 6364,
      "Ġdisturbed": 6365,
      "cut": 6366,
      "Ġdivine": 6367,
      "Ġreligion": 6368,
      "both": 6369,
      "Ġsummon": 6370,
      "Ġweakness": 6371,
      "lers": 6372,
      "Ġimpulse": 6373,
      "arded": 6374,
      "Jim": 6375,
      "ĠIV": 6376,
      "Ġcontrol": 6377,
      "Ġacted": 6378,
      "Ġshortly": 6379,
      "gave": 6380,
      "won": 6381,
      "reath": 6382,
      "Ġprotest": 6383,
      "ĠVen": 6384,
      "Ġpretend": 6385,
      "Ġgovernment": 6386,
      "orter": 6387,
      "Ġdeliver": 6388,
      "Ġsurround": 6389,
      "school": 6390,
      "ilton": 6391,
      "Ġprincess": 6392,
      "didn": 6393,
      "ĠGra": 6394,
      "Ġlarger": 6395,
      "Ġdashed": 6396,
      "Ġthread": 6397,
      "ivering": 6398,
      "ĠCorn": 6399,
      "sure": 6400,
      "soon": 6401,
      "Ġpractice": 6402,
      "ĠLike": 6403,
      "stance": 6404,
      "Ġvictory": 6405,
      "ĠPen": 6406,
      "Ġamused": 6407,
      "rec": 6408,
      "Ġbond": 6409,
      "opes": 6410,
      "Ġunderstanding": 6411,
      "Ġcorrect": 6412,
      "Ġ7": 6413,
      "Ġnum": 6414,
      "Ġpear": 6415,
      "NE": 6416,
      "ĠCur": 6417,
      "Ġjer": 6418,
      "ĠTake": 6419,
      "Ġuseless": 6420,
      "Ġagony": 6421,
      "Ġchose": 6422,
      "vert": 6423,
      "RI": 6424,
      "Ġcher": 6425,
      "ĠMill": 6426,
      "ograph": 6427,
      "Ġashore": 6428,
      "nal": 6429,
      "Ġcompelled": 6430,
      "Ġ15": 6431,
      "each": 6432,
      "Ġbones": 6433,
      "Ġforbid": 6434,
      "agree": 6435,
      "Ġirrit": 6436,
      "Ġcreatures": 6437,
      "Father": 6438,
      "ĠThor": 6439,
      "Ġapartment": 6440,
      "Ġjack": 6441,
      "etr": 6442,
      "iano": 6443,
      "phone": 6444,
      "Ġcompass": 6445,
      "Ġacquainted": 6446,
      "Ġdeny": 6447,
      "wart": 6448,
      "Ġling": 6449,
      "compl": 6450,
      "ĠMen": 6451,
      "fellow": 6452,
      "za": 6453,
      "Ġgracious": 6454,
      "ILL": 6455,
      "ĠĠĠĠĠĠĠĠĠĠĠĠĠĠ": 6456,
      "Ġbat": 6457,
      "Ġtitle": 6458,
      "leton": 6459,
      "bear": 6460,
      "Ġcolonel": 6461,
      "apers": 6462,
      "ĠMist": 6463,
      "venue": 6464,
      "ĠRoman": 6465,
      "ĠWhich": 6466,
      "Ġprayers": 6467,
      "Ġrout": 6468,
      "Ġabsor": 6469,
      "ĠElizabeth": 6470,
      "Car": 6471,
      "Ġwhence": 6472,
      "Ġfeed": 6473,
      "Ġkid": 6474,
      "grand": 6475,
      "Ġimagined": 6476,
      "rous": 6477,
      "udd": 6478,
      "Ġmodern": 6479,
      "Ġpaint": 6480,
      "ĠPier": 6481,
      "however": 6482,
      "roll": 6483,
      "Ġplat": 6484,
      "Ġlads": 6485,
      "Ġdisappointed": 6486,
      "iable": 6487,
      "Ġuncertain": 6488,
      "Ġbeheld": 6489,
      "friends": 6490,
      "Ġbitterly": 6491,
      "Ġcapital": 6492,
      "Still": 6493,
      "Ġlin": 6494,
      "icking": 6495,
      "boys": 6496,
      "enes": 6497,
      "Ġmoral": 6498,
      "gest": 6499,
      "rot": 6500,
      "Ġclimb": 6501,
      "best": 6502,
      "Ġiv": 6503,
      "Ġlion": 6504,
      "Ġpowers": 6505,
      "Ġharsh": 6506,
      "sign": 6507,
      "Ġobst": 6508,
      "umbers": 6509,
      "Ġmoonlight": 6510,
      "Ġgratitude": 6511,
      "Ġocean": 6512,
      "Ġsorts": 6513,
      "Ġdirty": 6514,
      "feel": 6515,
      "Ġchain": 6516,
      "Ġquarters": 6517,
      "olation": 6518,
      "ĠRiver": 6519,
      "Ġgallop": 6520,
      "mosphere": 6521,
      "Give": 6522,
      "Ġguessed": 6523,
      "Ġindividual": 6524,
      "estern": 6525,
      "elia": 6526,
      "cham": 6527,
      "Ġgang": 6528,
      "Ġrolling": 6529,
      "Ġpron": 6530,
      "ĠSch": 6531,
      "Ġhighly": 6532,
      "ĠRoger": 6533,
      "Ġlantern": 6534,
      "high": 6535,
      "Ġfac": 6536,
      "nment": 6537,
      "ĠTommy": 6538,
      "ilda": 6539,
      "Ġrange": 6540,
      "vet": 6541,
      "among": 6542,
      "ĠShall": 6543,
      "Ġdressing": 6544,
      "UM": 6545,
      "Ġwuz": 6546,
      "Ġlesson": 6547,
      "lean": 6548,
      "Ġrevenge": 6549,
      "Ġunconscious": 6550,
      "Ġfastened": 6551,
      "Ġglo": 6552,
      "Ġrecover": 6553,
      "Ġidle": 6554,
      "ĠST": 6555,
      "ĠSometimes": 6556,
      "ĠGray": 6557,
      "ĠTH": 6558,
      "mons": 6559,
      "Ġpermitted": 6560,
      "Ġhighest": 6561,
      "Ġfolly": 6562,
      "squ": 6563,
      "Ġqual": 6564,
      "Ġstriking": 6565,
      "Ġfurniture": 6566,
      "wen": 6567,
      "haw": 6568,
      "atively": 6569,
      "ayed": 6570,
      "alone": 6571,
      "Ġoriginal": 6572,
      "Ġconvent": 6573,
      "Ġcanoe": 6574,
      "Ġshalt": 6575,
      "Ġmember": 6576,
      "Ġsway": 6577,
      "Ġcigaret": 6578,
      "ica": 6579,
      "Ġestate": 6580,
      "Ġmachine": 6581,
      "sell": 6582,
      "ĠPort": 6583,
      "Ġseeking": 6584,
      "Ġinvest": 6585,
      "pen": 6586,
      "Ġours": 6587,
      "natural": 6588,
      "Ġcontinue": 6589,
      "Ġobtained": 6590,
      "respond": 6591,
      "Ġbul": 6592,
      "ĠTw": 6593,
      "vous": 6594,
      "Ġprofound": 6595,
      "Ġdaylight": 6596,
      "Ġrelieved": 6597,
      "scri": 6598,
      "Ġcas": 6599,
      "Ġawkward": 6600,
      "acco": 6601,
      "gypt": 6602,
      "Ġfrequently": 6603,
      "cus": 6604,
      "Ġtrad": 6605,
      "fig": 6606,
      "ucked": 6607,
      "Ġartist": 6608,
      "eb": 6609,
      "rene": 6610,
      "Ġcro": 6611,
      "Ġsomeone": 6612,
      "Ġsupply": 6613,
      "ands": 6614,
      "help": 6615,
      "ĠĠĠĠĠĠĠĠĠĠĠ": 6616,
      "Ġprin": 6617,
      "Ġscru": 6618,
      "impse": 6619,
      "ĠGil": 6620,
      "Ġremarkable": 6621,
      "olph": 6622,
      "ĠAgain": 6623,
      "blood": 6624,
      "ĠMax": 6625,
      "Ġcurrent": 6626,
      "Ġdescribed": 6627,
      "Ġobeyed": 6628,
      "nds": 6629,
      "need": 6630,
      "Ġtrace": 6631,
      "Ġfancied": 6632,
      "Ġelect": 6633,
      "Ġtype": 6634,
      "Ġpopular": 6635,
      "Ġscheme": 6636,
      "Suddenly": 6637,
      "Ġfasc": 6638,
      "ixt": 6639,
      "Old": 6640,
      "Ġmischief": 6641,
      "tes": 6642,
      "ITH": 6643,
      "Ġscattered": 6644,
      "Ġremains": 6645,
      "Ġdetails": 6646,
      "ĠItalian": 6647,
      "bridge": 6648,
      "suddenly": 6649,
      "Ġdirected": 6650,
      "ission": 6651,
      "deep": 6652,
      "Ġwarned": 6653,
      "Ġrefer": 6654,
      "Ġblew": 6655,
      "Ġignorant": 6656,
      "ta": 6657,
      "ooping": 6658,
      "Ġsole": 6659,
      "Ġstronger": 6660,
      "ique": 6661,
      "anda": 6662,
      "Ġpile": 6663,
      "Ġvillain": 6664,
      "âĢķâĢķ": 6665,
      "ĠJesus": 6666,
      "fur": 6667,
      "ura": 6668,
      "Ġunif": 6669,
      "Ġcunning": 6670,
      "ulted": 6671,
      "Ġawoke": 6672,
      "Ġdestro": 6673,
      "Ġbodies": 6674,
      "unny": 6675,
      "uding": 6676,
      "sol": 6677,
      "Ġgoodness": 6678,
      "Ġdismiss": 6679,
      "Ġwandered": 6680,
      "fol": 6681,
      "position": 6682,
      "Ġung": 6683,
      "ĠAy": 6684,
      "uzz": 6685,
      "ĠMany": 6686,
      "Ġmajor": 6687,
      "ĠMel": 6688,
      "Ġendure": 6689,
      "Ġslender": 6690,
      "ĠTre": 6691,
      "Ġporch": 6692,
      "alo": 6693,
      "OC": 6694,
      "ifully": 6695,
      "Ġroses": 6696,
      "ĠPol": 6697,
      "Ġnaught": 6698,
      "ada": 6699,
      "Ġadopt": 6700,
      "Ġafterward": 6701,
      "Ġimpress": 6702,
      "Ġheavens": 6703,
      "asures": 6704,
      "Ġconcealed": 6705,
      "Ġamazement": 6706,
      "ĠOli": 6707,
      "Ġphr": 6708,
      "ummer": 6709,
      "Ġteam": 6710,
      "ieu": 6711,
      "feet": 6712,
      "Ġuseful": 6713,
      "Ġconsequence": 6714,
      "six": 6715,
      "Ġnegro": 6716,
      "Ġclasped": 6717,
      "._)": 6718,
      "Ġdecision": 6719,
      "Ġdisgu": 6720,
      "Ġfain": 6721,
      "Ġappears": 6722,
      "Ġpromptly": 6723,
      "Ġinstr": 6724,
      "Ġmead": 6725,
      "necessary": 6726,
      "inv": 6727,
      "Ġeaten": 6728,
      "Ġfatal": 6729,
      "Ġprize": 6730,
      "hem": 6731,
      "Ġgovernor": 6732,
      "uable": 6733,
      "ĠMarch": 6734,
      "whole": 6735,
      "Ġz": 6736,
      "Ġheartily": 6737,
      "Ġident": 6738,
      "Ġantic": 6739,
      "ICK": 6740,
      "ĠStates": 6741,
      "Ġvisited": 6742,
      "Ġfreely": 6743,
      "aus": 6744,
      "evening": 6745,
      "ĠCharlie": 6746,
      "Ġaffected": 6747,
      "Ġwearing": 6748,
      "Ġgrant": 6749,
      "Ġ17": 6750,
      "quisite": 6751,
      "Ġfaced": 6752,
      "ado": 6753,
      "icity": 6754,
      "Ġshows": 6755,
      "Ġtal": 6756,
      "Ġsober": 6757,
      "More": 6758,
      "stant": 6759,
      "isten": 6760,
      "Ġsmoking": 6761,
      "Ġstrangers": 6762,
      "Mother": 6763,
      "clamation": 6764,
      "Ġbrid": 6765,
      "ĠEarl": 6766,
      "Ġresting": 6767,
      "Ġconclusion": 6768,
      "Ġeggs": 6769,
      "inate": 6770,
      "jected": 6771,
      "Ġdoubtless": 6772,
      "Ġventure": 6773,
      "ĠJudge": 6774,
      "Ġwire": 6775,
      "Ġhoney": 6776,
      "atherine": 6777,
      "icine": 6778,
      "mel": 6779,
      "ĠSw": 6780,
      "gered": 6781,
      "udent": 6782,
      "twenty": 6783,
      "Ġwilt": 6784,
      "MAN": 6785,
      "Ġconstant": 6786,
      "Ġexamined": 6787,
      "hear": 6788,
      "cel": 6789,
      "ĠJos": 6790,
      "Ġniece": 6791,
      "Ġapolog": 6792,
      "Ġrent": 6793,
      "ization": 6794,
      "Ġ10": 6795,
      "indeed": 6796,
      "osal": 6797,
      "hol": 6798,
      "Ġta": 6799,
      "atre": 6800,
      "ĠFlore": 6801,
      "Ġhasn": 6802,
      "death": 6803,
      "blem": 6804,
      "Ġgent": 6805,
      "Ġpistol": 6806,
      "umbling": 6807,
      "Ġvictim": 6808,
      "ĠProfessor": 6809,
      "geon": 6810,
      "ĠFin": 6811,
      "Ġ12": 6812,
      "orton": 6813,
      "ĠKat": 6814,
      "Ġgloomy": 6815,
      "Ġconfident": 6816,
      "Ġcrazy": 6817,
      "Ġdefend": 6818,
      "ĠCat": 6819,
      "meet": 6820,
      "ĠNay": 6821,
      "Ġterm": 6822,
      "hope": 6823,
      "Ġherd": 6824,
      "ieutenant": 6825,
      "bler": 6826,
      "IRST": 6827,
      "Ġcitiz": 6828,
      "husband": 6829,
      "Ġcollege": 6830,
      "whether": 6831,
      "Ġwrapped": 6832,
      "Ġvers": 6833,
      "Ġunl": 6834,
      "burg": 6835,
      "PE": 6836,
      "SCENE": 6837,
      "trees": 6838,
      "oos": 6839,
      "Ġrepresent": 6840,
      "Ġtrap": 6841,
      "acob": 6842,
      "Ġbush": 6843,
      "Ġcases": 6844,
      "Ġslee": 6845,
      "_)": 6846,
      "icer": 6847,
      "ĠRalph": 6848,
      "unting": 6849,
      "agon": 6850,
      "common": 6851,
      "esar": 6852,
      "Ġ9": 6853,
      "Ġquestioned": 6854,
      "Ġgrandmother": 6855,
      "Ġskirt": 6856,
      "Ġmental": 6857,
      "ĠKitty": 6858,
      "window": 6859,
      "uously": 6860,
      "Ġleis": 6861,
      "Ġdreamed": 6862,
      "Ġpursued": 6863,
      "ĠWolf": 6864,
      "Ġlikes": 6865,
      "sleep": 6866,
      "ys": 6867,
      "Ġinspect": 6868,
      "Ġextremely": 6869,
      "Ġwing": 6870,
      "Ġsheet": 6871,
      "Ġanyhow": 6872,
      "Ġweapon": 6873,
      "Ġfleet": 6874,
      "ĠMex": 6875,
      "Ġalike": 6876,
      "Ġthief": 6877,
      "Ġ\"'": 6878,
      "atives": 6879,
      "Ġdost": 6880,
      "uments": 6881,
      "Ġstarting": 6882,
      "bara": 6883,
      "urity": 6884,
      "Ġventured": 6885,
      "Ġmortal": 6886,
      "ĠHor": 6887,
      "whose": 6888,
      "Ġdrinking": 6889,
      "reco": 6890,
      "inated": 6891,
      "placed": 6892,
      "Mary": 6893,
      "really": 6894,
      "Ġutmost": 6895,
      "Ġstolen": 6896,
      "compan": 6897,
      "Ġsending": 6898,
      "women": 6899,
      "Ġloyal": 6900,
      "Ġgenius": 6901,
      "âĢĶâĢĶ": 6902,
      "Ġmilitary": 6903,
      "icing": 6904,
      "ĠEll": 6905,
      "Ġstring": 6906,
      "sun": 6907,
      "ĠJer": 6908,
      "Ġcompar": 6909,
      "Sure": 6910,
      "Ġexhib": 6911,
      "Ġsteal": 6912,
      "Ġwept": 6913,
      "riot": 6914,
      "Ġess": 6915,
      "Ġanticip": 6916,
      "Ġcommitted": 6917,
      "ĠMaria": 6918,
      "About": 6919,
      "cat": 6920,
      "ga": 6921,
      "Ġtin": 6922,
      "Ġtot": 6923,
      "osy": 6924,
      "Ġparties": 6925,
      "uated": 6926,
      "asions": 6927,
      "Ġthirst": 6928,
      "dog": 6929,
      "Ġprotested": 6930,
      "Ġrecall": 6931,
      "ĠGordon": 6932,
      "ii": 6933,
      "Ġrecom": 6934,
      "ĠCity": 6935,
      "Ġdepths": 6936,
      "Ġlucky": 6937,
      "ĠBible": 6938,
      "phew": 6939,
      "Ġaren": 6940,
      "estic": 6941,
      "Ġlonged": 6942,
      "ĠBig": 6943,
      "olate": 6944,
      "Ġlonging": 6945,
      "strange": 6946,
      "Ġwrit": 6947,
      "Ġintim": 6948,
      "Ġconsciousness": 6949,
      "Ġpermit": 6950,
      "Ġholid": 6951,
      "RY": 6952,
      "Ġnoted": 6953,
      "plain": 6954,
      "wers": 6955,
      "_).": 6956,
      "Ġwip": 6957,
      "ivity": 6958,
      "Had": 6959,
      "Ġtriump": 6960,
      "Ġlimbs": 6961,
      "Such": 6962,
      "ounter": 6963,
      "Ġast": 6964,
      "Ġfrown": 6965,
      "Ġenthusiasm": 6966,
      "dead": 6967,
      "Ġfaded": 6968,
      "--âĢľ": 6969,
      "pes": 6970,
      "Ġrasc": 6971,
      "otions": 6972,
      "Ġaspect": 6973,
      "leased": 6974,
      "Ġcompre": 6975,
      "ĠSaturday": 6976,
      "onse": 6977,
      "Ġdeer": 6978,
      "resses": 6979,
      "Ġobed": 6980,
      "few": 6981,
      "Ġlanded": 6982,
      "Ġchairs": 6983,
      "Ġdeeper": 6984,
      "Ġstrangely": 6985,
      "Ġleaf": 6986,
      "Ġaudience": 6987,
      "uttered": 6988,
      "Ġincident": 6989,
      "already": 6990,
      "rah": 6991,
      "uit": 6992,
      "Ġtore": 6993,
      "ĠGal": 6994,
      "Ġvoyage": 6995,
      "Ġpockets": 6996,
      "run": 6997,
      "ĠLeon": 6998,
      "Ġimmediate": 6999,
      "broken": 7000,
      "dem": 7001,
      "Ġpine": 7002,
      "ello": 7003,
      "Ġnephew": 7004,
      "derer": 7005,
      "Ġadmire": 7006,
      "hundred": 7007,
      "Ġ\"_": 7008,
      "Ġstrain": 7009,
      "Ġactive": 7010,
      "Ġrealize": 7011,
      "Ġintelligence": 7012,
      "ĠEls": 7013,
      "Ġlip": 7014,
      "ĠFanny": 7015,
      "Ġextent": 7016,
      "ĠRobin": 7017,
      "Ġmult": 7018,
      "Fl": 7019,
      "andal": 7020,
      "Bet": 7021,
      "ĠEach": 7022,
      "Ġabsent": 7023,
      "whel": 7024,
      "ĠHaw": 7025,
      "Ġalt": 7026,
      "Ġbrush": 7027,
      "except": 7028,
      "cript": 7029,
      "Ġ--": 7030,
      "ĠBuck": 7031,
      "oston": 7032,
      "Dr": 7033,
      "Ġcelebr": 7034,
      "bits": 7035,
      "Ġcigar": 7036,
      "followed": 7037,
      "Ġtip": 7038,
      "ustri": 7039,
      "ridge": 7040,
      "Ġfires": 7041,
      "ka": 7042,
      "Ġmorn": 7043,
      "Ġattent": 7044,
      "enth": 7045,
      "Ġasks": 7046,
      "Ġtrifle": 7047,
      "Ġclam": 7048,
      "Ġcollar": 7049,
      "Ġaddition": 7050,
      "bacco": 7051,
      "Ġshepherd": 7052,
      "Ġtid": 7053,
      "ĠDar": 7054,
      "Ġload": 7055,
      "ifying": 7056,
      "Ġaccompany": 7057,
      "Ġmant": 7058,
      "Ġhind": 7059,
      "agle": 7060,
      "ĠWashington": 7061,
      "Ġlightning": 7062,
      "ĠBaron": 7063,
      "Ġgreeted": 7064,
      "riet": 7065,
      "umps": 7066,
      "leave": 7067,
      "Ġdismay": 7068,
      "Ġimage": 7069,
      "LY": 7070,
      "inkled": 7071,
      "Ġdisappointment": 7072,
      "Ġmodest": 7073,
      "Ġstable": 7074,
      "Ġcaval": 7075,
      "Ġperple": 7076,
      "laugh": 7077,
      "Ġbreathed": 7078,
      "Ġborrow": 7079,
      "Ġnotion": 7080,
      "Ġslain": 7081,
      "Ġinvitation": 7082,
      "Ġbloom": 7083,
      "Ġpunishment": 7084,
      "given": 7085,
      "ĠAngel": 7086,
      "Ġsolid": 7087,
      "Ġfolded": 7088,
      "gedy": 7089,
      "Col": 7090,
      "dear": 7091,
      "aston": 7092,
      "Rob": 7093,
      "Ġdaughters": 7094,
      "affect": 7095,
      "Dick": 7096,
      "Ġwhirl": 7097,
      "Ġlaz": 7098,
      "Ġquality": 7099,
      "Ġduck": 7100,
      "Ġattended": 7101,
      "Ġsalt": 7102,
      "Ġlaws": 7103,
      "Ġmotor": 7104,
      "Ġleather": 7105,
      "apa": 7106,
      "Ġweeping": 7107,
      "cence": 7108,
      "veyed": 7109,
      "Ġdoct": 7110,
      "Ġselfish": 7111,
      "Ġangrily": 7112,
      "RA": 7113,
      "Ġconstantly": 7114,
      "vas": 7115,
      "Ġremarks": 7116,
      "Ġlosing": 7117,
      "Ġnonsense": 7118,
      "udence": 7119,
      "omer": 7120,
      "Ġconsideration": 7121,
      "ĠHol": 7122,
      "Ġthreatened": 7123,
      "Ġhandle": 7124,
      "Ġcolumn": 7125,
      "Ġsuccessful": 7126,
      "mn": 7127,
      "Ġheir": 7128,
      "Ġcondem": 7129,
      "Ġreputation": 7130,
      "Ġ=": 7131,
      "Ġwreck": 7132,
      "ĠWor": 7133,
      "Ġstrict": 7134,
      ";--": 7135,
      "Ġcoo": 7136,
      "VI": 7137,
      "grave": 7138,
      "Ġhospital": 7139,
      "sight": 7140,
      "ĠCould": 7141,
      "ĠEgypt": 7142,
      "Ġdelivered": 7143,
      "Ġdisturb": 7144,
      "itz": 7145,
      "atin": 7146,
      "remember": 7147,
      "ĠNancy": 7148,
      "iber": 7149,
      "Ġyo": 7150,
      "ships": 7151,
      "Ġlearning": 7152,
      "Ġdriver": 7153,
      "uppose": 7154,
      "Ġthrone": 7155,
      "Ġintr": 7156,
      "Ġsch": 7157,
      "unce": 7158,
      "consider": 7159,
      "Ġgoods": 7160,
      "Ġowe": 7161,
      "Ġpurple": 7162,
      "Ġgrinned": 7163,
      "Ġeducation": 7164,
      "Get": 7165,
      "omach": 7166,
      "Ġassumed": 7167,
      "Ġscore": 7168,
      "Ġcalcul": 7169,
      "sued": 7170,
      "Ġthousands": 7171,
      "10": 7172,
      "Ġreaching": 7173,
      "Ġscr": 7174,
      "Ġenergy": 7175,
      "Ġroused": 7176,
      "ruce": 7177,
      "Ġhint": 7178,
      "Ġafore": 7179,
      "ĠDorothy": 7180,
      "ioned": 7181,
      "King": 7182,
      "mus": 7183,
      "tri": 7184,
      "Ġlots": 7185,
      "omb": 7186,
      "Ġglimpse": 7187,
      "Ġcontained": 7188,
      "tin": 7189,
      "Ġcam": 7190,
      "Ġwolf": 7191,
      "Ġindifferent": 7192,
      "Ġerrand": 7193,
      "Ġsufficiently": 7194,
      "ĠMars": 7195,
      "Ġbullet": 7196,
      "Ġfed": 7197,
      "Ġpains": 7198,
      "Ġcuriously": 7199,
      "Ġrevealed": 7200,
      "cap": 7201,
      "Ġscarce": 7202,
      "Ġreminded": 7203,
      "ĠBear": 7204,
      "Ġdecide": 7205,
      "Ġhoriz": 7206,
      "Ġze": 7207,
      "Ġconfused": 7208,
      "gold": 7209,
      "perfect": 7210,
      "ictor": 7211,
      "ĠThree": 7212,
      "quarters": 7213,
      "Ġdanced": 7214,
      "mur": 7215,
      "Ġkeeps": 7216,
      "Ġlands": 7217,
      "Ġdeadly": 7218,
      "Ġhoarse": 7219,
      "Ġfame": 7220,
      "Ġhumour": 7221,
      "Ġincred": 7222,
      "Ġdisposed": 7223,
      "Ġtax": 7224,
      "Ġentering": 7225,
      "Ġmarched": 7226,
      "Ġbath": 7227,
      "Ġpond": 7228,
      "Ġasce": 7229,
      "Ġagreeable": 7230,
      "Ġsex": 7231,
      "clot": 7232,
      "uf": 7233,
      "Ġnaked": 7234,
      "Ġnerves": 7235,
      "Ġechoed": 7236,
      "HT": 7237,
      "Ġmillion": 7238,
      "MAR": 7239,
      "Ġplot": 7240,
      "corn": 7241,
      "Ġlanding": 7242,
      "ELL": 7243,
      "Ġbeaten": 7244,
      "Ġcards": 7245,
      "ĠĠĠĠĠĠĠĠĠ": 7246,
      "ĠJune": 7247,
      "Ġstudied": 7248,
      "ishes": 7249,
      "Ġbreathing": 7250,
      "ĠGar": 7251,
      "Ġblows": 7252,
      "inity": 7253,
      "Ġdaring": 7254,
      "ĠSl": 7255,
      "ĠSuddenly": 7256,
      "mered": 7257,
      "Ġdisgrace": 7258,
      "Ġlively": 7259,
      "Ġmovements": 7260,
      "Ġintroduced": 7261,
      "ato": 7262,
      "Ġsearching": 7263,
      "also": 7264,
      "Ġargument": 7265,
      "Ġthoughtfully": 7266,
      "occup": 7267,
      "LL": 7268,
      "bound": 7269,
      "Ġoil": 7270,
      "Ġmixed": 7271,
      "Ġric": 7272,
      "Ġpuff": 7273,
      "iah": 7274,
      "Ġmessenger": 7275,
      "hered": 7276,
      "Ġcontents": 7277,
      "Ġprayed": 7278,
      "Ġinfinite": 7279,
      "Ġnewspaper": 7280,
      "idering": 7281,
      "Ġloc": 7282,
      "Ġplunged": 7283,
      "fair": 7284,
      "Ġgas": 7285,
      "ĠĠĠĠĠĠĠĠĠĠ": 7286,
      "ele": 7287,
      "eled": 7288,
      "Ġprim": 7289,
      "Ġdearest": 7290,
      "account": 7291,
      "Ġquit": 7292,
      "Ġemployed": 7293,
      "ĠTem": 7294,
      "Ġexercise": 7295,
      "rait": 7296,
      "Ġwhip": 7297,
      "Ġorn": 7298,
      "ĠRay": 7299,
      "ĠOut": 7300,
      "year": 7301,
      "ĠMolly": 7302,
      "ĠSally": 7303,
      "ooks": 7304,
      "Ġard": 7305,
      "ORD": 7306,
      "Ġdeeds": 7307,
      "ĠState": 7308,
      "Ġregiment": 7309,
      "Ġsquire": 7310,
      "Ġflames": 7311,
      "ĠSyl": 7312,
      "Ġforms": 7313,
      "Ġoccur": 7314,
      "Ġdescription": 7315,
      "burn": 7316,
      "sister": 7317,
      "short": 7318,
      "Uncle": 7319,
      "Ġhay": 7320,
      "Ġappet": 7321,
      "Ad": 7322,
      "reamed": 7323,
      "Ġfan": 7324,
      "uries": 7325,
      "Ġweep": 7326,
      "ĠAlf": 7327,
      "Ġrequire": 7328,
      "Ġgathering": 7329,
      "vals": 7330,
      "Ġvel": 7331,
      "Ġvenge": 7332,
      "ĠSince": 7333,
      "ols": 7334,
      "succ": 7335,
      "Ġraising": 7336,
      "ĠBon": 7337,
      "Ġcondu": 7338,
      "large": 7339,
      "'.": 7340,
      "Ġdumb": 7341,
      "rod": 7342,
      "Ġkings": 7343,
      "orus": 7344,
      "shot": 7345,
      "Ġrelation": 7346,
      "Ġatmosphere": 7347,
      "Ġliqu": 7348,
      "Ġfoul": 7349,
      "Ġpool": 7350,
      "Ġveil": 7351,
      "Ġsoot": 7352,
      "across": 7353,
      "Ġsailed": 7354,
      "Ġbench": 7355,
      "ĠSec": 7356,
      "mediately": 7357,
      "--'": 7358,
      "Ġgoss": 7359,
      "Ġshan": 7360,
      "answered": 7361,
      "Ġrejoined": 7362,
      "chard": 7363,
      "Ġsignific": 7364,
      "Ġobserve": 7365,
      "Ġwi": 7366,
      "Ġreligious": 7367,
      "eight": 7368,
      "Ġcontempl": 7369,
      "Ġneedn": 7370,
      "Ġimpatient": 7371,
      "twas": 7372,
      "ĠCap": 7373,
      "ĠThy": 7374,
      "ĠGreek": 7375,
      "yl": 7376,
      "ĠCamp": 7377,
      "jor": 7378,
      "pir": 7379,
      "Ġdemon": 7380,
      "guard": 7381,
      "mine": 7382,
      "Ġmourn": 7383,
      "willing": 7384,
      "Ġrenew": 7385,
      "thel": 7386,
      "dec": 7387,
      "Ġrisen": 7388,
      "Ġcock": 7389,
      "emember": 7390,
      "Ġfollows": 7391,
      "Ġrug": 7392,
      "ĠSpe": 7393,
      "hair": 7394,
      "Ġalarmed": 7395,
      "Ġmarve": 7396,
      "ez": 7397,
      "Ġperf": 7398,
      "Ġstrongly": 7399,
      "uine": 7400,
      "Ġduke": 7401,
      "ĠSk": 7402,
      "VER": 7403,
      "isions": 7404,
      "Ġattached": 7405,
      "Ġpubl": 7406,
      "Ġpup": 7407,
      "irk": 7408,
      "ĠMichael": 7409,
      "Ġpermission": 7410,
      "Ġtremend": 7411,
      "Ġvisitors": 7412,
      "Ġextended": 7413,
      "Ġresent": 7414,
      "rewd": 7415,
      "icy": 7416,
      "Ġsystem": 7417,
      "feeling": 7418,
      "Ġthanked": 7419,
      "Ġsnapped": 7420,
      "Ġreproach": 7421,
      "Little": 7422,
      "sometimes": 7423,
      "Ġwives": 7424,
      "hap": 7425,
      "Ġmustn": 7426,
      "attering": 7427,
      "ĠBoth": 7428,
      "Ġoak": 7429,
      "Ġfox": 7430,
      "Ġthither": 7431,
      "Ġdetective": 7432,
      "Ġexhausted": 7433,
      "Ġtouching": 7434,
      "iger": 7435,
      "bott": 7436,
      "comple": 7437,
      "Ġmaterial": 7438,
      "anche": 7439,
      "liest": 7440,
      "ĠHoly": 7441,
      "Ġenorm": 7442,
      "lished": 7443,
      "Ġobsc": 7444,
      "Ġlaying": 7445,
      "Ġfemale": 7446,
      "shad": 7447,
      "Ġmotionless": 7448,
      "Ġmingled": 7449,
      "Ġstatement": 7450,
      "ĠRom": 7451,
      "Ġplatform": 7452,
      "doubt": 7453,
      "Ġwashed": 7454,
      "spo": 7455,
      "Ġbuff": 7456,
      "Ġprivile": 7457,
      "ĠDay": 7458,
      "Ġwoe": 7459,
      "possible": 7460,
      "Ġdecor": 7461,
      "Like": 7462,
      "Ġapt": 7463,
      "Ġcraw": 7464,
      "cks": 7465,
      "Ġjolly": 7466,
      "grim": 7467,
      "Ġtossed": 7468,
      "iveness": 7469,
      "Ġouter": 7470,
      "Ġsensible": 7471,
      "CL": 7472,
      "Ġkin": 7473,
      "Ġresolution": 7474,
      "Ġsteamer": 7475,
      "ease": 7476,
      "Ġfortunate": 7477,
      "Ġperceive": 7478,
      "Ġcomrades": 7479,
      "UD": 7480,
      "Ġconven": 7481,
      "Please": 7482,
      "Ġlabor": 7483,
      "Ġimpatiently": 7484,
      "Ġsheriff": 7485,
      "thousand": 7486,
      "Ġward": 7487,
      "Ġflour": 7488,
      "Ġdistinguished": 7489,
      "Ġrescue": 7490,
      "Ġbrings": 7491,
      "Ġcult": 7492,
      "Ġinner": 7493,
      "ĠBay": 7494,
      "Ġlowered": 7495,
      "lock": 7496,
      "pa": 7497,
      "Ġblock": 7498,
      "Ġconfessed": 7499,
      "Ġupset": 7500,
      "Ġtie": 7501,
      "Ġfulf": 7502,
      "umble": 7503,
      "ĠIsland": 7504,
      "ĠMo": 7505,
      "Ġdang": 7506,
      "ĠSay": 7507,
      "river": 7508,
      "VE": 7509,
      "Ġfishing": 7510,
      "within": 7511,
      "ension": 7512,
      "Ġreluct": 7513,
      "Ġstroke": 7514,
      "Ġinfant": 7515,
      "second": 7516,
      "XX": 7517,
      "Ġchase": 7518,
      "ĠAN": 7519,
      "Ġstopping": 7520,
      "Ġglasses": 7521,
      "orable": 7522,
      "prot": 7523,
      "Ġtravell": 7524,
      "Ġhoping": 7525,
      "Ġratt": 7526,
      "ĠLee": 7527,
      "force": 7528,
      "Ġremaining": 7529,
      "inqu": 7530,
      "Ġstag": 7531,
      "abor": 7532,
      "Ġrecalled": 7533,
      "ĠBart": 7534,
      "Ġmarble": 7535,
      "Ġletting": 7536,
      "bright": 7537,
      "edge": 7538,
      "ĠGold": 7539,
      "Ġfootsteps": 7540,
      "Ġruff": 7541,
      "Ġcounted": 7542,
      "Ġcopy": 7543,
      "Ġhomes": 7544,
      "Ġfil": 7545,
      "draw": 7546,
      "green": 7547,
      "ĠKen": 7548,
      "giving": 7549,
      "Ġamusement": 7550,
      "Ġbunch": 7551,
      "ĠRabbit": 7552,
      "Ġbeasts": 7553,
      "fight": 7554,
      "Ġmast": 7555,
      "ĠÃ": 7556,
      "whis": 7557,
      "ĠBas": 7558,
      "ĠGran": 7559,
      "Ġappointed": 7560,
      "Ġreality": 7561,
      "ĠCountess": 7562,
      "Ġhalted": 7563,
      "hension": 7564,
      "ĠScott": 7565,
      "Ġproperly": 7566,
      "cest": 7567,
      "ĠEllen": 7568,
      "Ġgrowled": 7569,
      "ĠDE": 7570,
      "Ġlovers": 7571,
      "Ġphot": 7572,
      "isting": 7573,
      "Ġreader": 7574,
      "Ġloudly": 7575,
      "ĠNature": 7576,
      "knife": 7577,
      "Ġconviction": 7578,
      "sar": 7579,
      "Ġrendered": 7580,
      "OUR": 7581,
      "blue": 7582,
      "Ġsensation": 7583,
      "Ġlawn": 7584,
      "Ġpursuit": 7585,
      "Ġmagnificent": 7586,
      "Ġshooting": 7587,
      "Ġlessons": 7588,
      "Ġdevotion": 7589,
      "towards": 7590,
      "phan": 7591,
      "Ġruns": 7592,
      "Ġregarding": 7593,
      "Ġbanks": 7594,
      "Ġconnected": 7595,
      "Ġcurtain": 7596,
      "IE": 7597,
      "Ġslaves": 7598,
      "Ġengagement": 7599,
      "tre": 7600,
      "anx": 7601,
      "ĠMarie": 7602,
      "Ġgifts": 7603,
      "sal": 7604,
      "Ġmechan": 7605,
      "fav": 7606,
      "learn": 7607,
      "ican": 7608,
      "Ġnet": 7609,
      "Ġrushing": 7610,
      "Ġreflection": 7611,
      "thinking": 7612,
      "rich": 7613,
      "Ġshouting": 7614,
      "Ġoccasionally": 7615,
      "Ġawhile": 7616,
      "Ġcareless": 7617,
      "Ġwandering": 7618,
      "change": 7619,
      "Ġchances": 7620,
      "Ġseparated": 7621,
      "ĠWall": 7622,
      "ĠAnother": 7623,
      "Ġtenderness": 7624,
      "tran": 7625,
      "ĠGive": 7626,
      "dest": 7627,
      "Ġpreced": 7628,
      "Ġoft": 7629,
      "Ġmanif": 7630,
      "next": 7631,
      "Ġclung": 7632,
      "gun": 7633,
      "Ġfoe": 7634,
      "asily": 7635,
      "pson": 7636,
      "Ġpulling": 7637,
      "Ġbatt": 7638,
      "returned": 7639,
      "ĠYoung": 7640,
      "Ġservices": 7641,
      "Ġchimney": 7642,
      "agreeable": 7643,
      "grow": 7644,
      "Ġdate": 7645,
      "Ġreck": 7646,
      "ĠJacob": 7647,
      "Ġbust": 7648,
      "Ġfinds": 7649,
      "Ġhunger": 7650,
      "Ġaccomplished": 7651,
      "Ġcourtes": 7652,
      "otes": 7653,
      "Gu": 7654,
      "Ġovercome": 7655,
      "ĠCastle": 7656,
      "Ġsan": 7657,
      "Ġfourth": 7658,
      "Ġseconds": 7659,
      "Ġclut": 7660,
      "_.]": 7661,
      "Ġpir": 7662,
      "Ġstor": 7663,
      "IST": 7664,
      "Ġsimpl": 7665,
      "imag": 7666,
      "Ġearlier": 7667,
      "ĠAnna": 7668,
      "ĠSarah": 7669,
      "Ġrepeat": 7670,
      "ofty": 7671,
      "outhern": 7672,
      "Ġtobacco": 7673,
      "Another": 7674,
      "mat": 7675,
      "Ġpony": 7676,
      "Ġgor": 7677,
      "Ġexquisite": 7678,
      "Ġcareer": 7679,
      "Ġdisappear": 7680,
      "gentleman": 7681,
      "Ġbundle": 7682,
      "vill": 7683,
      "Ġrelations": 7684,
      "times": 7685,
      "Ġcurse": 7686,
      "start": 7687,
      "ĠAf": 7688,
      "Ġuneasy": 7689,
      "Hel": 7690,
      "Phil": 7691,
      "Ġdeceived": 7692,
      "tra": 7693,
      "Ġwanting": 7694,
      "Ġeasier": 7695,
      "Ġautumn": 7696,
      "Ġpred": 7697,
      "Ġmerc": 7698,
      "ĠCarol": 7699,
      "pretty": 7700,
      "guish": 7701,
      "cheon": 7702,
      "ilight": 7703,
      "Ġattempted": 7704,
      "Ġrender": 7705,
      "ĠMost": 7706,
      "uster": 7707,
      "Ġparting": 7708,
      "ĠClare": 7709,
      "_]": 7710,
      "gen": 7711,
      "Ġmour": 7712,
      "experi": 7713,
      "Ġmissing": 7714,
      "18": 7715,
      "Ġwont": 7716,
      "Ġdrag": 7717,
      "skin": 7718,
      "ĠWy": 7719,
      "Ġsecured": 7720,
      "ĠJoan": 7721,
      "Ġranch": 7722,
      "AST": 7723,
      "onies": 7724,
      "Ġrelated": 7725,
      "Ġmisfortune": 7726,
      "English": 7727,
      "Does": 7728,
      "Ġmeantime": 7729,
      "Sc": 7730,
      "actory": 7731,
      "Ġprotection": 7732,
      "ĠTob": 7733,
      "import": 7734,
      "Ġawfully": 7735,
      "turn": 7736,
      "ĠCec": 7737,
      "Ġbranch": 7738,
      "Ġsincere": 7739,
      "Ġunpleasant": 7740,
      "Ġmarks": 7741,
      "sters": 7742,
      "Ġresem": 7743,
      "aste": 7744,
      "Ġresponse": 7745,
      "diffic": 7746,
      "jac": 7747,
      "Ġwist": 7748,
      "inkle": 7749,
      "Ġreadily": 7750,
      "jorie": 7751,
      "ĠGe": 7752,
      "Ġdistinctly": 7753,
      "ĠStephen": 7754,
      "Ġscared": 7755,
      "sto": 7756,
      "Ġlat": 7757,
      "chor": 7758,
      "pron": 7759,
      "Ġbetrayed": 7760,
      "Out": 7761,
      "different": 7762,
      "leness": 7763,
      "âĢĶâĢĶâĢĿ": 7764,
      "hot": 7765,
      "Ġfet": 7766,
      "Ġpaying": 7767,
      "lee": 7768,
      "Ġfailure": 7769,
      "emy": 7770,
      "Ġroared": 7771,
      "ĠKent": 7772,
      "Ġsunset": 7773,
      "Ġlodge": 7774,
      "Ġpiano": 7775,
      "Ġfog": 7776,
      "Ġprincipal": 7777,
      "Ġwha": 7778,
      "Ġpurse": 7779,
      "chooner": 7780,
      "Ġpark": 7781,
      "Ġtrusted": 7782,
      "fashioned": 7783,
      "Ġwinds": 7784,
      "Ġlandlord": 7785,
      "Ġfaintly": 7786,
      "ĠColl": 7787,
      "lets": 7788,
      "ai": 7789,
      "ifles": 7790,
      "Ġseas": 7791,
      "Ġintellect": 7792,
      "Ġprod": 7793,
      "Ġdivided": 7794,
      "bag": 7795,
      "ĠUpon": 7796,
      "ĠFel": 7797,
      "straight": 7798,
      "hers": 7799,
      "Ġgladly": 7800,
      "ĠPresently": 7801,
      "Ġuniform": 7802,
      "Ġsink": 7803,
      "Ġvengeance": 7804,
      "Ġgrasped": 7805,
      "Ġwhistle": 7806,
      "Ġbloss": 7807,
      "Ġdestroy": 7808,
      "Ġrevolver": 7809,
      "Ġinsult": 7810,
      "Ġfeeble": 7811,
      "least": 7812,
      "addle": 7813,
      "Ġstove": 7814,
      "aman": 7815,
      "Ġladder": 7816,
      "Ġdefinite": 7817,
      "bod": 7818,
      "Ġsofa": 7819,
      "Ġnevertheless": 7820,
      "Ġphysical": 7821,
      "Ġdebt": 7822,
      "Ġtreacher": 7823,
      "ĠGuy": 7824,
      "Ġspeaks": 7825,
      "Ġinterests": 7826,
      "Madame": 7827,
      "haired": 7828,
      "inson": 7829,
      "However": 7830,
      "Ã¢": 7831,
      "Ġstruggling": 7832,
      "Ġmonsieur": 7833,
      "Ġstomach": 7834,
      "ĠAg": 7835,
      "aisy": 7836,
      "wanted": 7837,
      "fear": 7838,
      "Ġindignation": 7839,
      "Ġsugar": 7840,
      "Ġsurre": 7841,
      "Though": 7842,
      "aning": 7843,
      "Ġmurmur": 7844,
      "wel": 7845,
      "ĠJanet": 7846,
      "try": 7847,
      "ĠAndrew": 7848,
      "Ġfeels": 7849,
      "Ġblessing": 7850,
      "rain": 7851,
      "ĠOther": 7852,
      "Ġfurious": 7853,
      "Ġmail": 7854,
      "erness": 7855,
      "reshold": 7856,
      "pock": 7857,
      "onday": 7858,
      "Ġswore": 7859,
      "Ġbrisk": 7860,
      "Ġwarrant": 7861,
      "natured": 7862,
      "Ġcomposed": 7863,
      "withstanding": 7864,
      "Ġcutting": 7865,
      "ĠPo": 7866,
      "Ġber": 7867,
      "Ġcrossing": 7868,
      "front": 7869,
      "ciously": 7870,
      "Ġcheerfully": 7871,
      "command": 7872,
      "Ġviolence": 7873,
      "rell": 7874,
      "Ġbrass": 7875,
      "Ġdownstairs": 7876,
      "Ġwildly": 7877,
      "Ġagent": 7878,
      "ALL": 7879,
      "Ġtun": 7880,
      "idd": 7881,
      "ĠSol": 7882,
      "Ġtend": 7883,
      "Ġnin": 7884,
      "aze": 7885,
      "Ġsixty": 7886,
      "slow": 7887,
      "ua": 7888,
      "ĠJeff": 7889,
      "astern": 7890,
      "Ġglit": 7891,
      "Ġconditions": 7892,
      "Ġarrive": 7893,
      "Ġjewels": 7894,
      "Ġstaff": 7895,
      "Ġusing": 7896,
      "Ġfatig": 7897,
      "Ġconnection": 7898,
      "doll": 7899,
      "rors": 7900,
      "pton": 7901,
      "PER": 7902,
      "Ġcheap": 7903,
      "Maybe": 7904,
      "Ġtrump": 7905,
      "Ġexperienced": 7906,
      "Ġfiercely": 7907,
      "Ġwits": 7908,
      "Ġrival": 7909,
      "Ġsoil": 7910,
      "Ġunlike": 7911,
      "ushes": 7912,
      "Ġworried": 7913,
      "sea": 7914,
      "Ġtang": 7915,
      "Ġtrim": 7916,
      "Ġsailors": 7917,
      "asping": 7918,
      "itors": 7919,
      "Ġglancing": 7920,
      "Ġsovere": 7921,
      "Ġhorrid": 7922,
      "Ġgleam": 7923,
      "Ġleap": 7924,
      "Ġlieutenant": 7925,
      "Ġspy": 7926,
      "berg": 7927,
      "000": 7928,
      "gard": 7929,
      "Ġsmaller": 7930,
      "Ġgraceful": 7931,
      "Ġdisgust": 7932,
      "Bar": 7933,
      "Ġfalls": 7934,
      "Ġhurriedly": 7935,
      "Ġrights": 7936,
      "Ġcommenced": 7937,
      "Ġadventures": 7938,
      "added": 7939,
      "Their": 7940,
      "Ġattracted": 7941,
      "Ġlust": 7942,
      "ulgar": 7943,
      "Ġdirections": 7944,
      "abled": 7945,
      "Ġsongs": 7946,
      "Ġcontented": 7947,
      "letter": 7948,
      "Ġbending": 7949,
      "Ġtelephone": 7950,
      "ĠVI": 7951,
      "aude": 7952,
      "story": 7953,
      "Ġeleg": 7954,
      "ĠPeggy": 7955,
      "Ġgarments": 7956,
      "Ġrav": 7957,
      "IGHT": 7958,
      "Upon": 7959,
      "icious": 7960,
      "ros": 7961,
      "Ġchill": 7962,
      "Ġdamp": 7963,
      "Ġcris": 7964,
      "Ġmurderer": 7965,
      "Ġvaluable": 7966,
      "Ġhorizon": 7967,
      "imer": 7968,
      "Ġcrimson": 7969,
      "Ġfavourite": 7970,
      "Ġwounds": 7971,
      "ĠCarl": 7972,
      "Ġjail": 7973,
      "Ġthroughout": 7974,
      "ĠSpain": 7975,
      "Ġpassionate": 7976,
      "Ġtwisted": 7977,
      "HAM": 7978,
      "Since": 7979,
      "pict": 7980,
      "party": 7981,
      "Ġexpecting": 7982,
      "Ġtemple": 7983,
      "Ġbenefit": 7984,
      "ov": 7985,
      "Ġsolitary": 7986,
      "Ġmirror": 7987,
      "Peter": 7988,
      "ĠSandy": 7989,
      "gels": 7990,
      "mounted": 7991,
      "rage": 7992,
      "Ġfurnished": 7993,
      "Ġwoke": 7994,
      "ĠCross": 7995,
      "Ġaroused": 7996,
      "Ġkinds": 7997,
      "minded": 7998,
      ".[": 7999,
      "aph": 8000,
      "Ġscra": 8001,
      "Ġhappens": 8002,
      "Ke": 8003,
      "sound": 8004,
      "Ġknelt": 8005,
      "Ġignorance": 8006,
      "class": 8007,
      "bby": 8008,
      "Ġtramp": 8009,
      "ĠYe": 8010,
      "anta": 8011,
      "Ġrepent": 8012,
      "15": 8013,
      "ripp": 8014,
      "Ġtorment": 8015,
      "sweet": 8016,
      "Ġgranted": 8017,
      "ĠCaesar": 8018,
      "BE": 8019,
      "creat": 8020,
      "ĠMir": 8021,
      "Ġsweep": 8022,
      "Ġadvised": 8023,
      "Hen": 8024,
      "zing": 8025,
      "sold": 8026,
      "Ġmonkey": 8027,
      "else": 8028,
      "Ġwarriors": 8029,
      "MRS": 8030,
      "bb": 8031,
      "office": 8032,
      "ĠBlue": 8033,
      "ĠVirginia": 8034,
      "idents": 8035,
      "entered": 8036,
      "Ġrestless": 8037,
      "manner": 8038,
      "Presently": 8039,
      "Ġbrig": 8040,
      "kept": 8041,
      "Ġarrested": 8042,
      "Ġbother": 8043,
      "Ġcouch": 8044,
      "Ġpillow": 8045,
      "mag": 8046,
      "aying": 8047,
      "ĠItaly": 8048,
      "ĠCharley": 8049,
      "edro": 8050,
      "velope": 8051,
      "ĠEdith": 8052,
      "answer": 8053,
      "Ġlace": 8054,
      "Ġreported": 8055,
      "Ġgrounds": 8056,
      "yourself": 8057,
      "family": 8058,
      "Ġupward": 8059,
      "Ġdeclare": 8060,
      "ĠBoston": 8061,
      "Ġdun": 8062,
      "Ġbelt": 8063,
      "Ġtriumphant": 8064,
      "ration": 8065,
      "uk": 8066,
      "Ġstruggled": 8067,
      "Ġeternal": 8068,
      "Ġwoo": 8069,
      "Those": 8070,
      "opened": 8071,
      "Ġpeep": 8072,
      "Ġrailroad": 8073,
      "Ġhaul": 8074,
      "ĠCousin": 8075,
      "Ġhelping": 8076,
      "Ġsubjects": 8077,
      "Ġpalm": 8078,
      "Ġlabour": 8079,
      "Ġwaving": 8080,
      "Ġadmired": 8081,
      "16": 8082,
      "icient": 8083,
      "Ġdrowned": 8084,
      "ĠJulia": 8085,
      "uary": 8086,
      "Ġlend": 8087,
      "Ġelbow": 8088,
      "eem": 8089,
      "Ġthrong": 8090,
      "itively": 8091,
      "Ġren": 8092,
      "wat": 8093,
      "Ġslope": 8094,
      "Ġrefuge": 8095,
      "ASS": 8096,
      "ola": 8097,
      "Ġtroop": 8098,
      "Ġceremony": 8099,
      "phant": 8100,
      "return": 8101,
      "wouldn": 8102,
      "bad": 8103,
      "abri": 8104,
      "Ġruined": 8105,
      "Ġthankful": 8106,
      "Ġtomb": 8107,
      "Ġinch": 8108,
      "ĠHa": 8109,
      "ĠChan": 8110,
      "Ġpowder": 8111,
      "orthern": 8112,
      "Ġterribly": 8113,
      "hole": 8114,
      "Ġexception": 8115,
      "Ġambition": 8116,
      "Ġprepare": 8117,
      "FIRST": 8118,
      "acht": 8119,
      "getting": 8120,
      "ĠSav": 8121,
      "Ġprosper": 8122,
      "Ġskipper": 8123,
      "Ġprecise": 8124,
      "incl": 8125,
      "gnes": 8126,
      "Ġacknowled": 8127,
      "12": 8128,
      "Ġstretch": 8129,
      "ĠUnder": 8130,
      "Ġpitch": 8131,
      "Ġpartner": 8132,
      "seeing": 8133,
      "Ġnothin": 8134,
      "Ġdeserve": 8135,
      "human": 8136,
      "ĠMistress": 8137,
      "Ġcigarette": 8138,
      "acters": 8139,
      "ĠDown": 8140,
      "ĠAnton": 8141,
      "Ġchamp": 8142,
      "Ġdespite": 8143,
      "Ġmedicine": 8144,
      "Ġscarlet": 8145,
      "neighb": 8146,
      "ĠĠĠĠĠĠĠĠĠĠĠĠĠĠĠĠĠ": 8147,
      "rad": 8148,
      "Ġfaster": 8149,
      "ĠLes": 8150,
      "Ġamazed": 8151,
      "Ġinhabit": 8152,
      "duction": 8153,
      "Ġgroaned": 8154,
      "Ġlimp": 8155,
      "ĠNell": 8156,
      "Ġhitherto": 8157,
      "mate": 8158,
      "vest": 8159,
      "Ġshrewd": 8160,
      "rolled": 8161,
      "Ġach": 8162,
      "Ġcure": 8163,
      "Ġlur": 8164,
      "Ġpush": 8165,
      "hip": 8166,
      "lest": 8167,
      "ington": 8168,
      "Ġstam": 8169,
      "ĠTrist": 8170,
      "ĠOver": 8171,
      "ciples": 8172,
      "obser": 8173,
      "Ġoccasions": 8174,
      "ĠLieutenant": 8175,
      "Ġdistrict": 8176,
      "Ġpound": 8177,
      "Ġfuneral": 8178,
      "Ġbeds": 8179,
      "ADY": 8180,
      "continued": 8181,
      "Ġapple": 8182,
      "eous": 8183,
      "Ġoverwhel": 8184,
      "Ġproject": 8185,
      "Ġbegins": 8186,
      "Ġcharged": 8187,
      "ĠBarbara": 8188,
      "nut": 8189,
      "Ġbears": 8190,
      "uty": 8191
    },
    "merges": [
      [
        "Ġ",
        "t"
      ],
      [
        "h",
        "e"
      ],
      [
        "Ġ",
        "a"
      ],
      [
        "i",
        "n"
      ],
      [
        "Ġ",
        "s"
      ],
      [
        "Ġ",
        "w"
      ],
      [
        "Ġt",
        "he"
      ],
      [
        "r",
        "e"
      ],
      [
        "Ġ",
        "o"
      ],
      [
        "n",
        "d"
      ],
      [
        "h",
        "a"
      ],
      [
        "o",
        "u"
      ],
      [
        "e",
        "r"
      ],
      [
        "e",
        "d"
      ],
      [
        "Ġ",
        "b"
      ],
      [
        "Ġ",
        "m"
      ],
      [
        "i",
        "t"
      ],
      [
        "i",
        "s"
      ],
      [
        "Ġ",
        "f"
      ],
      [
        "e",
        "n"
      ],
      [
        "Ġt",
        "o"
      ],
      [
        "Ġ",
        "c"
      ],
      [
        "o",
        "n"
      ],
      [
        "in",
        "g"
      ],
      [
        "Ġa",
        "nd"
      ],
      [
        "o",
        "r"
      ],
      [
        "Ġ",
        "Ġ"
      ],
      [
        "l",
        "l"
      ],
      [
        "Ġo",
        "f"
      ],
      [
        "Ġ",
        "he"
      ],
      [
        "Ġ",
        "d"
      ],
      [
        "Ġ",
        "h"
      ],
      [
        "a",
        "s"
      ],
      [
        "e",
        "s"
      ],
      [
        "a",
        "r"
      ],
      [
        "Ġ",
        "l"
      ],
      [
        "a",
        "n"
      ],
      [
        "â",
        "Ģ"
      ],
      [
        "Ġ",
        "p"
      ],
      [
        "Ġ",
        "in"
      ],
      [
        "Ġ",
        "ha"
      ],
      [
        "a",
        "t"
      ],
      [
        "Ġ",
        "n"
      ],
      [
        "o",
        "m"
      ],
      [
        "Ġ",
        "I"
      ],
      [
        "ha",
        "t"
      ],
      [
        "Ġ",
        "g"
      ],
      [
        "l",
        "e"
      ],
      [
        "o",
        "t"
      ],
      [
        "o",
        "w"
      ],
      [
        "Ġb",
        "e"
      ],
      [
        "Ġ",
        "y"
      ],
      [
        "u",
        "t"
      ],
      [
        "l",
        "d"
      ],
      [
        "i",
        "d"
      ],
      [
        "v",
        "e"
      ],
      [
        "i",
        "m"
      ],
      [
        "s",
        "t"
      ],
      [
        "l",
        "y"
      ],
      [
        "Ġw",
        "as"
      ],
      [
        "g",
        "h"
      ],
      [
        "s",
        "e"
      ],
      [
        "Ġy",
        "ou"
      ],
      [
        "i",
        "c"
      ],
      [
        "Ġt",
        "h"
      ],
      [
        "Ġ",
        "e"
      ],
      [
        "Ġt",
        "hat"
      ],
      [
        "a",
        "y"
      ],
      [
        "e",
        "t"
      ],
      [
        "Ġo",
        "n"
      ],
      [
        "Ġ",
        "it"
      ],
      [
        "en",
        "t"
      ],
      [
        "ĠĠ",
        "ĠĠ"
      ],
      [
        "a",
        "c"
      ],
      [
        "it",
        "h"
      ],
      [
        "v",
        "er"
      ],
      [
        "Ġh",
        "is"
      ],
      [
        "i",
        "r"
      ],
      [
        "Ġ",
        "u"
      ],
      [
        "a",
        "d"
      ],
      [
        "Ġ",
        "re"
      ],
      [
        "Ġf",
        "or"
      ],
      [
        "Ġa",
        "s"
      ],
      [
        "gh",
        "t"
      ],
      [
        "Ġhe",
        "r"
      ],
      [
        "a",
        "l"
      ],
      [
        "Ġw",
        "ith"
      ],
      [
        "u",
        "r"
      ],
      [
        "Ġw",
        "h"
      ],
      [
        "Ġs",
        "t"
      ],
      [
        "Ġha",
        "d"
      ],
      [
        "i",
        "on"
      ],
      [
        "Ġw",
        "e"
      ],
      [
        "o",
        "o"
      ],
      [
        "Ġ",
        "T"
      ],
      [
        "he",
        "r"
      ],
      [
        "Ġ",
        "r"
      ],
      [
        "c",
        "e"
      ],
      [
        "ou",
        "ld"
      ],
      [
        "a",
        "m"
      ],
      [
        "Ġn",
        "ot"
      ],
      [
        "k",
        "e"
      ],
      [
        "Ġa",
        "n"
      ],
      [
        "âĢ",
        "Ļ"
      ],
      [
        "âĢ",
        "ľ"
      ],
      [
        "i",
        "ll"
      ],
      [
        "t",
        "er"
      ],
      [
        "âĢ",
        "Ŀ"
      ],
      [
        "i",
        "f"
      ],
      [
        "Ġa",
        "t"
      ],
      [
        "Ġh",
        "im"
      ],
      [
        "Ġ",
        "M"
      ],
      [
        "-",
        "-"
      ],
      [
        "Ġs",
        "a"
      ],
      [
        "Ġs",
        "he"
      ],
      [
        "Ġm",
        "e"
      ],
      [
        "i",
        "ght"
      ],
      [
        "Ġ",
        "S"
      ],
      [
        "a",
        "nd"
      ],
      [
        "Ġ",
        "H"
      ],
      [
        "a",
        "in"
      ],
      [
        "Ġ",
        "A"
      ],
      [
        "Ġ",
        "is"
      ],
      [
        "Ġs",
        "e"
      ],
      [
        "c",
        "h"
      ],
      [
        "re",
        "d"
      ],
      [
        "r",
        "i"
      ],
      [
        "r",
        "o"
      ],
      [
        "i",
        "l"
      ],
      [
        "Ġs",
        "o"
      ],
      [
        "om",
        "e"
      ],
      [
        "o",
        "re"
      ],
      [
        "Ġ",
        "B"
      ],
      [
        "t",
        "h"
      ],
      [
        "es",
        "s"
      ],
      [
        "Ġ",
        "k"
      ],
      [
        "'",
        "s"
      ],
      [
        "Ġm",
        "y"
      ],
      [
        "a",
        "ll"
      ],
      [
        "he",
        "n"
      ],
      [
        "Ġs",
        "u"
      ],
      [
        "Ġ",
        "\""
      ],
      [
        "Ġha",
        "ve"
      ],
      [
        "p",
        "p"
      ],
      [
        "Ġsa",
        "id"
      ],
      [
        "r",
        "om"
      ],
      [
        "Ġd",
        "e"
      ],
      [
        ".",
        "\""
      ],
      [
        "t",
        "he"
      ],
      [
        "Ġb",
        "ut"
      ],
      [
        "c",
        "t"
      ],
      [
        "Ġd",
        "o"
      ],
      [
        "Ġu",
        "p"
      ],
      [
        "g",
        "e"
      ],
      [
        "Ġa",
        "ll"
      ],
      [
        "t",
        "o"
      ],
      [
        "Ġ",
        "C"
      ],
      [
        "u",
        "s"
      ],
      [
        "q",
        "u"
      ],
      [
        "Ġs",
        "h"
      ],
      [
        "ĠT",
        "he"
      ],
      [
        "u",
        "n"
      ],
      [
        "Ġn",
        "e"
      ],
      [
        "u",
        "l"
      ],
      [
        "p",
        "e"
      ],
      [
        "ar",
        "d"
      ],
      [
        "u",
        "st"
      ],
      [
        "Ġ",
        "W"
      ],
      [
        "ic",
        "h"
      ],
      [
        "an",
        "t"
      ],
      [
        ",",
        "\""
      ],
      [
        "Ġthe",
        "y"
      ],
      [
        "e",
        "ll"
      ],
      [
        "i",
        "e"
      ],
      [
        "Ġf",
        "rom"
      ],
      [
        "Ġb",
        "y"
      ],
      [
        "Ġwe",
        "re"
      ],
      [
        "ou",
        "r"
      ],
      [
        "es",
        "t"
      ],
      [
        "e",
        "l"
      ],
      [
        "ou",
        "t"
      ],
      [
        "Ġk",
        "n"
      ],
      [
        "in",
        "d"
      ],
      [
        "Ġth",
        "is"
      ],
      [
        "oo",
        "d"
      ],
      [
        "l",
        "f"
      ],
      [
        "e",
        "m"
      ],
      [
        "re",
        "s"
      ],
      [
        "a",
        "b"
      ],
      [
        "ĠĠĠĠ",
        "ĠĠĠĠ"
      ],
      [
        "ou",
        "s"
      ],
      [
        "ar",
        "t"
      ],
      [
        "k",
        "ed"
      ],
      [
        "am",
        "e"
      ],
      [
        "Ġl",
        "i"
      ],
      [
        "Ġon",
        "e"
      ],
      [
        "Ġn",
        "o"
      ],
      [
        "Ġm",
        "an"
      ],
      [
        "on",
        "g"
      ],
      [
        "Ġw",
        "ould"
      ],
      [
        "r",
        "a"
      ],
      [
        "ver",
        "y"
      ],
      [
        "Ġwh",
        "ich"
      ],
      [
        "Ġo",
        "ut"
      ],
      [
        "Ġ",
        "v"
      ],
      [
        "Ġwh",
        "o"
      ],
      [
        "as",
        "t"
      ],
      [
        "ou",
        "nd"
      ],
      [
        "er",
        "s"
      ],
      [
        "T",
        "he"
      ],
      [
        "Ġo",
        "r"
      ],
      [
        "it",
        "t"
      ],
      [
        "ow",
        "n"
      ],
      [
        "ha",
        "n"
      ],
      [
        "Ġ",
        "P"
      ],
      [
        "Ġc",
        "on"
      ],
      [
        "on",
        "e"
      ],
      [
        "Ġa",
        "l"
      ],
      [
        "Ġthe",
        "m"
      ],
      [
        "ĠH",
        "e"
      ],
      [
        "Ġe",
        "x"
      ],
      [
        "ou",
        "gh"
      ],
      [
        "Ġa",
        "b"
      ],
      [
        "Ġ",
        "D"
      ],
      [
        "ac",
        "k"
      ],
      [
        "Ġg",
        "o"
      ],
      [
        "is",
        "t"
      ],
      [
        "a",
        "k"
      ],
      [
        "o",
        "s"
      ],
      [
        "r",
        "y"
      ],
      [
        "Ġ",
        "L"
      ],
      [
        "'",
        "t"
      ],
      [
        "ac",
        "e"
      ],
      [
        "i",
        "g"
      ],
      [
        "at",
        "ion"
      ],
      [
        "Ġl",
        "e"
      ],
      [
        "Ġthe",
        "re"
      ],
      [
        "Ġ",
        "G"
      ],
      [
        "Ġw",
        "or"
      ],
      [
        "u",
        "m"
      ],
      [
        "Ġ",
        "âĢľ"
      ],
      [
        "he",
        "d"
      ],
      [
        "o",
        "l"
      ],
      [
        "se",
        "lf"
      ],
      [
        "Ġbe",
        "en"
      ],
      [
        "n",
        "t"
      ],
      [
        "Ġw",
        "ill"
      ],
      [
        "c",
        "k"
      ],
      [
        "Ġyou",
        "r"
      ],
      [
        "a",
        "ke"
      ],
      [
        "Ġ",
        "F"
      ],
      [
        "p",
        "t"
      ],
      [
        "at",
        "e"
      ],
      [
        "Ġ",
        "j"
      ],
      [
        "v",
        "en"
      ],
      [
        "Ġw",
        "hen"
      ],
      [
        "a",
        "u"
      ],
      [
        "Ġa",
        "re"
      ],
      [
        "Ġ",
        "if"
      ],
      [
        "id",
        "e"
      ],
      [
        ".",
        "âĢĿ"
      ],
      [
        "Ġthe",
        "ir"
      ],
      [
        "or",
        "t"
      ],
      [
        "i",
        "ve"
      ],
      [
        "Ġc",
        "om"
      ],
      [
        "Ġc",
        "ould"
      ],
      [
        "oo",
        "k"
      ],
      [
        "o",
        "se"
      ],
      [
        "Ġw",
        "hat"
      ],
      [
        "Ġp",
        "l"
      ],
      [
        "Ġf",
        "e"
      ],
      [
        "o",
        "st"
      ],
      [
        "w",
        "ay"
      ],
      [
        "e",
        "p"
      ],
      [
        "a",
        "g"
      ],
      [
        "itt",
        "le"
      ],
      [
        "re",
        "at"
      ],
      [
        "?",
        "\""
      ],
      [
        "ot",
        "her"
      ],
      [
        "a",
        "re"
      ],
      [
        "Ġ",
        "J"
      ],
      [
        "Ġa",
        "g"
      ],
      [
        "Ġd",
        "id"
      ],
      [
        "h",
        "ing"
      ],
      [
        "Ġ",
        "qu"
      ],
      [
        "Ġkn",
        "ow"
      ],
      [
        "Ġb",
        "r"
      ],
      [
        "w",
        "e"
      ],
      [
        "im",
        "e"
      ],
      [
        "Ġc",
        "an"
      ],
      [
        "o",
        "d"
      ],
      [
        "ur",
        "n"
      ],
      [
        "in",
        "k"
      ],
      [
        "Ġs",
        "p"
      ],
      [
        "Ġa",
        "f"
      ],
      [
        "t",
        "her"
      ],
      [
        "ic",
        "e"
      ],
      [
        "u",
        "re"
      ],
      [
        "Ġ",
        "R"
      ],
      [
        "Ġan",
        "y"
      ],
      [
        "ou",
        "ght"
      ],
      [
        "Ġt",
        "r"
      ],
      [
        ",",
        "âĢĿ"
      ],
      [
        "Ġ",
        "E"
      ],
      [
        "Ġin",
        "to"
      ],
      [
        "nd",
        "er"
      ],
      [
        "Ġa",
        "r"
      ],
      [
        "Ġ",
        "N"
      ],
      [
        "Ġm",
        "ore"
      ],
      [
        "in",
        "e"
      ],
      [
        "v",
        "ed"
      ],
      [
        "Ġli",
        "ke"
      ],
      [
        "n",
        "e"
      ],
      [
        "Ġs",
        "ome"
      ],
      [
        "t",
        "e"
      ],
      [
        "Ġl",
        "ittle"
      ],
      [
        "Ġse",
        "e"
      ],
      [
        "Ġ",
        "O"
      ],
      [
        "p",
        "l"
      ],
      [
        "Ġa",
        "m"
      ],
      [
        "it",
        "e"
      ],
      [
        "as",
        "s"
      ],
      [
        "ĠM",
        "r"
      ],
      [
        "he",
        "re"
      ],
      [
        "o",
        "ve"
      ],
      [
        "Y",
        "ou"
      ],
      [
        "f",
        "e"
      ],
      [
        "f",
        "ore"
      ],
      [
        "n",
        "g"
      ],
      [
        "Ġab",
        "out"
      ],
      [
        "Ġs",
        "ha"
      ],
      [
        "Ġto",
        "o"
      ],
      [
        "Ġn",
        "ow"
      ],
      [
        "Ġc",
        "l"
      ],
      [
        "Ġo",
        "ver"
      ],
      [
        "ad",
        "e"
      ],
      [
        "Ġg",
        "r"
      ],
      [
        "o",
        "p"
      ],
      [
        "o",
        "y"
      ],
      [
        "it",
        "y"
      ],
      [
        "Ġha",
        "nd"
      ],
      [
        "Ġ",
        "very"
      ],
      [
        "Ġu",
        "s"
      ],
      [
        "Ġu",
        "n"
      ],
      [
        "Ġt",
        "ime"
      ],
      [
        "ic",
        "k"
      ],
      [
        "Ġthe",
        "n"
      ],
      [
        "b",
        "e"
      ],
      [
        "Ġs",
        "ay"
      ],
      [
        "at",
        "her"
      ],
      [
        "Ġt",
        "han"
      ],
      [
        "Ġt",
        "w"
      ],
      [
        "o",
        "f"
      ],
      [
        "Ġb",
        "l"
      ],
      [
        "is",
        "h"
      ],
      [
        "ab",
        "le"
      ],
      [
        "i",
        "le"
      ],
      [
        "Ġd",
        "own"
      ],
      [
        "an",
        "ce"
      ],
      [
        "Ċ",
        "Ċ"
      ],
      [
        "ĠI",
        "t"
      ],
      [
        "Ġr",
        "o"
      ],
      [
        "u",
        "d"
      ],
      [
        "e",
        "ar"
      ],
      [
        "Ġc",
        "h"
      ],
      [
        "w",
        "n"
      ],
      [
        "Ġ",
        "en"
      ],
      [
        "Ġo",
        "ther"
      ],
      [
        "Ġag",
        "ain"
      ],
      [
        "a",
        "p"
      ],
      [
        "b",
        "le"
      ],
      [
        "a",
        "ge"
      ],
      [
        "en",
        "ce"
      ],
      [
        "ĠA",
        "nd"
      ],
      [
        "u",
        "ll"
      ],
      [
        "Ġd",
        "ay"
      ],
      [
        "i",
        "ous"
      ],
      [
        "Ġp",
        "ro"
      ],
      [
        "ĠĠ",
        "Ġ"
      ],
      [
        "or",
        "d"
      ],
      [
        "res",
        "s"
      ],
      [
        "!",
        "\""
      ],
      [
        "i",
        "re"
      ],
      [
        "if",
        "e"
      ],
      [
        "i",
        "es"
      ],
      [
        "u",
        "ch"
      ],
      [
        "ing",
        "s"
      ],
      [
        "Ġg",
        "ood"
      ],
      [
        "ĠB",
        "ut"
      ],
      [
        "all",
        "y"
      ],
      [
        "Ġf",
        "l"
      ],
      [
        "o",
        "nd"
      ],
      [
        "i",
        "ed"
      ],
      [
        "Ġsh",
        "ould"
      ],
      [
        "u",
        "e"
      ],
      [
        "i",
        "ld"
      ],
      [
        "Ġup",
        "on"
      ],
      [
        "Ġ",
        "_"
      ],
      [
        "er",
        "t"
      ],
      [
        "v",
        "ing"
      ],
      [
        "re",
        "e"
      ],
      [
        "a",
        "ve"
      ],
      [
        "Ġaf",
        "ter"
      ],
      [
        "Ġb",
        "ack"
      ],
      [
        "Ġth",
        "ink"
      ],
      [
        "Ġd",
        "is"
      ],
      [
        "ĠS",
        "he"
      ],
      [
        "Ġc",
        "ame"
      ],
      [
        "Ġe",
        "y"
      ],
      [
        "Ġof",
        "f"
      ],
      [
        "c",
        "l"
      ],
      [
        "m",
        "ent"
      ],
      [
        "Ġo",
        "ld"
      ],
      [
        "o",
        "ll"
      ],
      [
        "f",
        "ul"
      ],
      [
        "l",
        "ed"
      ],
      [
        "Ġa",
        "d"
      ],
      [
        "ou",
        "nt"
      ],
      [
        "Ġbe",
        "fore"
      ],
      [
        "ad",
        "y"
      ],
      [
        "o",
        "ld"
      ],
      [
        "r",
        "an"
      ],
      [
        "Ġc",
        "ome"
      ],
      [
        "Ġon",
        "ly"
      ],
      [
        "w",
        "ard"
      ],
      [
        "h",
        "is"
      ],
      [
        "Ġp",
        "r"
      ],
      [
        "Ġm",
        "ade"
      ],
      [
        "c",
        "c"
      ],
      [
        "ri",
        "ed"
      ],
      [
        "Ġw",
        "ay"
      ],
      [
        "Ġha",
        "s"
      ],
      [
        "Ġl",
        "ong"
      ],
      [
        "is",
        "s"
      ],
      [
        "v",
        "es"
      ],
      [
        "Ġo",
        "ur"
      ],
      [
        "Ġh",
        "ow"
      ],
      [
        "H",
        "e"
      ],
      [
        "Ġm",
        "ust"
      ],
      [
        "or",
        "n"
      ],
      [
        "Ġth",
        "r"
      ],
      [
        "Ġs",
        "m"
      ],
      [
        "Ġ",
        "'"
      ],
      [
        "p",
        "s"
      ],
      [
        "Ċ",
        "ĠĠĠĠ"
      ],
      [
        "Ġne",
        "ver"
      ],
      [
        "n",
        "ess"
      ],
      [
        "Ġ",
        "im"
      ],
      [
        "Ġg",
        "reat"
      ],
      [
        "Ġtw",
        "o"
      ],
      [
        "Ġl",
        "ook"
      ],
      [
        "ri",
        "e"
      ],
      [
        "?",
        "âĢĿ"
      ],
      [
        "Ġp",
        "o"
      ],
      [
        "f",
        "t"
      ],
      [
        "Ġm",
        "uch"
      ],
      [
        "Ġth",
        "ought"
      ],
      [
        "Ġg",
        "et"
      ],
      [
        "p",
        "er"
      ],
      [
        "Ġhe",
        "re"
      ],
      [
        "Ġs",
        "c"
      ],
      [
        "ou",
        "se"
      ],
      [
        "t",
        "y"
      ],
      [
        "t",
        "hat"
      ],
      [
        "f",
        "or"
      ],
      [
        "Ġg",
        "l"
      ],
      [
        "is",
        "e"
      ],
      [
        "ar",
        "k"
      ],
      [
        "t",
        "ed"
      ],
      [
        "ir",
        "st"
      ],
      [
        "r",
        "u"
      ],
      [
        "Ġw",
        "here"
      ],
      [
        "Ġw",
        "ent"
      ],
      [
        "m",
        "an"
      ],
      [
        "âĢ",
        "Ķ"
      ],
      [
        "at",
        "ed"
      ],
      [
        "Ġey",
        "es"
      ],
      [
        "re",
        "t"
      ],
      [
        "a",
        "ir"
      ],
      [
        "I",
        "t"
      ],
      [
        "Ġwe",
        "ll"
      ],
      [
        "Ġa",
        "pp"
      ],
      [
        "Ġre",
        "m"
      ],
      [
        "e",
        "w"
      ],
      [
        "Ċ",
        "Ġ"
      ],
      [
        "ac",
        "h"
      ],
      [
        "Ġse",
        "em"
      ],
      [
        "Ġc",
        "ha"
      ],
      [
        "Ġm",
        "ight"
      ],
      [
        "i",
        "p"
      ],
      [
        "Ġbe",
        "t"
      ],
      [
        "i",
        "ly"
      ],
      [
        "Ġl",
        "et"
      ],
      [
        "Ġj",
        "ust"
      ],
      [
        "ar",
        "y"
      ],
      [
        "Ġa",
        "way"
      ],
      [
        "en",
        "ed"
      ],
      [
        "Ġo",
        "wn"
      ],
      [
        "Ġd",
        "on"
      ],
      [
        "f",
        "f"
      ],
      [
        "A",
        "nd"
      ],
      [
        "Ġp",
        "er"
      ],
      [
        "Ġsu",
        "ch"
      ],
      [
        "Ġs",
        "pe"
      ],
      [
        "Ġe",
        "ven"
      ],
      [
        "Ġp",
        "e"
      ],
      [
        "Ġu",
        "nder"
      ],
      [
        "at",
        "h"
      ],
      [
        "b",
        "er"
      ],
      [
        "ac",
        "t"
      ],
      [
        "Ġ",
        "K"
      ],
      [
        "Ġs",
        "l"
      ],
      [
        "Ġhim",
        "self"
      ],
      [
        "Ġe",
        "very"
      ],
      [
        "Ġt",
        "urn"
      ],
      [
        "d",
        "e"
      ],
      [
        "Ġt",
        "ell"
      ],
      [
        "Ġm",
        "ake"
      ],
      [
        "Ġm",
        "en"
      ],
      [
        "Ġf",
        "irst"
      ],
      [
        "ĠĠĠĠĠĠĠĠ",
        "ĠĠĠĠĠĠĠĠ"
      ],
      [
        "om",
        "et"
      ],
      [
        "on",
        "s"
      ],
      [
        "Ġhe",
        "ad"
      ],
      [
        "a",
        "red"
      ],
      [
        "l",
        "ess"
      ],
      [
        "Ġ",
        "ke"
      ],
      [
        "Ġp",
        "art"
      ],
      [
        "s",
        "h"
      ],
      [
        "w",
        "h"
      ],
      [
        "a",
        "v"
      ],
      [
        "re",
        "n"
      ],
      [
        "Ġbe",
        "g"
      ],
      [
        "oo",
        "ked"
      ],
      [
        "an",
        "c"
      ],
      [
        "Ġf",
        "ace"
      ],
      [
        "Ġw",
        "ant"
      ],
      [
        "ion",
        "s"
      ],
      [
        "Ġd",
        "es"
      ],
      [
        "B",
        "ut"
      ],
      [
        "n",
        "ot"
      ],
      [
        "Ġit",
        "s"
      ],
      [
        "os",
        "s"
      ],
      [
        "ir",
        "l"
      ],
      [
        "b",
        "l"
      ],
      [
        "an",
        "s"
      ],
      [
        "rie",
        "nd"
      ],
      [
        "Ġsha",
        "ll"
      ],
      [
        "ig",
        "n"
      ],
      [
        "r",
        "ow"
      ],
      [
        "Ġbe",
        "c"
      ],
      [
        "Ġm",
        "ay"
      ],
      [
        "Ġthr",
        "ough"
      ],
      [
        "Ġw",
        "at"
      ],
      [
        "Ċ",
        "ĠĠĠ"
      ],
      [
        "Ġt",
        "ake"
      ],
      [
        "Ġyou",
        "ng"
      ],
      [
        "Ġc",
        "all"
      ],
      [
        "Ġw",
        "om"
      ],
      [
        "al",
        "k"
      ],
      [
        "Ġl",
        "ast"
      ],
      [
        "Ġwor",
        "d"
      ],
      [
        "ot",
        "h"
      ],
      [
        "au",
        "se"
      ],
      [
        "Ġp",
        "ass"
      ],
      [
        "Ġr",
        "ight"
      ],
      [
        "'",
        "ll"
      ],
      [
        "th",
        "ing"
      ],
      [
        "t",
        "ing"
      ],
      [
        "Ġl",
        "ife"
[...]
