{
  "version": "1.0",
  "truncation": null,
  "padding": null,
  "added_tokens": [
    {
      "id": 0,
      "content": "<|endoftext|>",
      "single_word": false,
      "lstrip": false,
      "rstrip": false,
      "normalized": false,
      "special": true
    },
    {
      "id": 32000,
      "content": "<fim_prefix>",
      "single_word": false,
      "lstrip": false,
      "rstrip": false,
      "normalized": false,
      "special": true
    },
    {
      "id": 32001,
      "content": "<fim_suffix>",
      "single_word": false,
      "lstrip": false,
      "rstrip": false,
      "normalized": false,
      "special": true
    },
    {
      "id": 32002,
      "content": "<fim_middle>",
      "single_word": false,
      "lstrip": false,
      "rstrip": false,
      "normalized": false,
      "special": true
    }
  ],
  "normalizer": null,
  "pre_tokenizer": {
    "type": "ByteLevel",
    "add_prefix_space": false,
    "trim_offsets": true,
    "use_regex": true
  },
  "post_processor": null,
  "decoder": {
    "type": "ByteLevel",
    "add_prefix_space": true,
    "trim_offsets": true,
    "use_regex": true
  },
  "model": {
    "type": "BPE",
    "dropout": null,
    "unk_token": null,
    "continuing_subword_prefix": null,
    "end_of_word_suffix": null,
    "fuse_unk": false,
    "byte_fallback": false,
    "ignore_merges": false,
    "vocab": {
      "<|endoftext|>": 0,
      "!": 1,
      "\"": 2,
      "#": 3,
      "$": 4,
      "%": 5,
      "&": 6,
      "'": 7,
      "(": 8,
      ")": 9,
      "*": 10,
      "+": 11,
      ",": 12,
      "-": 13,
      ".": 14,
      "/": 15,
      "0": 16,
      "1": 17,
      "2": 18,
      "3": 19,
      "4": 20,
      "5": 21,
      "6": 22,
      "7": 23,
      "8": 24,
      "9": 25,
      ":": 26,
      ";": 27,
      "<": 28,
      "=": 29,
      ">": 30,
      "?": 31,
      "@": 32,
      "A": 33,
      "B": 34,
      "C": 35,
      "D": 36,
      "E": 37,
      "F": 38,
      "G": 39,
      "H": 40,
      "I": 41,
      "J": 42,
      "K": 43,
      "L": 44,
      "M": 45,
      "N": 46,
      "O": 47,
      "P": 48,
      "Q": 49,
      "R": 50,
      "S": 51,
      "T": 52,
      "U": 53,
      "V": 54,
      "W": 55,
      "X": 56,
      "Y": 57,
      "Z": 58,
      "[": 59,
      "\\": 60,
      "]": 61,
      "^": 62,
      "_": 63,
      "`": 64,
      "a": 65,
      "b": 66,
      "c": 67,
      "d": 68,
      "e": 69,
      "f": 70,
      "g": 71,
      "h": 72,
      "i": 73,
      "j": 74,
      "k": 75,
      "l": 76,
      "m": 77,
      "n": 78,
      "o": 79,
      "p": 80,
      "q": 81,
      "r": 82,
      "s": 83,
      "t": 84,
      "u": 85,
      "v": 86,
      "w": 87,
      "x": 88,
      "y": 89,
      "z": 90,
      "{": 91,
      "|": 92,
      "}": 93,
      "~": 94,
      "¡": 95,
      "¢": 96,
      "£": 97,
      "¤": 98,
      "¥": 99,
      "¦": 100,
      "§": 101,
      "¨": 102,
      "©": 103,
      "ª": 104,
      "«": 105,
      "¬": 106,
      "®": 107,
      "¯": 108,
      "°": 109,
      "±": 110,
      "²": 111,
      "³": 112,
      "´": 113,
      "µ": 114,
      "¶": 115,
      "·": 116,
      "¸": 117,
      "¹": 118,
      "º": 119,
      "»": 120,
      "¼": 121,
      "½": 122,
      "¾": 123,
      "¿": 124,
      "À": 125,
      "Á": 126,
      "Â": 127,
      "Ã": 128,
      "Ä": 129,
      "Å": 130,
      "Æ": 131,
      "Ç": 132,
      "È": 133,
      "É": 134,
      "Ê": 135,
      "Ë": 136,
      "Ì": 137,
      "Í": 138,
      "Î": 139,
      "Ï": 140,
      "Ð": 141,
      "Ñ": 142,
      "Ò": 143,
      "Ó": 144,
      "Ô": 145,
      "Õ": 146,
      "Ö": 147,
      "×": 148,
      "Ø": 149,
      "Ù": 150,
      "Ú": 151,
      "Û": 152,
      "Ü": 153,
      "Ý": 154,
      "Þ": 155,
      "ß": 156,
      "à": 157,
      "á": 158,
      "â": 159,
      "ã": 160,
      "ä": 161,
      "å": 162,
      "æ": 163,
      "ç": 164,
      "è": 165,
      "é": 166,
      "ê": 167,
      "ë": 168,
      "ì": 169,
      "í": 170,
      "î": 171,
      "ï": 172,
      "ð": 173,
      "ñ": 174,
      "ò": 175,
      "ó": 176,
      "ô": 177,
      "õ": 178,
      "ö": 179,
      "÷": 180,
      "ø": 181,
      "ù": 182,
      "ú": 183,
      "û": 184,
      "ü": 185,
      "ý": 186,
      "þ": 187,
      "ÿ": 188,
      "Ā": 189,
      "ā": 190,
      "Ă": 191,
      "ă": 192,
      "Ą": 193,
      "ą": 194,
      "Ć": 195,
      "ć": 196,
      "Ĉ": 197,
      "ĉ": 198,
      "Ċ": 199,
      "ċ": 200,
      "Č": 201,
      "č": 202,
      "Ď": 203,
      "ď": 204,
      "Đ": 205,
      "đ": 206,
      "Ē": 207,
      "ē": 208,
      "Ĕ": 209,
      "ĕ": 210,
      "Ė": 211,
      "ė": 212,
      "Ę": 213,
      "ę": 214,
      "Ě": 215,
      "ě": 216,
      "Ĝ": 217,
      "ĝ": 218,
      "Ğ": 219,
      "ğ": 220,
      "Ġ": 221,
      "ġ": 222,
      "Ģ": 223,
      "ģ": 224,
      "Ĥ": 225,
      "ĥ": 226,
      "Ħ": 227,
      "ħ": 228,
      "Ĩ": 229,
      "ĩ": 230,
      "Ī": 231,
      "ī": 232,
      "Ĭ": 233,
      "ĭ": 234,
      "Į": 235,
      "į": 236,
      "İ": 237,
      "ı": 238,
      "Ĳ": 239,
      "ĳ": 240,
      "Ĵ": 241,
      "ĵ": 242,
      "Ķ": 243,
      "ķ": 244,
      "ĸ": 245,
      "Ĺ": 246,
      "ĺ": 247,
      "Ļ": 248,
      "ļ": 249,
      "Ľ": 250,
      "ľ": 251,
      "Ŀ": 252,
      "ŀ": 253,
      "Ł": 254,
      "ł": 255,
      "Ń": 256,
      "ĠĠ": 257,
      "ĠĠĠĠ": 258,
      "ĠĠĠ": 259,
      "ĊĠĠĠĠ": 260,
      "on": 261,
      "er": 262,
      "in": 263,
      "re": 264,
      "at": 265,
      "Ġt": 266,
      "or": 267,
      "st": 268,
      "en": 269,
      "se": 270,
      "ĠĠĠĠĠĠĠĠ": 271,
      "Ġa": 272,
      "le": 273,
      "Ġ=": 274,
      "ĊĠĠĠ": 275,
      "Ġc": 276,
      "ar": 277,
      "al": 278,
      "ion": 279,
      "Ġth": 280,
      "ro": 281,
      "ct": 282,
      "it": 283,
      "ĊĠĠĠĠĠĠĠ": 284,
      "de": 285,
      "is": 286,
      "an": 287,
      "Ġf": 288,
      "Ġ{": 289,
      "me": 290,
      "Ġp": 291,
      "ent": 292,
      "Ġ'": 293,
      "ur": 294,
      "ge": 295,
      "ing": 296,
      "Ġ}": 297,
      "Ġthe": 298,
      "ce": 299,
      ");": 300,
      "ĊĠĠĠĠĠĠĠĠ": 301,
      "Ġre": 302,
      "un": 303,
      "Ġs": 304,
      "ut": 305,
      "Ġo": 306,
      "mp": 307,
      "ss": 308,
      "ĊĠ": 309,
      "ĊĠĠĠĠĠĠĠĠĠĠĠĠ": 310,
      "Ġn": 311,
      "ed": 312,
      "ex": 313,
      "Ġ\"": 314,
      "Ġb": 315,
      "lo": 316,
      "Ġw": 317,
      "pe": 318,
      "ic": 319,
      "th": 320,
      "Ġin": 321,
      "ate": 322,
      "ĊĠĠĠĠĠĠĠĠĠĠĠ": 323,
      "Ġ(": 324,
      "id": 325,
      "la": 326,
      "ort": 327,
      "ch": 328,
      "if": 329,
      "ue": 330,
      "ul": 331,
      "Ġm": 332,
      "ame": 333,
      "Ġd": 334,
      "',": 335,
      "il": 336,
      "el": 337,
      "ad": 338,
      "--": 339,
      "ction": 340,
      "ĊĠĠĠĠĠ": 341,
      "Ġan": 342,
      "ig": 343,
      "ol": 344,
      "ĉĉ": 345,
      "Ġto": 346,
      "()": 347,
      "Ġcon": 348,
      "es": 349,
      "Ġse": 350,
      "Ġh": 351,
      "\",": 352,
      "Ġof": 353,
      "ra": 354,
      "lf": 355,
      "urn": 356,
      "rom": 357,
      "turn": 358,
      "co": 359,
      "Ġst": 360,
      "ation": 361,
      "um": 362,
      "Ġ*": 363,
      "ri": 364,
      "ot": 365,
      "00": 366,
      "ype": 367,
      "imp": 368,
      "Ġv": 369,
      "ck": 370,
      "Ġde": 371,
      "us": 372,
      "ve": 373,
      "as": 374,
      "Ġ1": 375,
      "get": 376,
      "Ġand": 377,
      "('": 378,
      "//": 379,
      "ter": 380,
      "con": 381,
      "li": 382,
      "age": 383,
      "import": 384,
      "==": 385,
      "ata": 386,
      "Ġthis": 387,
      "pt": 388,
      "ĠT": 389,
      "Ġif": 390,
      "**": 391,
      "ĊĠĠĠĠĠĠĠĠĠĠĠĠĠĠĠ": 392,
      "et": 393,
      "ext": 394,
      "unction": 395,
      "),": 396,
      "ode": 397,
      "Ġreturn": 398,
      "ab": 399,
      "Ġfrom": 400,
      "ap": 401,
      "od": 402,
      "Ġ<": 403,
      "em": 404,
      "Ġis": 405,
      "to": 406,
      "Ġfor": 407,
      "ew": 408,
      "ĊĊĠĠĠ": 409,
      "In": 410,
      "ect": 411,
      "ĠS": 412,
      "Ġ[": 413,
      "ment": 414,
      "Ġself": 415,
      "up": 416,
      "):": 417,
      "ĠC": 418,
      "ers": 419,
      "(\"": 420,
      "ĠA": 421,
      "he": 422,
      "Ġ0": 423,
      "qu": 424,
      "ult": 425,
      "ow": 426,
      "di": 427,
      "Ġe": 428,
      "ht": 429,
      "Ġconst": 430,
      "alue": 431,
      ").": 432,
      "ile": 433,
      "est": 434,
      "\":": 435,
      "],": 436,
      "..": 437,
      "vi": 438,
      "----": 439,
      "am": 440,
      "Ġg": 441,
      "ring": 442,
      "om": 443,
      "ver": 444,
      "ke": 445,
      "ist": 446,
      "Re": 447,
      "and": 448,
      "ly": 449,
      "Ġ=>": 450,
      "end": 451,
      "ĊĠĠĠĠĠĠĠĠĠĠĠĠĠĠĠĠĠĠĠĠ": 452,
      "##": 453,
      "res": 454,
      "this": 455,
      "ĠĠĠĠĠĠĠ": 456,
      "Ċĉĉ": 457,
      "ub": 458,
      "im": 459,
      "St": 460,
      "port": 461,
      "ĠP": 462,
      "iz": 463,
      "ath": 464,
      "lass": 465,
      "ith": 466,
      "rop": 467,
      "Ġ2": 468,
      "__": 469,
      "Ġex": 470,
      "ert": 471,
      "name": 472,
      "ption": 473,
      "Ġas": 474,
      "one": 475,
      "ject": 476,
      "orm": 477,
      "int": 478,
      "set": 479,
      "Ġ+": 480,
      "Ġbe": 481,
      "fa": 482,
      "able": 483,
      "ase": 484,
      "=\"": 485,
      "ĊĠĠĠĠĠĠĠĠĠ": 486,
      "Ġl": 487,
      "ĠM": 488,
      "der": 489,
      "self": 490,
      "use": 491,
      "tr": 492,
      "ir": 493,
      "art": 494,
      "ay": 495,
      "ren": 496,
      "op": 497,
      "))": 498,
      "Ġ-": 499,
      "ror": 500,
      "ime": 501,
      "';": 502,
      "out": 503,
      "Ġ#": 504,
      "Con": 505,
      "ine": 506,
      "os": 507,
      "ta": 508,
      "ĠN": 509,
      "let": 510,
      "our": 511,
      "function": 512,
      "Ġon": 513,
      "Ċĉ": 514,
      "Ġit": 515,
      "sp": 516,
      "ight": 517,
      "ĠI": 518,
      "put": 519,
      "ĠD": 520,
      "Ġr": 521,
      "Ġ//": 522,
      "ser": 523,
      "._": 524,
      "type": 525,
      "ack": 526,
      "ber": 527,
      "Ġy": 528,
      "')": 529,
      "ĊĠĠĠĠĠĠĠĠĠĠĠĠĠĠĠĠĠĠĠ": 530,
      "Ġ},": 531,
      "ity": 532,
      "all": 533,
      "Ġco": 534,
      "oc": 535,
      "ĠF": 536,
      "sc": 537,
      "log": 538,
      "data": 539,
      "Ġtr": 540,
      "ĊĊĠĠĠĠĠĠĠ": 541,
      "Name": 542,
      "Ġwh": 543,
      "Ġpro": 544,
      "act": 545,
      "ĠE": 546,
      "':": 547,
      "ĊĊĠ": 548,
      "ind": 549,
      "\"\"": 550,
      "lic": 551,
      "Ġor": 552,
      "ff": 553,
      "export": 554,
      "Ġwith": 555,
      "ial": 556,
      "ll": 557,
      "par": 558,
      "},": 559,
      "Ġ/": 560,
      "();": 561,
      "var": 562,
      "que": 563,
      "ire": 564,
      "pro": 565,
      "ĠB": 566,
      "ĠL": 567,
      "Ġme": 568,
      "sh": 569,
      "Ġthat": 570,
      "Ġ:": 571,
      "Ġfunction": 572,
      "unt": 573,
      "vent": 574,
      "key": 575,
      "Ġ@": 576,
      "ans": 577,
      "ore": 578,
      "ull": 579,
      "bject": 580,
      "={": 581,
      "Ġnot": 582,
      "ize": 583,
      "ure": 584,
      "Ġnew": 585,
      "Ġstring": 586,
      "ive": 587,
      "gs": 588,
      "Ġdef": 589,
      "âĢ": 590,
      "umber": 591,
      "ance": 592,
      "../": 593,
      "oo": 594,
      "pp": 595,
      "vice": 596,
      "lement": 597,
      "['": 598,
      "fig": 599,
      "Ġ});": 600,
      "return": 601,
      "form": 602,
      "text": 603,
      "ĠO": 604,
      "ange": 605,
      "atch": 606,
      "ule": 607,
      "fault": 608,
      "&&": 609,
      "Id": 610,
      "und": 611,
      "ĊĊ": 612,
      "){": 613,
      "ies": 614,
      "odel": 615,
      "onent": 616,
      "alse": 617,
      "lay": 618,
      "****": 619,
      "Ġres": 620,
      "Ġ_": 621,
      "mponent": 622,
      "def": 623,
      "app": 624,
      "\")": 625,
      "ma": 626,
      "ssage": 627,
      "Ġch": 628,
      "eng": 629,
      "ord": 630,
      "Ġ3": 631,
      "ant": 632,
      "pect": 633,
      "--------": 634,
      "ug": 635,
      "dex": 636,
      "01": 637,
      "Ġel": 638,
      "mo": 639,
      "rent": 640,
      "Ġun": 641,
      "reate": 642,
      "ard": 643,
      "lect": 644,
      "Type": 645,
      "ill": 646,
      "ust": 647,
      "####": 648,
      "Ġget": 649,
      "Ġ|": 650,
      "ild": 651,
      "quest": 652,
      "']": 653,
      "Ġdata": 654,
      "ĠR": 655,
      "ip": 656,
      "iv": 657,
      "ition": 658,
      "ĠH": 659,
      "ag": 660,
      "add": 661,
      "ource": 662,
      "value": 663,
      "ass": 664,
      "user": 665,
      "ach": 666,
      "ĠThe": 667,
      "cess": 668,
      "list": 669,
      "Ġname": 670,
      "js": 671,
      "ĠG": 672,
      "Ġvar": 673,
      "({": 674,
      "Ġtype": 675,
      "const": 676,
      "ign": 677,
      "ptions": 678,
      "ĠW": 679,
      "po": 680,
      "row": 681,
      "load": 682,
      "ave": 683,
      "Ġclass": 684,
      "ory": 685,
      "Ġare": 686,
      "ere": 687,
      "ength": 688,
      "yle": 689,
      "ray": 690,
      "ĠĠĠĠĠĠĠĠĠĠĠĠĠĠĠĠ": 691,
      "rib": 692,
      "eld": 693,
      "Ġsh": 694,
      "wa": 695,
      "Co": 696,
      "Ġ*/": 697,
      "lab": 698,
      "ress": 699,
      "Ġimport": 700,
      "====": 701,
      "Ġuse": 702,
      "ĠU": 703,
      "yn": 704,
      "ield": 705,
      "ated": 706,
      "Ġ$": 707,
      "ise": 708,
      "error": 709,
      "Ġar": 710,
      "Ġ()": 711,
      "Ġvalue": 712,
      "ument": 713,
      "low": 714,
      "date": 715,
      "Ġat": 716,
      "path": 717,
      "Ġal": 718,
      "from": 719,
      "./": 720,
      "Ġi": 721,
      "12": 722,
      "olor": 723,
      "val": 724,
      "To": 725,
      "ĠRe": 726,
      "so": 727,
      "');": 728,
      "file": 729,
      "\";": 730,
      "</": 731,
      "Ġ==": 732,
      "ac": 733,
      "dd": 734,
      "com": 735,
      "Ġby": 736,
      "rror": 737,
      "rops": 738,
      "ery": 739,
      "Ġ</": 740,
      "Ġma": 741,
      "ens": 742,
      "Ġ.": 743,
      "class": 744,
      "Ch": 745,
      "bo": 746,
      "Ġelse": 747,
      "ork": 748,
      "uld": 749,
      "tent": 750,
      "tp": 751,
      "odule": 752,
      "ep": 753,
      "ite": 754,
      "param": 755,
      "div": 756,
      "ang": 757,
      "Ġset": 758,
      "Ġ\"\"\"": 759,
      "Data": 760,
      "uct": 761,
      "Se": 762,
      "ator": 763,
      "test": 764,
      "ON": 765,
      "Ġ4": 766,
      "onse": 767,
      "te": 768,
      "ph": 769,
      "ary": 770,
      "quire": 771,
      "Ġexpect": 772,
      "ĊĠĠĠĠĠĠĠĠĠĠĠĠĠĠĠĠĠĠĠĠĠĠĠ": 773,
      "10": 774,
      "Ġhe": 775,
      "length": 776,
      "per": 777,
      "cl": 778,
      "ĊĠĠ": 779,
      "loc": 780,
      "99": 781,
      "\",\"": 782,
      "amp": 783,
      "ence": 784,
      "Ġ`": 785,
      "ost": 786,
      "av": 787,
      "Ġnumber": 788,
      "Ġ)": 789,
      "])": 790,
      "fo": 791,
      "ix": 792,
      "Ġtrue": 793,
      "ou": 794,
      "ded": 795,
      "ener": 796,
      "ĠIn": 797,
      "own": 798,
      "];": 799,
      "ervice": 800,
      "ER": 801,
      "uth": 802,
      "ken": 803,
      "ink": 804,
      "Ġle": 805,
      "roup": 806,
      "og": 807,
      "ton": 808,
      "wait": 809,
      "ml": 810,
      "qual": 811,
      "11": 812,
      "};": 813,
      "ĊĠĠĠĠĠĠĠĠĠĠĠĠĠ": 814,
      "tain": 815,
      "ync": 816,
      "ther": 817,
      "ould": 818,
      "str": 819,
      "ib": 820,
      "Ġ5": 821,
      "ute": 822,
      "Ġpar": 823,
      "ft": 824,
      "='": 825,
      "Ġk": 826,
      "Ġ===": 827,
      "Ġso": 828,
      "ropert": 829,
      "Error": 830,
      "atus": 831,
      "url": 832,
      "red": 833,
      "Ġx": 834,
      "Ġj": 835,
      "].": 836,
      ":\"": 837,
      "ined": 838,
      "Res": 839,
      "Ċĉĉĉĉ": 840,
      "ĠV": 841,
      "urrent": 842,
      "ations": 843,
      "Ġcan": 844,
      "Ġtest": 845,
      "De": 846,
      "Ġwe": 847,
      "ak": 848,
      "omm": 849,
      "Tr": 850,
      "ne": 851,
      "Ġid": 852,
      "itle": 853,
      "we": 854,
      "Ex": 855,
      "List": 856,
      "utton": 857,
      "Ġnull": 858,
      "Pro": 859,
      "čĊĠĠĠ": 860,
      "label": 861,
      "ref": 862,
      "čĊ": 863,
      "Ġ})": 864,
      "Ar": 865,
      "ide": 866,
      "lient": 867,
      "ob": 868,
      "idth": 869,
      "ud": 870,
      "line": 871,
      "Ġ!": 872,
      "IN": 873,
      "02": 874,
      "Ġass": 875,
      "ast": 876,
      "Ġlet": 877,
      "arch": 878,
      "?:": 879,
      "back": 880,
      "time": 881,
      "[\"": 882,
      "rint": 883,
      "min": 884,
      "ain": 885,
      "Ġany": 886,
      "En": 887,
      "Element": 888,
      "for": 889,
      "Ġ>": 890,
      "Ġdefault": 891,
      "Ġen": 892,
      "Ġout": 893,
      "čĊĠĠĠĠĠĠĠ": 894,
      "ĠNone": 895,
      "lock": 896,
      "tro": 897,
      "Ċĉĉĉ": 898,
      "stance": 899,
      "Ġro": 900,
      "ical": 901,
      "string": 902,
      "ĠJ": 903,
      "25": 904,
      "tra": 905,
      "State": 906,
      "Ġfalse": 907,
      "ger": 908,
      "16": 909,
      "uc": 910,
      "ilter": 911,
      "ail": 912,
      "scri": 913,
      "Ġawait": 914,
      "AT": 915,
      "Ġ&&": 916,
      "\");": 917,
      "Ġdis": 918,
      "Ġwas": 919,
      "ask": 920,
      "\">": 921,
      "arget": 922,
      "0000": 923,
      "Value": 924,
      "32": 925,
      "pa": 926,
      "oid": 927,
      "It": 928,
      "ES": 929,
      "ings": 930,
      "ĠĠĠĠĠ": 931,
      "code": 932,
      "pec": 933,
      "Ġfile": 934,
      "Ġup": 935,
      "ey": 936,
      "ublic": 937,
      "EN": 938,
      "((": 939,
      "count": 940,
      "io": 941,
      "Service": 942,
      "read": 943,
      "thod": 944,
      "args": 945,
      "AA": 946,
      "Ġ};": 947,
      "of": 948,
      "ms": 949,
      "iew": 950,
      "18": 951,
      "create": 952,
      "ry": 953,
      "Ġresult": 954,
      "********": 955,
      "ense": 956,
      "index": 957,
      "Ġcomp": 958,
      "lace": 959,
      "IC": 960,
      "Ġtime": 961,
      ",\"": 962,
      "ich": 963,
      "arg": 964,
      "ark": 965,
      "Ġhave": 966,
      "ocument": 967,
      "image": 968,
      "ody": 969,
      "15": 970,
      "ell": 971,
      "late": 972,
      "})": 973,
      "lean": 974,
      "ree": 975,
      "led": 976,
      "ec": 977,
      "mit": 978,
      "Ġyou": 979,
      "state": 980,
      "ĊĠĠĠĠĠĠĠĠĠĠĠĠĠĠĠĠĠĠĠĠĠĠĠĠĠĠĠĠ": 981,
      "Ġhas": 982,
      "mb": 983,
      "item": 984,
      "ions": 985,
      "Ġli": 986,
      "ader": 987,
      "########": 988,
      "\":\"": 989,
      "Ġ'./": 990,
      "Key": 991,
      "Item": 992,
      "://": 993,
      "ponse": 994,
      "Ġrequire": 995,
      "...": 996,
      "${": 997,
      "Ġkey": 998,
      "Object": 999,
      "json": 1000,
      "model": 1001,
      "04": 1002,
      "Ġdo": 1003,
      "fer": 1004,
      "ual": 1005,
      "OR": 1006,
      "les": 1007,
      "riv": 1008,
      "ĠTh": 1009,
      "Ġ?": 1010,
      "Ġac": 1011,
      "roperty": 1012,
      "ong": 1013,
      "emp": 1014,
      "});": 1015,
      "lete": 1016,
      "ish": 1017,
      "19": 1018,
      "Text": 1019,
      "14": 1020,
      "config": 1021,
      "Ġinter": 1022,
      "64": 1023,
      "action": 1024,
      "Ġall": 1025,
      "../../": 1026,
      "Ġne": 1027,
      "ĠSt": 1028,
      "ID": 1029,
      "----------------": 1030,
      "ca": 1031,
      "Ġassert": 1032,
      "05": 1033,
      "play": 1034,
      "col": 1035,
      "new": 1036,
      "():": 1037,
      "13": 1038,
      "Ġ/**": 1039,
      "Ġuser": 1040,
      "ater": 1041,
      "The": 1042,
      "query": 1043,
      "\"]": 1044,
      "message": 1045,
      "size": 1046,
      "trib": 1047,
      "ush": 1048,
      "âĢĻ": 1049,
      "Ġstr": 1050,
      "75": 1051,
      "sub": 1052,
      "dis": 1053,
      "Component": 1054,
      "ick": 1055,
      "ann": 1056,
      "Ġ||": 1057,
      "pos": 1058,
      "face": 1059,
      "Me": 1060,
      "ont": 1061,
      "Ġab": 1062,
      "Event": 1063,
      "LE": 1064,
      "map": 1065,
      "pre": 1066,
      "Ġwill": 1067,
      "http": 1068,
      "inter": 1069,
      "umn": 1070,
      "ify": 1071,
      "irst": 1072,
      "tot": 1073,
      "node": 1074,
      "Ġ6": 1075,
      "ific": 1076,
      "ia": 1077,
      "========": 1078,
      "pi": 1079,
      "(),": 1080,
      "Ġ);": 1081,
      "init": 1082,
      "cre": 1083,
      "Ġ/>": 1084,
      "Ġ__": 1085,
      "defined": 1086,
      "Ġ%": 1087,
      "Ġext": 1088,
      "base": 1089,
      "String": 1090,
      "ils": 1091,
      "ersion": 1092,
      "'s": 1093,
      "Time": 1094,
      "lick": 1095,
      "heck": 1096,
      "Ġlog": 1097,
      "QU": 1098,
      "iss": 1099,
      "sed": 1100,
      "trans": 1101,
      "().": 1102,
      "Ġmo": 1103,
      "pl": 1104,
      "Ġapp": 1105,
      "Ġpre": 1106,
      "ound": 1107,
      "Ġlist": 1108,
      "ST": 1109,
      "default": 1110,
      "Ġper": 1111,
      "ifi": 1112,
      "RE": 1113,
      "Ġla": 1114,
      "03": 1115,
      "any": 1116,
      "input": 1117,
      "||": 1118,
      "Ġpath": 1119,
      "oolean": 1120,
      "indow": 1121,
      "([": 1122,
      "Equal": 1123,
      "gra": 1124,
      "html": 1125,
      "rivate": 1126,
      "ear": 1127,
      "sole": 1128,
      "By": 1129,
      "Ġadd": 1130,
      "view": 1131,
      "06": 1132,
      "round": 1133,
      "ook": 1134,
      "ome": 1135,
      "Ġwhich": 1136,
      "ape": 1137,
      "ses": 1138,
      "Ġprint": 1139,
      "Ġnp": 1140,
      "17": 1141,
      "Node": 1142,
      "py": 1143,
      "component": 1144,
      "24": 1145,
      "romise": 1146,
      "fe": 1147,
      "ĊĠĠĠĠĠĠĠĠĠĠĠĠĠĠĠĠĠĠĠĠĠĠĠĠĠĠĠ": 1148,
      "(){": 1149,
      "ice": 1150,
      "alid": 1151,
      "word": 1152,
      "move": 1153,
      "Par": 1154,
      "IT": 1155,
      "rid": 1156,
      "core": 1157,
      "assert": 1158,
      "work": 1159,
      "ĠclassName": 1160,
      "Ġasync": 1161,
      "vel": 1162,
      "Be": 1163,
      "allback": 1164,
      "Ġcol": 1165,
      "Ġpo": 1166,
      "Ġpublic": 1167,
      "lection": 1168,
      "px": 1169,
      "jo": 1170,
      "ins": 1171,
      "Ġresp": 1172,
      "ider": 1173,
      "Form": 1174,
      "Ġerror": 1175,
      "File": 1176,
      "Ġlo": 1177,
      "rc": 1178,
      "append": 1179,
      "cent": 1180,
      "start": 1181,
      "Ġsub": 1182,
      "tainer": 1183,
      "Ġno": 1184,
      "ular": 1185,
      "Ġmodel": 1186,
      "Ġstate": 1187,
      "An": 1188,
      "comp": 1189,
      "ĠCon": 1190,
      "At": 1191,
      "Ġcomm": 1192,
      "ĠâĢ": 1193,
      "atic": 1194,
      "ace": 1195,
      "Ġ7": 1196,
      "err": 1197,
      "ĊĊĠĠĠĠĠĠĠĠĠĠĠ": 1198,
      "be": 1199,
      "dir": 1200,
      "Ġcreate": 1201,
      "null": 1202,
      "ash": 1203,
      "result": 1204,
      "AR": 1205,
      "-.": 1206,
      "Ġsup": 1207,
      "comm": 1208,
      "ts": 1209,
      "try": 1210,
      "ax": 1211,
      "uild": 1212,
      "Path": 1213,
      "scription": 1214,
      "').": 1215,
      "Ġtext": 1216,
      "lob": 1217,
      "not": 1218,
      "33": 1219,
      "He": 1220,
      "ys": 1221,
      "cept": 1222,
      "max": 1223,
      "Ġform": 1224,
      "ler": 1225,
      "ameter": 1226,
      ")}": 1227,
      "format": 1228,
      "props": 1229,
      "ample": 1230,
      "pen": 1231,
      "rame": 1232,
      "Field": 1233,
      "22": 1234,
      "08": 1235,
      "object": 1236,
      "Ġstyle": 1237,
      "True": 1238,
      "old": 1239,
      "ative": 1240,
      "/**": 1241,
      "Ġ'@": 1242,
      "ĠK": 1243,
      "icense": 1244,
      "uch": 1245,
      "ner": 1246,
      "\"),": 1247,
      "Ġra": 1248,
      "Class": 1249,
      "span": 1250,
      "uff": 1251,
      "Config": 1252,
      "no": 1253,
      "Ġ8": 1254,
      "Qu": 1255,
      "Array": 1256,
      "cur": 1257,
      "are": 1258,
      "Ġpl": 1259,
      "ude": 1260,
      "cord": 1261,
      "34": 1262,
      "valid": 1263,
      "ams": 1264,
      "event": 1265,
      "place": 1266,
      "ateg": 1267,
      "rit": 1268,
      "Ag": 1269,
      "over": 1270,
      "gist": 1271,
      "ty": 1272,
      "Ġone": 1273,
      "Ġ['": 1274,
      "rite": 1275,
      "push": 1276,
      "style": 1277,
      "000": 1278,
      "ok": 1279,
      "ron": 1280,
      "ttp": 1281,
      "View": 1282,
      "Ġrequest": 1283,
      "ĊĠĠĠĠĠĠĠĠĠĠĠĠĠĠĠĠĠĠĠĠĠĠĠĠĠĠĠĠĠĠĠĠĠĠĠĠ": 1284,
      "module": 1285,
      "ĊĊĠĠĠĠĠ": 1286,
      "None": 1287,
      "Ġmessage": 1288,
      "order": 1289,
      "ld": 1290,
      "SE": 1291,
      "cy": 1292,
      "options": 1293,
      "ie": 1294,
      "Ġus": 1295,
      "User": 1296,
      "totype": 1297,
      "Module": 1298,
      "Props": 1299,
      "Input": 1300,
      "Ġtra": 1301,
      "cri": 1302,
      "Ġread": 1303,
      "28": 1304,
      "ors": 1305,
      "ng": 1306,
      "ĠTr": 1307,
      "trol": 1308,
      "'),": 1309,
      "tern": 1310,
      "Th": 1311,
      "Ġtheir": 1312,
      "Ġoptions": 1313,
      "Ġconfig": 1314,
      "point": 1315,
      "Ġitem": 1316,
      "ugh": 1317,
      "select": 1318,
      "che": 1319,
      "yst": 1320,
      "ient": 1321,
      "Ġpart": 1322,
      "elp": 1323,
      "Ġwhen": 1324,
      "arn": 1325,
      "čĊĠĠĠĠĠĠĠĠĠĠĠ": 1326,
      "Set": 1327,
      "cond": 1328,
      "Index": 1329,
      "ildren": 1330,
      "////": 1331,
      "09": 1332,
      "AN": 1333,
      "Ġact": 1334,
      "Ġvoid": 1335,
      "Ġmore": 1336,
      "andle": 1337,
      "Ġob": 1338,
      "Ġobject": 1339,
      "Un": 1340,
      "Ġtrans": 1341,
      "api": 1342,
      "Change": 1343,
      "Ġ(!": 1344,
      "78": 1345,
      "status": 1346,
      "Ġcase": 1347,
      "Ġother": 1348,
      "current": 1349,
      "ends": 1350,
      "35": 1351,
      "ved": 1352,
      "Ġad": 1353,
      "react": 1354,
      "Button": 1355,
      "local": 1356,
      "65": 1357,
      "ible": 1358,
      "ature": 1359,
      "38": 1360,
      "ics": 1361,
      "scrib": 1362,
      "ache": 1363,
      "its": 1364,
      "Ġbo": 1365,
      "Ġbut": 1366,
      "fore": 1367,
      "info": 1368,
      "color": 1369,
      "reak": 1370,
      "attr": 1371,
      "Ġexp": 1372,
      "Ġspec": 1373,
      "'],": 1374,
      "Ġevent": 1375,
      "AL": 1376,
      "igh": 1377,
      "inal": 1378,
      "Select": 1379,
      "duct": 1380,
      "Ġ+=": 1381,
      "Message": 1382,
      "search": 1383,
      "icon": 1384,
      "++": 1385,
      "Ġwork": 1386,
      "Test": 1387,
      "Ġser": 1388,
      "Ġinput": 1389,
      "lose": 1390,
      "rl": 1391,
      "Col": 1392,
      "prototype": 1393,
      "));": 1394,
      "AC": 1395,
      "osition": 1396,
      "29": 1397,
      "Ġundefined": 1398,
      "source": 1399,
      "Ġresponse": 1400,
      "Ġconsole": 1401,
      "Ġthey": 1402,
      "Ġyour": 1403,
      "ĠThis": 1404,
      "ments": 1405,
      "Sh": 1406,
      "right": 1407,
      "Color": 1408,
      "68": 1409,
      "Ġstart": 1410,
      "fter": 1411,
      "ystem": 1412,
      "ates": 1413,
      "Options": 1414,
      "07": 1415,
      "Of": 1416,
      "gle": 1417,
      "loat": 1418,
      "ĠCh": 1419,
      "Request": 1420,
      "ruct": 1421,
      "lex": 1422,
      "chem": 1423,
      "Ġprivate": 1424,
      "DE": 1425,
      "dict": 1426,
      "Ġ${": 1427,
      "Ġcurrent": 1428,
      "ous": 1429,
      "du": 1430,
      "by": 1431,
      "ww": 1432,
      "Up": 1433,
      "request": 1434,
      "Ġnode": 1435,
      "Ġ10": 1436,
      "ĊĠĠĠĠĠĠĠĠĠĠĠĠĠĠĠĠĠ": 1437,
      "UR": 1438,
      "join": 1439,
      "title": 1440,
      "bar": 1441,
      "Ġdi": 1442,
      "Ġimp": 1443,
      "\"\"\"": 1444,
      "ssion": 1445,
      "98": 1446,
      "tings": 1447,
      "box": 1448,
      "Model": 1449,
      "update": 1450,
      "ĠAr": 1451,
      "Lo": 1452,
      "Ġmay": 1453,
      "ustom": 1454,
      "[]": 1455,
      "find": 1456,
      "66": 1457,
      "Date": 1458,
      "Ġlabel": 1459,
      "Ġu": 1460,
      "ution": 1461,
      "token": 1462,
      "Ġcolor": 1463,
      "Ġunder": 1464,
      "filter": 1465,
      "lib": 1466,
      "Ġsome": 1467,
      "Ġboolean": 1468,
      "rect": 1469,
      "content": 1470,
      "ĠReact": 1471,
      "annel": 1472,
      "ctions": 1473,
      "Ġ{}": 1474,
      "raw": 1475,
      "ION": 1476,
      "ĠY": 1477,
      "ĠCo": 1478,
      "UT": 1479,
      "XX": 1480,
      "enu": 1481,
      "uccess": 1482,
      "}>": 1483,
      "Ġshould": 1484,
      "ee": 1485,
      "pack": 1486,
      "Ġag": 1487,
      "Ġz": 1488,
      "true": 1489,
      "20": 1490,
      "auth": 1491,
      "ale": 1492,
      "Ġtry": 1493,
      "Ġmax": 1494,
      "55": 1495,
      "cla": 1496,
      "ces": 1497,
      "On": 1498,
      "Ġos": 1499,
      "andler": 1500,
      "uration": 1501,
      "array": 1502,
      "Url": 1503,
      "cope": 1504,
      "ures": 1505,
      "===": 1506,
      "Ġover": 1507,
      "temp": 1508,
      "Ġent": 1509,
      "Ġem": 1510,
      "abled": 1511,
      "check": 1512,
      "ility": 1513,
      "group": 1514,
      "md": 1515,
      "27": 1516,
      "Ġmin": 1517,
      "ĠUn": 1518,
      "ffect": 1519,
      "Ġ[]": 1520,
      "Ġend": 1521,
      "lot": 1522,
      "itor": 1523,
      "body": 1524,
      "__(": 1525,
      "Ġsc": 1526,
      "())": 1527,
      "lit": 1528,
      "nect": 1529,
      "width": 1530,
      "ĠPromise": 1531,
      "client": 1532,
      "scribe": 1533,
      "number": 1534,
      "layer": 1535,
      "48": 1536,
      "img": 1537,
      "Info": 1538,
      "Page": 1539,
      "ĠLicense": 1540,
      "ood": 1541,
      "Ġline": 1542,
      "Style": 1543,
      "Ġint": 1544,
      "Ġurl": 1545,
      "RO": 1546,
      "eb": 1547,
      "lobal": 1548,
      "target": 1549,
      "Code": 1550,
      "Ġfirst": 1551,
      "ays": 1552,
      "db": 1553,
      "space": 1554,
      "Ġwere": 1555,
      "37": 1556,
      "\").": 1557,
      "Content": 1558,
      "service": 1559,
      "36": 1560,
      "{\"": 1561,
      "Add": 1562,
      "Ġindex": 1563,
      "Ġ9": 1564,
      "ui": 1565,
      "Context": 1566,
      "Ġ\\": 1567,
      "page": 1568,
      "call": 1569,
      "utils": 1570,
      "num": 1571,
      "the": 1572,
      "****************": 1573,
      "ating": 1574,
      "clude": 1575,
      "ai": 1576,
      "ename": 1577,
      "utes": 1578,
      "26": 1579,
      "ML": 1580,
      "assword": 1581,
      "ED": 1582,
      "raph": 1583,
      "ities": 1584,
      "ines": 1585,
      "39": 1586,
      "Ġused": 1587,
      "Ġ!==": 1588,
      "field": 1589,
      "Ġmethod": 1590,
      "âĢĿ": 1591,
      "ĠAn": 1592,
      "top": 1593,
      "wn": 1594,
      "response": 1595,
      "chema": 1596,
      "Ġ...": 1597,
      "45": 1598,
      "ĠEx": 1599,
      "location": 1600,
      "Ġtitle": 1601,
      "ä¸": 1602,
      "opy": 1603,
      "Ġonly": 1604,
      "With": 1605,
      "Ġfield": 1606,
      "should": 1607,
      "Le": 1608,
      "Ġback": 1609,
      "Ġ],": 1610,
      "Size": 1611,
      "AS": 1612,
      "lation": 1613,
      "}`": 1614,
      "Ġlen": 1615,
      "Ġ'../": 1616,
      "net": 1617,
      "ĠPro": 1618,
      "Ġcheck": 1619,
      "next": 1620,
      "Ġpa": 1621,
      "cket": 1622,
      "tx": 1623,
      "Ġ19": 1624,
      "201": 1625,
      "olve": 1626,
      "idd": 1627,
      "emplate": 1628,
      "andom": 1629,
      "only": 1630,
      "Or": 1631,
      "Group": 1632,
      "toBe": 1633,
      "Ġdocument": 1634,
      "Ġsp": 1635,
      "older": 1636,
      "Mo": 1637,
      "Query": 1638,
      "Ġselect": 1639,
      "ET": 1640,
      "AP": 1641,
      "Ġcode": 1642,
      "Ġtarget": 1643,
      "ake": 1644,
      "rad": 1645,
      "pper": 1646,
      "Ġ]": 1647,
      "down": 1648,
      "tribute": 1649,
      "ĠTrue": 1650,
      "parse": 1651,
      "mage": 1652,
      "alled": 1653,
      "exports": 1654,
      ":{": 1655,
      "ager": 1656,
      "mer": 1657,
      "Ġwho": 1658,
      "web": 1659,
      "remove": 1660,
      "],[": 1661,
      "ized": 1662,
      "čĊĠ": 1663,
      "44": 1664,
      "als": 1665,
      "params": 1666,
      "miss": 1667,
      "FB": 1668,
      "App": 1669,
      "wh": 1670,
      "wo": 1671,
      "Icon": 1672,
      "Ac": 1673,
      "Ref": 1674,
      "(`": 1675,
      "Ġargs": 1676,
      "Ġalso": 1677,
      "ground": 1678,
      "Ġrange": 1679,
      ".__": 1680,
      "with": 1681,
      "Ġdist": 1682,
      "Ġhttp": 1683,
      "link": 1684,
      "Response": 1685,
      "src": 1686,
      "Property": 1687,
      "unc": 1688,
      "uffer": 1689,
      "org": 1690,
      "AM": 1691,
      "ank": 1692,
      "Ġsource": 1693,
      "Ġarg": 1694,
      "parent": 1695,
      "\\\\": 1696,
      "False": 1697,
      "Ġimage": 1698,
      "button": 1699,
      "irect": 1700,
      "Ġinto": 1701,
      "ote": 1702,
      "ĠDe": 1703,
      "ception": 1704,
      "Ġte": 1705,
      "rict": 1706,
      "100": 1707,
      "Ġoutput": 1708,
      "gister": 1709,
      "has": 1710,
      "Ġinit": 1711,
      "Ġcomponent": 1712,
      "iable": 1713,
      "\"}": 1714,
      "################": 1715,
      "Sub": 1716,
      "mary": 1717,
      "ructor": 1718,
      "patch": 1719,
      "roll": 1720,
      "uto": 1721,
      "sv": 1722,
      "Ġed": 1723,
      "sign": 1724,
      "cle": 1725,
      "Ġoff": 1726,
      "Ġabout": 1727,
      "element": 1728,
      "Ġnum": 1729,
      "Bo": 1730,
      "Ġbeen": 1731,
      "ting": 1732,
      "Types": 1733,
      "ian": 1734,
      "aders": 1735,
      "cript": 1736,
      "output": 1737,
      "Ġelement": 1738,
      "Trans": 1739,
      "ization": 1740,
      "ameters": 1741,
      "Ġchange": 1742,
      "uage": 1743,
      "ĠĠĠĠĠĠ": 1744,
      "ĠIt": 1745,
      "Ġfe": 1746,
      "Ġbase": 1747,
      "ants": 1748,
      "(()": 1749,
      "Ġren": 1750,
      "][": 1751,
      "ists": 1752,
      "Result": 1753,
      "resent": 1754,
      "write": 1755,
      "vider": 1756,
      "anguage": 1757,
      "man": 1758,
      "types": 1759,
      "ĊĠĠĠĠĠĠĠĠĠĠĠĠĠĠĠĠĠĠĠĠĠĠĠĠĠĠĠĠĠĠĠ": 1760,
      "Ġthan": 1761,
      "ICAg": 1762,
      "odal": 1763,
      "Ġcontent": 1764,
      "For": 1765,
      "context": 1766,
      "Ġhelp": 1767,
      "Ċĉĉĉĉĉĉ": 1768,
      "void": 1769,
      "now": 1770,
      "Ġpe": 1771,
      "ven": 1772,
      "ward": 1773,
      "23": 1774,
      "Ġthere": 1775,
      "typeof": 1776,
      "uments": 1777,
      "ender": 1778,
      "vert": 1779,
      "ats": 1780,
      "instance": 1781,
      "resh": 1782,
      "Ġdif": 1783,
      "main": 1784,
      "TR": 1785,
      "https": 1786,
      "Al": 1787,
      "ilename": 1788,
      "ump": 1789,
      "df": 1790,
      ">;": 1791,
      "77": 1792,
      "Map": 1793,
      "]);": 1794,
      "Ġhis": 1795,
      "rag": 1796,
      "SON": 1797,
      "etch": 1798,
      "shape": 1799,
      "troll": 1800,
      "Log": 1801,
      "ream": 1802,
      "Ġits": 1803,
      "exp": 1804,
      "Ġgener": 1805,
      "split": 1806,
      "Token": 1807,
      "&&(": 1808,
      "Number": 1809,
      "tin": 1810,
      "ĠIf": 1811,
      "ified": 1812,
      "method": 1813,
      "roperties": 1814,
      "21": 1815,
      "Ġyear": 1816,
      "Po": 1817,
      "Ġvalid": 1818,
      "Each": 1819,
      "orage": 1820,
      "vis": 1821,
      "Ġwidth": 1822,
      "}}": 1823,
      "ormal": 1824,
      "len": 1825,
      "post": 1826,
      "ĠâĢľ": 1827,
      "Ġupdate": 1828,
      "block": 1829,
      "ract": 1830,
      "show": 1831,
      "\"},": 1832,
      "Ġprocess": 1833,
      "ĠFalse": 1834,
      "lable": 1835,
      "Client": 1836,
      "Ġinstance": 1837,
      "Ġrender": 1838,
      "uil": 1839,
      "CT": 1840,
      "/*": 1841,
      "then": 1842,
      "abel": 1843,
      "ons": 1844,
      "]:": 1845,
      "last": 1846,
      "ymb": 1847,
      "itch": 1848,
      "Ġph": 1849,
      "88": 1850,
      "nection": 1851,
      "table": 1852,
      "sw": 1853,
      "HT": 1854,
      "IG": 1855,
      "bug": 1856,
      "All": 1857,
      "run": 1858,
      "Ġbet": 1859,
      "off": 1860,
      "Ġ&": 1861,
      "Ġextends": 1862,
      "69": 1863,
      "Ġ200": 1864,
      "Link": 1865,
      "Ġthem": 1866,
      "ower": 1867,
      "As": 1868,
      "ategory": 1869,
      "ymbol": 1870,
      "very": 1871,
      "uter": 1872,
      "da": 1873,
      "Ġcontext": 1874,
      "sses": 1875,
      "ern": 1876,
      "CO": 1877,
      "lat": 1878,
      "equal": 1879,
      "serv": 1880,
      "br": 1881,
      "Status": 1882,
      "Ġgroup": 1883,
      "tract": 1884,
      "left": 1885,
      "sum": 1886,
      "79": 1887,
      "Ġ201": 1888,
      "mark": 1889,
      "Ġqu": 1890,
      "Ġrun": 1891,
      "================": 1892,
      "čĊč": 1893,
      "Ġmake": 1894,
      "ference": 1895,
      "\\\"": 1896,
      "require": 1897,
      "env": 1898,
      "ene": 1899,
      "Ġinterface": 1900,
      "Ġsize": 1901,
      "Ed": 1902,
      "Ġquery": 1903,
      "Ġ\"./": 1904,
      "ware": 1905,
      "ugin": 1906,
      "49": 1907,
      "DO": 1908,
      "case": 1909,
      "30": 1910,
      "Comm": 1911,
      "process": 1912,
      "'t": 1913,
      "200": 1914,
      "print": 1915,
      "do": 1916,
      "formation": 1917,
      "Ġshow": 1918,
      "ĠError": 1919,
      "ps": 1920,
      "Ġopen": 1921,
      "Table": 1922,
      "Ġdate": 1923,
      "false": 1924,
      "lication": 1925,
      "adata": 1926,
      "Ġnext": 1927,
      "Des": 1928,
      "velo": 1929,
      "IM": 1930,
      "lish": 1931,
      "50": 1932,
      "IS": 1933,
      "board": 1934,
      "np": 1935,
      "Ġ!=": 1936,
      ".$": 1937,
      "store": 1938,
      "ading": 1939,
      "Ro": 1940,
      "viron": 1941,
      "Click": 1942,
      "Ġ'../../": 1943,
      "rapper": 1944,
      "AD": 1945,
      "Dis": 1946,
      "AG": 1947,
      "troller": 1948,
      "Ġraise": 1949,
      "AB": 1950,
      "Ġload": 1951,
      "Ġpage": 1952,
      "Lay": 1953,
      "ENT": 1954,
      "Width": 1955,
      "height": 1956,
      "ose": 1957,
      "ql": 1958,
      "ten": 1959,
      "Comp": 1960,
      "wargs": 1961,
      "vide": 1962,
      "Ġauth": 1963,
      "56": 1964,
      "Ġ->": 1965,
      "Ġbreak": 1966,
      "obj": 1967,
      "]),": 1968,
      "tom": 1969,
      "izer": 1970,
      "replace": 1971,
      "''": 1972,
      "Ġsa": 1973,
      "pri": 1974,
      "ING": 1975,
      "Ġfound": 1976,
      "ification": 1977,
      "Out": 1978,
      "Count": 1979,
      "ĠSe": 1980,
      "ars": 1981,
      "cor": 1982,
      "Action": 1983,
      "Ġpri": 1984,
      "click": 1985,
      "Ġaction": 1986,
      "Ġ18": 1987,
      "Image": 1988,
      "uid": 1989,
      "script": 1990,
      "components": 1991,
      "Base": 1992,
      "::": 1993,
      "argin": 1994,
      "ful": 1995,
      "ĊĊĉ": 1996,
      "Ġheight": 1997,
      "Ġright": 1998,
      "sg": 1999,
      "cho": 2000,
      "Ġ**": 2001,
      "document": 2002,
      "Ġreg": 2003,
      "Man": 2004,
      "ï¼": 2005,
      "sk": 2006,
      "--------------------------------": 2007,
      "Ġthrow": 2008,
      "Ġcre": 2009,
      "uster": 2010,
      "FF": 2011,
      "ayload": 2012,
      "orld": 2013,
      "alc": 2014,
      "iter": 2015,
      "aterial": 2016,
      ",-": 2017,
      "Exp": 2018,
      "ensor": 2019,
      "Loc": 2020,
      "Ġ,": 2021,
      "my": 2022,
      "ning": 2023,
      "Ser": 2024,
      "send": 2025,
      "LO": 2026,
      "reg": 2027,
      "Ġpy": 2028,
      "ãģ": 2029,
      "ĠObject": 2030,
      "\",{": 2031,
      "=[": 2032,
      "CH": 2033,
      "version": 2034,
      "ople": 2035,
      "Not": 2036,
      "Rout": 2037,
      "change": 2038,
      "ension": 2039,
      "(_": 2040,
      "ands": 2041,
      "Ġneed": 2042,
      "rough": 2043,
      "Ġpoint": 2044,
      "47": 2045,
      "istory": 2046,
      "Ġthese": 2047,
      "mon": 2048,
      "ween": 2049,
      "ble": 2050,
      "Ġelif": 2051,
      "\".": 2052,
      "match": 2053,
      "Ġsuper": 2054,
      "Ġman": 2055,
      "angular": 2056,
      "part": 2057,
      "mount": 2058,
      "Ġbody": 2059,
      "ptional": 2060,
      "Ġbefore": 2061,
      "Get": 2062,
      "Ġax": 2063,
      "Ġafter": 2064,
      "Inter": 2065,
      "58": 2066,
      "Row": 2067,
      "59": 2068,
      "ression": 2069,
      "arge": 2070,
      "Ġcom": 2071,
      "bl": 2072,
      "ential": 2073,
      "scope": 2074,
      "ents": 2075,
      "ifier": 2076,
      "Ġca": 2077,
      "lease": 2078,
      "lice": 2079,
      "mber": 2080,
      "Container": 2081,
      "67": 2082,
      "open": 2083,
      "Sc": 2084,
      "server": 2085,
      "ollow": 2086,
      "Ġview": 2087,
      "dom": 2088,
      "Ġsign": 2089,
      "Ċĉĉĉĉĉ": 2090,
      "Ġconstructor": 2091,
      "uted": 2092,
      "Ġref": 2093,
      "graph": 2094,
      "Ġwould": 2095,
      "expect": 2096,
      "css": 2097,
      "čĊĠĠĠĠĠĠĠĠĠĠĠĠĠĠĠ": 2098,
      "Ġhad": 2099,
      "Ġcallback": 2100,
      "orch": 2101,
      "From": 2102,
      "ĠX": 2103,
      "LL": 2104,
      "Ġcur": 2105,
      ":!": 2106,
      "Ġexcept": 2107,
      "delete": 2108,
      "render": 2109,
      "Ġvalues": 2110,
      "Ġarray": 2111,
      "refix": 2112,
      "bot": 2113,
      "OT": 2114,
      "gram": 2115,
      "nown": 2116,
      "Auth": 2117,
      "olic": 2118,
      "udi": 2119,
      "Ġclient": 2120,
      "Ġfind": 2121,
      "alth": 2122,
      "Ġstud": 2123,
      "ls": 2124,
      "active": 2125,
      "fin": 2126,
      "Ġhow": 2127,
      "reat": 2128,
      "Ġeach": 2129,
      "Ġmust": 2130,
      "models": 2131,
      "aw": 2132,
      "ume": 2133,
      "ched": 2134,
      "idget": 2135,
      "cc": 2136,
      "Ġstatus": 2137,
      "Ġcor": 2138,
      "keys": 2139,
      "atri": 2140,
      "adding": 2141,
      "util": 2142,
      "Ġlast": 2143,
      "\"],": 2144,
      "¿½": 2145,
      "Ġtwo": 2146,
      "Ġ100": 2147,
      "tal": 2148,
      "Ġour": 2149,
      "train": 2150,
      "fn": 2151,
      "Ġ'/": 2152,
      "Box": 2153,
      "assertEqual": 2154,
      "tri": 2155,
      "property": 2156,
      "doc": 2157,
      "Ġ[];": 2158,
      "velop": 2159,
      "ï¿½": 2160,
      "Is": 2161,
      "host": 2162,
      "tect": 2163,
      "window": 2164,
      "else": 2165,
      "erson": 2166,
      "Ġ('": 2167,
      "Ġwhere": 2168,
      "values": 2169,
      "ging": 2170,
      "req": 2171,
      "Ġdescription": 2172,
      "Ġjust": 2173,
      "QUF": 2174,
      "Ġrow": 2175,
      "root": 2176,
      "Ġparams": 2177,
      "items": 2178,
      "flow": 2179,
      "Ġwhile": 2180,
      "Ob": 2181,
      "Ġrequired": 2182,
      "Ġgiv": 2183,
      "ational": 2184,
      "`,": 2185,
      "Ġ16": 2186,
      "Ġcent": 2187,
      "ci": 2188,
      "'))": 2189,
      "57": 2190,
      "project": 2191,
      "Ġcount": 2192,
      "Ġmost": 2193,
      "az": 2194,
      "ric": 2195,
      "ves": 2196,
      "Ġfilter": 2197,
      "ĠHe": 2198,
      "RT": 2199,
      "Ġformat": 2200,
      "ĠDate": 2201,
      "Ġmodule": 2202,
      "rap": 2203,
      "Ġorder": 2204,
      "Case": 2205,
      "URL": 2206,
      "ily": 2207,
      ")),": 2208,
      "Ġ{'": 2209,
      "Default": 2210,
      "pend": 2211,
      "Ġsk": 2212,
      "ols": 2213,
      "Ġposition": 2214,
      "Ġdoes": 2215,
      "Âł": 2216,
      "thing": 2217,
      "Ġcall": 2218,
      "Label": 2219,
      "ids": 2220,
      "Ġhigh": 2221,
      "Ġsuch": 2222,
      "Det": 2223,
      "ĠWh": 2224,
      "Ġlocal": 2225,
      "Ġstatic": 2226,
      "Ġmatch": 2227,
      "lu": 2228,
      "ators": 2229,
      "Met": 2230,
      "sets": 2231,
      "tn": 2232,
      "step": 2233,
      "close": 2234,
      "////////": 2235,
      "itions": 2236,
      "column": 2237,
      "46": 2238,
      "Line": 2239,
      ">>": 2240,
      "cat": 2241,
      "Ġproject": 2242,
      "Ġmap": 2243,
      "Ġwindow": 2244,
      "Column": 2245,
      "light": 2246,
      "ialize": 2247,
      "day": 2248,
      "peri": 2249,
      "Ġreadonly": 2250,
      "Ġthen": 2251,
      "Ġap": 2252,
      "loy": 2253,
      "Handler": 2254,
      "ared": 2255,
      "Valid": 2256,
      "Ġsm": 2257,
      "Function": 2258,
      "avig": 2259,
      "bind": 2260,
      "Child": 2261,
      "Ġtoken": 2262,
      "ru": 2263,
      "Ġchildren": 2264,
      "atrix": 2265,
      "Ġdisplay": 2266,
      "Ġplace": 2267,
      "Ġpeople": 2268,
      "reen": 2269,
      "Ġtop": 2270,
      "handle": 2271,
      "attern": 2272,
      "ely": 2273,
      "Ġinst": 2274,
      "Ġthrough": 2275,
      "Ġgo": 2276,
      "opt": 2277,
      "31": 2278,
      "Ġfont": 2279,
      "Ġparse": 2280,
      "iled": 2281,
      "Ġmy": 2282,
      "vironment": 2283,
      "gress": 2284,
      "struct": 2285,
      "/>": 2286,
      "Ġsystem": 2287,
      "Ġexpected": 2288,
      "åı": 2289,
      "UN": 2290,
      "frame": 2291,
      "Filter": 2292,
      "Ġbuild": 2293,
      "ĠTest": 2294,
      "task": 2295,
      "++)": 2296,
      "Ġoper": 2297,
      "bin": 2298,
      "ĠRes": 2299,
      "unk": 2300,
      "Ġprops": 2301,
      "mock": 2302,
      "Ġjson": 2303,
      "Ġwhat": 2304,
      "]=": 2305,
      "Int": 2306,
      "Ġpass": 2307,
      "Ġresource": 2308,
      "entity": 2309,
      "ocus": 2310,
      "42": 2311,
      "xy": 2312,
      "Init": 2313,
      "forEach": 2314,
      "aract": 2315,
      "description": 2316,
      "arning": 2317,
      "ultip": 2318,
      "Ġcontain": 2319,
      "medi": 2320,
      "common": 2321,
      "ict": 2322,
      "ingle": 2323,
      "ĊĠĠĠĠĠĠĠĠĠĠĠĠĠĠĠĠĠĠĠĠĠ": 2324,
      "Ġobj": 2325,
      "toEqual": 2326,
      "uilder": 2327,
      "AAAA": 2328,
      "Ġusing": 2329,
      "Ġversion": 2330,
      "Ġrep": 2331,
      "ĠUser": 2332,
      "Ġ({": 2333,
      "Ġparent": 2334,
      "Ġservice": 2335,
      "43": 2336,
      "anel": 2337,
      "Ġallow": 2338,
      "Block": 2339,
      "ted": 2340,
      "etwork": 2341,
      "IL": 2342,
      "Ġrel": 2343,
      "thon": 2344,
      "Ġlike": 2345,
      "PO": 2346,
      "children": 2347,
      "Ġvis": 2348,
      "Ġ12": 2349,
      "čĊĠĠĠĠĠ": 2350,
      "Ġcons": 2351,
      "ĠQ": 2352,
      "less": 2353,
      "exec": 2354,
      "Ġcontin": 2355,
      "ĠEn": 2356,
      "Update": 2357,
      "bed": 2358,
      "address": 2359,
      "Act": 2360,
      "Provider": 2361,
      "ique": 2362,
      "Check": 2363,
      "save": 2364,
      "US": 2365,
      "Wh": 2366,
      "tag": 2367,
      "emo": 2368,
      "vas": 2369,
      "'.": 2370,
      "dic": 2371,
      "direct": 2372,
      "uring": 2373,
      "www": 2374,
      "Ġ[\"": 2375,
      "Ġ15": 2376,
      "idden": 2377,
      "('/": 2378,
      "atures": 2379,
      "Ġsame": 2380,
      "center": 2381,
      "range": 2382,
      "pc": 2383,
      "Ġhandle": 2384,
      "BQU": 2385,
      "Per": 2386,
      "gener": 2387,
      "Start": 2388,
      "kwargs": 2389,
      "Ġopt": 2390,
      "Ġbetween": 2391,
      "TO": 2392,
      "Ġmany": 2393,
      "ialog": 2394,
      "ailable": 2395,
      "40": 2396,
      "sm": 2397,
      "tributes": 2398,
      "sl": 2399,
      "enc": 2400,
      "Height": 2401,
      "ding": 2402,
      "Ġsupport": 2403,
      "[:": 2404,
      "Ġexport": 2405,
      "Params": 2406,
      "ration": 2407,
      "template": 2408,
      "Ġblock": 2409,
      "ãĤ": 2410,
      "çļ": 2411,
      "EM": 2412,
      "Ġmock": 2413,
      "first": 2414,
      "ĊĊĠĠĠĠĠĠĠĠĠĠĠĠĠĠĠ": 2415,
      "Ġinformation": 2416,
      "Ġ20": 2417,
      "sup": 2418,
      "=(": 2419,
      "position": 2420,
      "Selector": 2421,
      "gan": 2422,
      "ĠArray": 2423,
      "çļĦ": 2424,
      "?.": 2425,
      "ICAgICAg": 2426,
      "Ð°": 2427,
      "ency": 2428,
      "ready": 2429,
      "vol": 2430,
      "ĠReturn": 2431,
      "sol": 2432,
      "Ġdirect": 2433,
      "'])": 2434,
      "son": 2435,
      "come": 2436,
      "igger": 2437,
      "oogle": 2438,
      "posit": 2439,
      "Ġes": 2440,
      "display": 2441,
      "Ad": 2442,
      "tore": 2443,
      "channel": 2444,
      "Ġgiven": 2445,
      "ha": 2446,
      "89": 2447,
      "Point": 2448,
      "ural": 2449,
      "Instance": 2450,
      "GL": 2451,
      "Ġpost": 2452,
      "mpty": 2453,
      "other": 2454,
      "inner": 2455,
      "header": 2456,
      "iginal": 2457,
      "pop": 2458,
      "pace": 2459,
      "!==": 2460,
      "Pl": 2461,
      "Ġlink": 2462,
      "td": 2463,
      "ited": 2464,
      "oci": 2465,
      "Source": 2466,
      "Ġmon": 2467,
      "ĠOn": 2468,
      "Ġcolumn": 2469,
      "ãĥ": 2470,
      "gest": 2471,
      "ik": 2472,
      "Ġfollow": 2473,
      "76": 2474,
      "float": 2475,
      "Listener": 2476,
      "(!": 2477,
      "ero": 2478,
      "lear": 2479,
      "ek": 2480,
      "resource": 2481,
      "msg": 2482,
      "tadata": 2483,
      "ĠAl": 2484,
      "Ġcell": 2485,
      "actions": 2486,
      "Ġlevel": 2487,
      "elper": 2488,
      "oice": 2489,
      "Ġav": 2490,
      "email": 2491,
      "createElement": 2492,
      "translation": 2493,
      "Ġtable": 2494,
      "tes": 2495,
      "('.": 2496,
      "Ġsur": 2497,
      "ds": 2498,
      "static": 2499,
      "Ġmod": 2500,
      "ĠApp": 2501,
      "icle": 2502,
      "idx": 2503,
      "());": 2504,
      "af": 2505,
      "spec": 2506,
      "Attribute": 2507,
      ",'": 2508,
      "Ġtemp": 2509,
      "interface": 2510,
      "Off": 2511,
      "container": 2512,
      ")).": 2513,
      "PI": 2514,
      "Ut": 2515,
      "logy": 2516,
      "connect": 2517,
      "olicy": 2518,
      "Manager": 2519,
      "ane": 2520,
      "cale": 2521,
      "med": 2522,
      "Ġtotal": 2523,
      "Ġcopy": 2524,
      "Header": 2525,
      "Ġop": 2526,
      "ince": 2527,
      "Address": 2528,
      "side": 2529,
      "Ġtrain": 2530,
      "And": 2531,
      "Control": 2532,
      "*/": 2533,
      "stamp": 2534,
      "9999": 2535,
      "ination": 2536,
      "resolve": 2537,
      "cb": 2538,
      "async": 2539,
      "HE": 2540,
      "Ð¾": 2541,
      "ĠGet": 2542,
      "ift": 2543,
      "VRT": 2544,
      "ough": 2545,
      "files": 2546,
      "00000000": 2547,
      "rowser": 2548,
      "ife": 2549,
      "selected": 2550,
      "ories": 2551,
      "Ġtorch": 2552,
      "VRTX": 2553,
      "dist": 2554,
      "Ġ--": 2555,
      "Top": 2556,
      "ĠTo": 2557,
      "Ġnow": 2558,
      "ĊĠĠĠĠĊĠĠĠ": 2559,
      "ATE": 2560,
      "Ġdevelop": 2561,
      "Ġchild": 2562,
      "fir": 2563,
      "Ġsecond": 2564,
      "No": 2565,
      "Menu": 2566,
      "HTML": 2567,
      "Ġcould": 2568,
      "ling": 2569,
      "Ġdown": 2570,
      "('#": 2571,
      "End": 2572,
      "Ġsw": 2573,
      "ced": 2574,
      "cause": 2575,
      "fs": 2576,
      "build": 2577,
      "Ġfact": 2578,
      "ually": 2579,
      "+\"": 2580,
      ".\"": 2581,
      "Ġresults": 2582,
      "Title": 2583,
      "quence": 2584,
      "grid": 2585,
      "alcul": 2586,
      "ries": 2587,
      "Ġserver": 2588,
      "Ġleft": 2589,
      "Ġsuccess": 2590,
      "bs": 2591,
      "ĠFor": 2592,
      "Grid": 2593,
      "gn": 2594,
      "Ġwrit": 2595,
      "Mode": 2596,
      "Ġlimit": 2597,
      "Ġtemplate": 2598,
      "ĊĠĠĠĠĠĠĠĠĠĠĠĠĠĠĠĠĠĠĠĠĠĠĠĠĠĠĠĠĠĠĠĠĠĠĠ": 2599,
      "ze": 2600,
      "Api": 2601,
      "SS": 2602,
      "ĠSet": 2603,
      "amples": 2604,
      "ferent": 2605,
      "]]": 2606,
      "vid": 2607,
      "ius": 2608,
      "Command": 2609,
      "tle": 2610,
      "tml": 2611,
      "random": 2612,
      "imple": 2613,
      "ĠSh": 2614,
      "','": 2615,
      "tact": 2616,
      "can": 2617,
      "ges": 2618,
      "Ġ[],": 2619,
      "ĠMath": 2620,
      "Ġprop": 2621,
      "čĊĉ": 2622,
      "Ġval": 2623,
      "plot": 2624,
      "mission": 2625,
      "Ġcl": 2626,
      "public": 2627,
      "gy": 2628,
      "PE": 2629,
      "Us": 2630,
      "used": 2631,
      "Ġq": 2632,
      "unter": 2633,
      "åĪ": 2634,
      "oper": 2635,
      "Ġpol": 2636,
      "vious": 2637,
      "command": 2638,
      "debug": 2639,
      "Ġmark": 2640,
      "pr": 2641,
      "Ġword": 2642,
      "85": 2643,
      "styles": 2644,
      "Ġmain": 2645,
      "95": 2646,
      "Render": 2647,
      "ctor": 2648,
      "EX": 2649,
      "bu": 2650,
      "Ġglobal": 2651,
      "ious": 2652,
      "ESS": 2653,
      "ally": 2654,
      "{}": 2655,
      "ggle": 2656,
      "level": 2657,
      "ster": 2658,
      "Ġfa": 2659,
      "Ġ),": 2660,
      "HO": 2661,
      "attrs": 2662,
      "Ðµ": 2663,
      "=!": 2664,
      "sor": 2665,
      "Ġsearch": 2666,
      "toString": 2667,
      "ather": 2668,
      "97": 2669,
      "yp": 2670,
      "Position": 2671,
      "ĠData": 2672,
      "device": 2673,
      "ĊĠĠĠĠĠĠĠĠĠĠĠĠĠĠĠĠ": 2674,
      "><": 2675,
      "Tag": 2676,
      "ĠPar": 2677,
      "Ġart": 2678,
      "ically": 2679,
      "Detail": 2680,
      ">(": 2681,
      "Ġbecause": 2682,
      "Pa": 2683,
      "anch": 2684,
      "($": 2685,
      "Ġimplement": 2686,
      "Ġcatch": 2687,
      "Callback": 2688,
      "UL": 2689,
      "ason": 2690,
      "Ġstore": 2691,
      "ged": 2692,
      "Ġyears": 2693,
      "returns": 2694,
      "ithub": 2695,
      "alog": 2696,
      "mail": 2697,
      "Card": 2698,
      "vers": 2699,
      "Ġroot": 2700,
      "ouse": 2701,
      "ector": 2702,
      "This": 2703,
      "96": 2704,
      "mod": 2705,
      "ĠWe": 2706,
      "gb": 2707,
      "Format": 2708,
      "Ġmargin": 2709,
      "ById": 2710,
      "CL": 2711,
      "stro": 2712,
      "gin": 2713,
      "Ġsee": 2714,
      "ivity": 2715,
      "umpy": 2716,
      "ride": 2717,
      "Ġver": 2718,
      "ignore": 2719,
      "Ġfiles": 2720,
      "MO": 2721,
      "Ġtask": 2722,
      "Modal": 2723,
      "aded": 2724,
      "option": 2725,
      "Ġstep": 2726,
      "CON": 2727,
      "nal": 2728,
      "Sp": 2729,
      "ĠMe": 2730,
      "go": 2731,
      "mode": 2732,
      "Ġfilename": 2733,
      "Ġinclude": 2734,
      "Create": 2735,
      "svg": 2736,
      "čĊčĊĠĠĠ": 2737,
      "Ġinitial": 2738,
      "Ġstrict": 2739,
      "ublish": 2740,
      "lack": 2741,
      "undefined": 2742,
      "ancel": 2743,
      "Ġdelete": 2744,
      "loader": 2745,
      "batch": 2746,
      "png": 2747,
      "weight": 2748,
      "uple": 2749,
      "Ġreq": 2750,
      "font": 2751,
      "lag": 2752,
      "ness": 2753,
      "TY": 2754,
      "settings": 2755,
      "child": 2756,
      "Ġdistrib": 2757,
      "ules": 2758,
      "Ġter": 2759,
      "total": 2760,
      "ios": 2761,
      "lower": 2762,
      "Ġ\"../": 2763,
      "Ġdone": 2764,
      "Ġexist": 2765,
      "acity": 2766,
      "(/": 2767,
      "ns": 2768,
      "Tra": 2769,
      "router": 2770,
      "Ġpop": 2771,
      "Ġdifferent": 2772,
      "ĠType": 2773,
      "></": 2774,
      "Controller": 2775,
      "Search": 2776,
      "sort": 2777,
      "ving": 2778,
      "Ġwell": 2779,
      "Ġworld": 2780,
      "ÂłÂł": 2781,
      "Ġreport": 2782,
      ")},": 2783,
      "Store": 2784,
      "way": 2785,
      "Ġsol": 2786,
      "ĠJSON": 2787,
      "Ġ'#": 2788,
      "arm": 2789,
      "dim": 2790,
      "Math": 2791,
      "Ġmodels": 2792,
      "ixt": 2793,
      "86": 2794,
      "loud": 2795,
      "41": 2796,
      "break": 2797,
      "cp": 2798,
      "tity": 2799,
      "Fact": 2800,
      "Ġcommand": 2801,
      "pository": 2802,
      "********************************": 2803,
      "ctx": 2804,
      "Ġim": 2805,
      "Ġ/*": 2806,
      "Ġ\"@": 2807,
      "Var": 2808,
      "prop": 2809,
      "Ġtf": 2810,
      "}/": 2811,
      "ternal": 2812,
      "Tab": 2813,
      "Length": 2814,
      "verse": 2815,
      "Ġsort": 2816,
      "ï¼Į": 2817,
      "alk": 2818,
      "ision": 2819,
      "Ġdb": 2820,
      "FA": 2821,
      "ux": 2822,
      "stop": 2823,
      ")(": 2824,
      "Ġborder": 2825,
      "vue": 2826,
      "Ġlogger": 2827,
      "Task": 2828,
      "arguments": 2829,
      "ues": 2830,
      "Ġdict": 2831,
      "Pre": 2832,
      "Items": 2833,
      "private": 2834,
      "ftware": 2835,
      "modules": 2836,
      "rypt": 2837,
      "ĠÐ": 2838,
      "ĠĠĠĠĠĠĠĠĠĠĠĠĠĠĠĠĠĠĠĠĠĠĠĠĠĠĠĠĠĠĠĠ": 2839,
      "pol": 2840,
      "Ġapi": 2841,
      "register": 2842,
      "={{": 2843,
      "Ġ\"#": 2844,
      ")))": 2845,
      "IP": 2846,
      "Ġevery": 2847,
      "ackage": 2848,
      "console": 2849,
      "ither": 2850,
      "ĠCreate": 2851,
      "Ġproduct": 2852,
      "87": 2853,
      "Ġaccount": 2854,
      "Ġwater": 2855,
      ".\"\"\"": 2856,
      "ross": 2857,
      "Template": 2858,
      "AME": 2859,
      "Timeout": 2860,
      "rel": 2861,
      "Ġincl": 2862,
      "gen": 2863,
      "Ġicon": 2864,
      "Ġcond": 2865,
      "ier": 2866,
      "ism": 2867,
      "Ġfloat": 2868,
      "sa": 2869,
      "Ġ{};": 2870,
      "Ġsum": 2871,
      "clare": 2872,
      "Ġlanguage": 2873,
      "offset": 2874,
      "webpack": 2875,
      "Ġcontrol": 2876,
      "Ġ>=": 2877,
      "Ġcalled": 2878,
      "ĠIN": 2879,
      "EST": 2880,
      "Open": 2881,
      "Imp": 2882,
      "author": 2883,
      "Ġexample": 2884,
      "Ġeffect": 2885,
      "Ġparser": 2886,
      "XXXX": 2887,
      "Ġremove": 2888,
      "ĠComm": 2889,
      "lip": 2890,
      "Match": 2891,
      "layout": 2892,
      "lint": 2893,
      "Ġexec": 2894,
      "apply": 2895,
      "untry": 2896,
      "Ġport": 2897,
      "card": 2898,
      "\"}},": 2899,
      "refer": 2900,
      "tip": 2901,
      "umer": 2902,
      "60": 2903,
      "meric": 2904,
      "Ġsrc": 2905,
      "Cell": 2906,
      "tab": 2907,
      "Frame": 2908,
      "Ġselected": 2909,
      "ivers": 2910,
      "}),": 2911,
      "Ġpos": 2912,
      "Resource": 2913,
      "dated": 2914,
      "ĠList": 2915,
      "gr": 2916,
      "Ġknow": 2917,
      "fill": 2918,
      "aracter": 2919,
      "session": 2920,
      "points": 2921,
      "iddle": 2922,
      "umb": 2923,
      "classes": 2924,
      "ulation": 2925,
      "Ġincre": 2926,
      "firm": 2927,
      "JSON": 2928,
      "copy": 2929,
      "``": 2930,
      "password": 2931,
      "}},": 2932,
      "Ġher": 2933,
      "func": 2934,
      "Ġlength": 2935,
      "throw": 2936,
      "rem": 2937,
      "Ġctx": 2938,
      "Ġgover": 2939,
      "Ġdevice": 2940,
      "Window": 2941,
      "nap": 2942,
      "ĠReturns": 2943,
      "ters": 2944,
      "Layout": 2945,
      "....": 2946,
      "ĠString": 2947,
      "Ġmode": 2948,
      "Ġ50": 2949,
      "deta": 2950,
      "ĠYou": 2951,
      "Ġ}),": 2952,
      "Storage": 2953,
      "cluster": 2954,
      "Ġhttps": 2955,
      "API": 2956,
      "ixed": 2957,
      "Ġlong": 2958,
      "Ġ11": 2959,
      "Ġcla": 2960,
      "åĲ": 2961,
      "ango": 2962,
      "ident": 2963,
      "ever": 2964,
      "foo": 2965,
      "Ġproperty": 2966,
      "argument": 2967,
      "era": 2968,
      "ĊĠĠĠĠĠĠ": 2969,
      "ORT": 2970,
      "Ġbackground": 2971,
      "Bar": 2972,
      "Ġbeing": 2973,
      "Ġlook": 2974,
      "Ġ'',": 2975,
      "ĉĉĉĉ": 2976,
      "heet": 2977,
      "account": 2978,
      "ipe": 2979,
      "\"))": 2980,
      "ĠHT": 2981,
      "Ġcreated": 2982,
      "lt": 2983,
      "Ġway": 2984,
      "Ġeven": 2985,
      "mbda": 2986,
      "second": 2987,
      "ä»": 2988,
      "Ġta": 2989,
      "icker": 2990,
      "Ġemail": 2991,
      "ĠOR": 2992,
      "book": 2993,
      "game": 2994,
      "ĠĠĠĠĠĠĠĠĠĠĠ": 2995,
      "amily": 2996,
      "imation": 2997,
      "define": 2998,
      "ĠAs": 2999,
      "Ġmsg": 3000,
      "Ġhere": 3001,
      "PL": 3002,
      "ock": 3003,
      "Ġ(\"": 3004,
      "uation": 3005,
      "Ġnon": 3006,
      "slice": 3007,
      "Ġwithout": 3008,
      "vided": 3009,
      "}</": 3010,
      "imum": 3011,
      "alance": 3012,
      "Ġagain": 3013,
      "FI": 3014,
      "ĠForm": 3015,
      "Ġpadding": 3016,
      "Back": 3017,
      "Ġcar": 3018,
      "Ġaccess": 3019,
      "Ġown": 3020,
      "iff": 3021,
      "Ġprovide": 3022,
      "Ġ{\"": 3023,
      "servable": 3024,
      "hash": 3025,
      "Ġcustom": 3026,
      "leted": 3027,
      "Left": 3028,
      "ability": 3029,
      "ĠAN": 3030,
      "Web": 3031,
      "UM": 3032,
      "aa": 3033,
      "Ġerr": 3034,
      "74": 3035,
      "names": 3036,
      "Fe": 3037,
      "ived": 3038,
      "layers": 3039,
      "shot": 3040,
      "ĠComponent": 3041,
      "scale": 3042,
      "Ã©": 3043,
      "(\"#": 3044,
      "udio": 3045,
      ":'": 3046,
      "auto": 3047,
      "drop": 3048,
      "transform": 3049,
      "ĠZ": 3050,
      "Builder": 3051,
      "ulti": 3052,
      "github": 3053,
      "apping": 3054,
      "utf": 3055,
      "54": 3056,
      "holder": 3057,
      "entic": 3058,
      "ĠID": 3059,
      "creen": 3060,
      "TH": 3061,
      "cs": 3062,
      "catch": 3063,
      "itional": 3064,
      ".,": 3065,
      "New": 3066,
      "getElement": 3067,
      "cf": 3068,
      "login": 3069,
      "mask": 3070,
      "~~": 3071,
      "80": 3072,
      "We": 3073,
      "ĠAdd": 3074,
      "ral": 3075,
      "none": 3076,
      "Ġins": 3077,
      "Ġitems": 3078,
      "83": 3079,
      "gt": 3080,
      "',['": 3081,
      "æľ": 3082,
      "Ġdep": 3083,
      "Obj": 3084,
      "jango": 3085,
      ">{": 3086,
      "rt": 3087,
      "Ġpartic": 3088,
      "Ġthose": 3089,
      "[];": 3090,
      "Document": 3091,
      "Ġoffset": 3092,
      "Pri": 3093,
      "product": 3094,
      "proto": 3095,
      "Method": 3096,
      "Schema": 3097,
      "cip": 3098,
      "cell": 3099,
      "iod": 3100,
      "filename": 3101,
      "keep": 3102,
      "control": 3103,
      "Ġhref": 3104,
      "imal": 3105,
      "indexOf": 3106,
      "cache": 3107,
      "Ġisinstance": 3108,
      "ium": 3109,
      "opyright": 3110,
      "ĠTO": 3111,
      "Ġhealth": 3112,
      "Ġflex": 3113,
      "(-": 3114,
      "Exception": 3115,
      "Ġrandom": 3116,
      "cm": 3117,
      "Range": 3118,
      "rip": 3119,
      "Ġhum": 3120,
      "logger": 3121,
      "Dialog": 3122,
      "Server": 3123,
      "success": 3124,
      "Ġaddress": 3125,
      "ideo": 3126,
      "oot": 3127,
      "cd": 3128,
      "Ġbutton": 3129,
      "Ġest": 3130,
      "Ġ`${": 3131,
      "iables": 3132,
      "Ġday": 3133,
      "Account": 3134,
      "results": 3135,
      "ĠNew": 3136,
      "Ġamount": 3137,
      "Ġjo": 3138,
      "Ġear": 3139,
      "52": 3140,
      "}.": 3141,
      "custom": 3142,
      "Ð¸": 3143,
      "Ġfull": 3144,
      "è¯": 3145,
      "72": 3146,
      "ordin": 3147,
      "CE": 3148,
      "kind": 3149,
      "Ġold": 3150,
      "ital": 3151,
      "menu": 3152,
      "callback": 3153,
      "53": 3154,
      "`;": 3155,
      "Ġ''": 3156,
      "ðŁ": 3157,
      "bb": 3158,
      "Down": 3159,
      "Vis": 3160,
      "ond": 3161,
      "rate": 3162,
      "Ġresearch": 3163,
      "stack": 3164,
      "ĠAmeric": 3165,
      "One": 3166,
      "mm": 3167,
      "Ġframe": 3168,
      "className": 3169,
      "Ġfill": 3170,
      "asic": 3171,
      "outh": 3172,
      "æķ": 3173,
      "Ġvery": 3174,
      "]],": 3175,
      "Ġcontinue": 3176,
      "Ġsaid": 3177,
      "include": 3178,
      "igin": 3179,
      "Ġdescribe": 3180,
      "iant": 3181,
      "ives": 3182,
      "Settings": 3183,
      "river": 3184,
      "Part": 3185,
      "ensions": 3186,
      "global": 3187,
      "scroll": 3188,
      "ship": 3189,
      "eta": 3190,
      "theme": 3191,
      "ĠNot": 3192,
      "ught": 3193,
      "irection": 3194,
      "parser": 3195,
      ":[": 3196,
      "\":{\"": 3197,
      "Version": 3198,
      "Ġ}}": 3199,
      "asure": 3200,
      "unit": 3201,
      "Ġsave": 3202,
      "DI": 3203,
      "member": 3204,
      "Output": 3205,
      "Ġsys": 3206,
      "Ġwant": 3207,
      "land": 3208,
      "Ġshape": 3209,
      "Ġ30": 3210,
      "disable": 3211,
      "84": 3212,
      "Ġduring": 3213,
      "Ġboth": 3214,
      "63": 3215,
      "lied": 3216,
      "pb": 3217,
      "lines": 3218,
      "Ġ{},": 3219,
      "Ġrecord": 3220,
      "Mock": 3221,
      "62": 3222,
      ">,": 3223,
      "KE": 3224,
      "ssible": 3225,
      "ĠâĢĵ": 3226,
      "atform": 3227,
      "char": 3228,
      "73": 3229,
      "pk": 3230,
      "queue": 3231,
      "Ġbatch": 3232,
      "kens": 3233,
      "Body": 3234,
      "cer": 3235,
      "ulum": 3236,
      "edit": 3237,
      "TRGL": 3238,
      "andard": 3239,
      "Ġconnect": 3240,
      "ĠCol": 3241,
      "lags": 3242,
      "Ġnormal": 3243,
      "94": 3244,
      "Ġ\"/": 3245,
      "ĠSo": 3246,
      "lin": 3247,
      "Ġrece": 3248,
      "ĊĠĠĠĠĠĠĠĠĠĠĠĠĠĠĠĠĠĠĠĠĠĠĠĠĠ": 3249,
      "Ġ14": 3250,
      "coder": 3251,
      "arr": 3252,
      "ottom": 3253,
      "Ġsend": 3254,
      "Sync": 3255,
      "Ġspecific": 3256,
      "schema": 3257,
      "Ġpassword": 3258,
      "chedule": 3259,
      "ĠonClick": 3260,
      "Factory": 3261,
      "Values": 3262,
      "Ġfields": 3263,
      "head": 3264,
      "nn": 3265,
      "enter": 3266,
      "Ġauthor": 3267,
      "Edit": 3268,
      "uri": 3269,
      "Ġactive": 3270,
      "her": 3271,
      "(\".": 3272,
      "cription": 3273,
      "ixture": 3274,
      "ĠAt": 3275,
      "tree": 3276,
      "čĊĠĠĠĠĠĠĠĠĠĠĠĠĠĠĠĠĠĠĠ": 3277,
      "Min": 3278,
      "\"+": 3279,
      "ÑĤ": 3280,
      "leg": 3281,
      "Ġinf": 3282,
      "Ġtransform": 3283,
      "allet": 3284,
      "Ġchannel": 3285,
      "Ġavailable": 3286,
      "poch": 3287,
      "full": 3288,
      "term": 3289,
      "Over": 3290,
      "VE": 3291,
      "Ġheaders": 3292,
      "orn": 3293,
      "Ġproble": 3294,
      "bound": 3295,
      "################################": 3296,
      "ĠValue": 3297,
      "await": 3298,
      "Ġrepresent": 3299,
      "CC": 3300,
      "ĠLog": 3301,
      "Ġident": 3302,
      "mat": 3303,
      "imer": 3304,
      "Str": 3305,
      "Ġhost": 3306,
      "åħ": 3307,
      "FBQ": 3308,
      "Ġperson": 3309,
      "oom": 3310,
      "SU": 3311,
      "Ġsmall": 3312,
      "package": 3313,
      "()).": 3314,
      "omain": 3315,
      "section": 3316,
      "Ġmade": 3317,
      "Prop": 3318,
      "Ġtag": 3319,
      "Entity": 3320,
      "ĠEvent": 3321,
      "material": 3322,
      "Ġfetch": 3323,
      "normal": 3324,
      "tf": 3325,
      "ĠComp": 3326,
      "Ġlarge": 3327,
      "category": 3328,
      "chool": 3329,
      "meta": 3330,
      "Ġcommun": 3331,
      "Red": 3332,
      "ites": 3333,
      "application": 3334,
      "Ġimg": 3335,
      "Dir": 3336,
      "rain": 3337,
      "Ġtake": 3338,
      "limit": 3339,
      "Route": 3340,
      "ibility": 3341,
      "pipe": 3342,
      "DB": 3343,
      "admin": 3344,
      "61": 3345,
      "ĠIS": 3346,
      "concat": 3347,
      "Ġtypeof": 3348,
      "ãĢ": 3349,
      "Ġcy": 3350,
      "Ġspe": 3351,
      "iles": 3352,
      "Ġclear": 3353,
      "lide": 3354,
      "EB": 3355,
      "Max": 3356,
      "orth": 3357,
      "engine": 3358,
      "Ġhtml": 3359,
      "username": 3360,
      ")]": 3361,
      "ocial": 3362,
      "oltip": 3363,
      "Order": 3364,
      "äº": 3365,
      "ayment": 3366,
      "TP": 3367,
      "('./": 3368,
      "cal": 3369,
      "Ġ$(": 3370,
      "ait": 3371,
      "Option": 3372,
      "ĠCopyright": 3373,
      "Ġmuch": 3374,
      "Ġ'.": 3375,
      "If": 3376,
      "missions": 3377,
      "subscribe": 3378,
      "Ġrest": 3379,
      "Ġdon": 3380,
      "Ð½": 3381,
      "ultiple": 3382,
      "dep": 3383,
      "ĠOr": 3384,
      "imate": 3385,
      "ĠSee": 3386,
      "cu": 3387,
      "93": 3388,
      "Target": 3389,
      "tach": 3390,
      "done": 3391,
      "ACK": 3392,
      "Ġlocation": 3393,
      "Ġ13": 3394,
      "ĠAll": 3395,
      "EventListener": 3396,
      "Ġiss": 3397,
      "rand": 3398,
      "pha": 3399,
      "boolean": 3400,
      "å®": 3401,
      "Ġ<=": 3402,
      "Ġclose": 3403,
      "Ġstop": 3404,
      "Ġsettings": 3405,
      "untime": 3406,
      "txt": 3407,
      "loss": 3408,
      "Ġtheme": 3409,
      "XG": 3410,
      "yx": 3411,
      "fields": 3412,
      "\"==": 3413,
      "requ": 3414,
      "verage": 3415,
      "Ġarguments": 3416,
      "known": 3417,
      "Buffer": 3418,
      "Ġexperi": 3419,
      "Own": 3420,
      "ety": 3421,
      "Post": 3422,
      "Run": 3423,
      "je": 3424,
      "headers": 3425,
      "hether": 3426,
      "napshot": 3427,
      "aly": 3428,
      "!=": 3429,
      "Ġlogging": 3430,
      "Ġtech": 3431,
      "describe": 3432,
      "resp": 3433,
      "Oper": 3434,
      "oto": 3435,
      "ĠRout": 3436,
      "Ġeither": 3437,
      "ooks": 3438,
      "Ġprovided": 3439,
      "Gener": 3440,
      "Ġdim": 3441,
      "gex": 3442,
      "Ġplt": 3443,
      "Ġprodu": 3444,
      "Json": 3445,
      "access": 3446,
      "Ġcour": 3447,
      "Loading": 3448,
      "clear": 3449,
      "Ġweb": 3450,
      "Ġenvironment": 3451,
      "ront": 3452,
      "Tree": 3453,
      "network": 3454,
      "Entry": 3455,
      "Ġ'<": 3456,
      "ele": 3457,
      "Ġcontainer": 3458,
      "(__": 3459,
      "æĸ": 3460,
      "Que": 3461,
      "Ġam": 3462,
      "90": 3463,
      "Ġtypes": 3464,
      "Ġ25": 3465,
      "Return": 3466,
      "tected": 3467,
      "amera": 3468,
      "inst": 3469,
      "Ġmove": 3470,
      "itude": 3471,
      "Ġheader": 3472,
      "uture": 3473,
      "92": 3474,
      "labels": 3475,
      "ah": 3476,
      "gment": 3477,
      "Ġge": 3478,
      "Ġlaw": 3479,
      "Ġpower": 3480,
      "___": 3481,
      "question": 3482,
      "eval": 3483,
      "Ġdeta": 3484,
      "Ġ'''": 3485,
      "acy": 3486,
      "=\\\"": 3487,
      "Ġ\"../../": 3488,
      "cret": 3489,
      "nd": 3490,
      "Ġsession": 3491,
      "ways": 3492,
      "del": 3493,
      "ULT": 3494,
      "Ġhand": 3495,
      "ĠOF": 3496,
      "alt": 3497,
      "Ġdid": 3498,
      "OP": 3499,
      "Ġalready": 3500,
      "'}": 3501,
      "rot": 3502,
      "ynam": 3503,
      "Ġnetwork": 3504,
      "route": 3505,
      "Promise": 3506,
      "stringify": 3507,
      "70": 3508,
      "Ġfollowing": 3509,
      "havi": 3510,
      "Ġless": 3511,
      "lap": 3512,
      "Ġpr": 3513,
      "101": 3514,
      "std": 3515,
      "Effect": 3516,
      "axis": 3517,
      "images": 3518,
      "82": 3519,
      "NAME": 3520,
      "Ġgood": 3521,
      "vo": 3522,
      "Args": 3523,
      "ĠProp": 3524,
      "Ġgraph": 3525,
      "dataset": 3526,
      "plugin": 3527,
      "Ġpayload": 3528,
      "users": 3529,
      "INT": 3530,
      "Offset": 3531,
      "\"/>": 3532,
      "Ġresolve": 3533,
      "pose": 3534,
      "Active": 3535,
      "PORT": 3536,
      "Ġweight": 3537,
      "OL": 3538,
      "ZX": 3539,
      "Ġmat": 3540,
      "Dep": 3541,
      "uding": 3542,
      "draw": 3543,
      "Ġpresent": 3544,
      "Work": 3545,
      "ÑĢ": 3546,
      "Ġprogram": 3547,
      "riter": 3548,
      "ones": 3549,
      ",{": 3550,
      "Ġet": 3551,
      "Ġfinal": 3552,
      "'].": 3553,
      "Ġlife": 3554,
      "Require": 3555,
      "Sign": 3556,
      "job": 3557,
      "ĠCON": 3558,
      "assign": 3559,
      "çĶ": 3560,
      "objects": 3561,
      "flex": 3562,
      "ĠAc": 3563,
      "Ġ24": 3564,
      "ATION": 3565,
      "Ġgame": 3566,
      "Ġcommon": 3567,
      "ga": 3568,
      "help": 3569,
      "atient": 3570,
      "Ġloc": 3571,
      "insert": 3572,
      "AY": 3573,
      "ias": 3574,
      "Ġcap": 3575,
      "bers": 3576,
      "ĠUp": 3577,
      "VER": 3578,
      "Level": 3579,
      "Right": 3580,
      "reference": 3581,
      "initial": 3582,
      "ished": 3583,
      "Ġdec": 3584,
      "ĠLe": 3585,
      "ade": 3586,
      "hidden": 3587,
      "properties": 3588,
      "bit": 3589,
      "ulumi": 3590,
      "Wrapper": 3591,
      "metadata": 3592,
      "ĊĠĠĠĠĠĠĠĠĊĠĠĠĠĠĠĠ": 3593,
      "bottom": 3594,
      "each": 3595,
      "ks": 3596,
      "tric": 3597,
      "ets": 3598,
      "Ġrad": 3599,
      "MM": 3600,
      "lim": 3601,
      "ires": 3602,
      "dash": 3603,
      "čĊĉĉ": 3604,
      "role": 3605,
      "BQ": 3606,
      "æķ°": 3607,
      "ĠAuth": 3608,
      "[:,": 3609,
      "ung": 3610,
      "redential": 3611,
      "wd": 3612,
      "Ġreal": 3613,
      "Spec": 3614,
      "Ġjob": 3615,
      "ZW": 3616,
      "itive": 3617,
      "Ġinfo": 3618,
      "expected": 3619,
      "Ġaxis": 3620,
      "\":[": 3621,
      "ending": 3622,
      "Ġparameters": 3623,
      "Ġrole": 3624,
      "allow": 3625,
      "ef": 3626,
      "example": 3627,
      "player": 3628,
      "Arg": 3629,
      "rest": 3630,
      "Ġ):": 3631,
      "ĊĊĉĉ": 3632,
      "Ġoriginal": 3633,
      "dev": 3634,
      "Ġnumpy": 3635,
      "entry": 3636,
      "Ġcenter": 3637,
      "Ġ[{": 3638,
      "ĠJo": 3639,
      "Ġdoc": 3640,
      "Ġalign": 3641,
      "xu": 3642,
      "stract": 3643,
      "Ph": 3644,
      "Ġdistributed": 3645,
      "Ġorgan": 3646,
      "Ġbox": 3647,
      "Ġwithin": 3648,
      "pg": 3649,
      "`);": 3650,
      "Ġenco": 3651,
      "Ġfail": 3652,
      "Layer": 3653,
      "reed": 3654,
      "]))": 3655,
      "Ġentry": 3656,
      "acc": 3657,
      "ĠĠĠĠĠĠĠĠĠĠĠĠ": 3658,
      "Ġsim": 3659,
      "ĠuseState": 3660,
      "CA": 3661,
      "SI": 3662,
      "Ġsingle": 3663,
      "GET": 3664,
      "iversity": 3665,
      "å¤": 3666,
      "ours": 3667,
      "wt": 3668,
      "202": 3669,
      "UP": 3670,
      "fit": 3671,
      "ĠNo": 3672,
      "icro": 3673,
      "Ġunit": 3674,
      "================================": 3675,
      "Ġthree": 3676,
      "ĠThey": 3677,
      "ĠAPI": 3678,
      "stream": 3679,
      "make": 3680,
      "thers": 3681,
      "Keys": 3682,
      "ometry": 3683,
      "services": 3684,
      "raft": 3685,
      "PRO": 3686,
      "background": 3687,
      "Ġgr": 3688,
      ")[": 3689,
      "Access": 3690,
      "prefix": 3691,
      "cast": 3692,
      "TI": 3693,
      "Ġimportant": 3694,
      "getElementById": 3695,
      "Ġ17": 3696,
      "QL": 3697,
      "validate": 3698,
      ")):": 3699,
      ".âĢĿ": 3700,
      "avigation": 3701,
      "\"===": 3702,
      "zer": 3703,
      "Styles": 3704,
      "Ġmak": 3705,
      "system": 3706,
      "Ġpres": 3707,
      "256": 3708,
      "domain": 3709,
      "ĠTrans": 3710,
      "ret": 3711,
      "oose": 3712,
      "ircle": 3713,
      "Ġmer": 3714,
      "Root": 3715,
      "ases": 3716,
      "los": 3717,
      "Ġswitch": 3718,
      "ĠBase": 3719,
      "Show": 3720,
      "Ġloss": 3721,
      "inary": 3722,
      "Have": 3723,
      "Details": 3724,
      "ĠEd": 3725,
      "Ġside": 3726,
      "Ġiter": 3727,
      "fact": 3728,
      "Ġbu": 3729,
      "teger": 3730,
      "Ġstruct": 3731,
      "Delete": 3732,
      "Ġgen": 3733,
      "Ġusername": 3734,
      "Custom": 3735,
      "Ġstyled": 3736,
      "mean": 3737,
      "Read": 3738,
      "NE": 3739,
      "Ã¡": 3740,
      "Ġexpress": 3741,
      "51": 3742,
      ".\",": 3743,
      "IB": 3744,
      "Ġind": 3745,
      "required": 3746,
      "500": 3747,
      "Ġhistory": 3748,
      "Project": 3749,
      "Ġbl": 3750,
      "ply": 3751,
      "Widget": 3752,
      "Ġstudy": 3753,
      "apter": 3754,
      "ugins": 3755,
      "Ġdesign": 3756,
      "ĠDis": 3757,
      "idual": 3758,
      "btn": 3759,
      "ĠLo": 3760,
      "year": 3761,
      "Com": 3762,
      "Ġ',": 3763,
      "rows": 3764,
      "ym": 3765,
      "Ext": 3766,
      "So": 3767,
      "internal": 3768,
      "Current": 3769,
      "ĠUR": 3770,
      "81": 3771,
      "Close": 3772,
      "MA": 3773,
      "Ġfs": 3774,
      "Step": 3775,
      "aj": 3776,
      "Ġconnection": 3777,
      "ĠOb": 3778,
      "Ġoption": 3779,
      "\"></": 3780,
      "Ġkeep": 3781,
      "Parser": 3782,
      "Ġhim": 3783,
      "ä½": 3784,
      "Ġcorrect": 3785,
      "Ġhome": 3786,
      "gistry": 3787,
      ">\\": 3788,
      "hide": 3789,
      "'},": 3790,
      "Mon": 3791,
      "Panel": 3792,
      "Ġdispatch": 3793,
      "ĠGener": 3794,
      "disabled": 3795,
      "Ġ((": 3796,
      "events": 3797,
      "Ġwrite": 3798,
      "payload": 3799,
      "Ġplay": 3800,
      "solute": 3801,
      "Plugin": 3802,
      "Ġstudents": 3803,
      "parameters": 3804,
      "Ġcollection": 3805,
      "mt": 3806,
      "ead": 3807,
      "Ġproperties": 3808,
      "leep": 3809,
      "Ġbro": 3810,
      "adow": 3811,
      "Description": 3812,
      "Ġbased": 3813,
      "IH": 3814,
      "Ġdel": 3815,
      "ĠHttp": 3816,
      "Ġlayer": 3817,
      "Session": 3818,
      "AGE": 3819,
      "Rule": 3820,
      "google": 3821,
      "ĠOptional": 3822,
      "MP": 3823,
      "cover": 3824,
      "ragment": 3825,
      "ffic": 3826,
      "Ġvol": 3827,
      "'));": 3828,
      "El": 3829,
      "Ġgenerate": 3830,
      "Ġgovern": 3831,
      "cn": 3832,
      "sd": 3833,
      "91": 3834,
      "Ġbel": 3835,
      "raint": 3836,
      "wise": 3837,
      "Ġscale": 3838,
      "emit": 3839,
      "ĠHTML": 3840,
      "Ġempty": 3841,
      "sel": 3842,
      "GV": 3843,
      "dices": 3844,
      "RAN": 3845,
      "Ġspecified": 3846,
      "stroy": 3847,
      "DAT": 3848,
      ")?": 3849,
      "Ġbest": 3850,
      "']['": 3851,
      "aving": 3852,
      "ae": 3853,
      "stand": 3854,
      "oriz": 3855,
      "contain": 3856,
      "Location": 3857,
      "ority": 3858,
      "Ġgrid": 3859,
      "Names": 3860,
      "fetch": 3861,
      "Fn": 3862,
      "matrix": 3863,
      "Ġdiv": 3864,
      "////////////////": 3865,
      "Ġdraw": 3866,
      "Ġ[-": 3867,
      "cap": 3868,
      "ucer": 3869,
      "extend": 3870,
      "Ġlight": 3871,
      "\"])": 3872,
      "Ġ).": 3873,
      "OwnProperty": 3874,
      "Ġmonth": 3875,
      "room": 3876,
      "Rad": 3877,
      "]+": 3878,
      "energy": 3879,
      "Script": 3880,
      "edia": 3881,
      "ired": 3882,
      "Ab": 3883,
      "Ġsent": 3884,
      "dia": 3885,
      "irs": 3886,
      "Mark": 3887,
      "modal": 3888,
      "125": 3889,
      "CK": 3890,
      "ffff": 3891,
      "\"}},[": 3892,
      "xml": 3893,
      "aper": 3894,
      "angle": 3895,
      "Helper": 3896,
      "reshold": 3897,
      "editor": 3898,
      "[-": 3899,
      "Ġspace": 3900,
      "mbers": 3901,
      "apt": 3902,
      "Ġaut": 3903,
      "Selected": 3904,
      "'+": 3905,
      "\")]),": 3906,
      "uggest": 3907,
      "Ġreject": 3908,
      "score": 3909,
      "71": 3910,
      "rency": 3911,
      "Ġrule": 3912,
      "Ġfood": 3913,
      "ĠHow": 3914,
      "pped": 3915,
      "0002": 3916,
      "Pos": 3917,
      "Ġstill": 3918,
      "Def": 3919,
      "ategy": 3920,
      "eded": 3921,
      "ĠCheck": 3922,
      "Ġmean": 3923,
      "Ġ}).": 3924,
      "Mod": 3925,
      "border": 3926,
      "ĠSub": 3927,
      "omen": 3928,
      "Mem": 3929,
      "Ġshort": 3930,
      "Ġanother": 3931,
      "ram": 3932,
      "KEY": 3933,
      "Ġoc": 3934,
      "Ġgrow": 3935,
      "Ġsever": 3936,
      "encies": 3937,
      "Ġdf": 3938,
      "ĊĠĠĠĠĠĠĠĠĠĠĠĠĠĠĠĠĠĠĠĠĠĠĠĠĠĠĠĠĠĠĠĠĠĠĠĠĠĠĠ": 3939,
      "Ġaround": 3940,
      "bose": 3941,
      "toHave": 3942,
      "querySelector": 3943,
      "reset": 3944,
      "ords": 3945,
      "`.": 3946,
      "Ġtree": 3947,
      "ĠCan": 3948,
      "loading": 3949,
      "CR": 3950,
      "ury": 3951,
      "âĸ": 3952,
      "ĠNumber": 3953,
      "loor": 3954,
      "è¿": 3955,
      "license": 3956,
      "Call": 3957,
      "Ax": 3958,
      "Product": 3959,
      "00000": 3960,
      "ctionary": 3961,
      "999": 3962,
      "Ñģ": 3963,
      "Ġactiv": 3964,
      "ĠFunction": 3965,
      "_.": 3966,
      "lang": 3967,
      "Ġredu": 3968,
      "nav": 3969,
      "Ġret": 3970,
      "eq": 3971,
      "Ġ\",": 3972,
      "Ġauto": 3973,
      "vm": 3974,
      "ello": 3975,
      "ird": 3976,
      "grad": 3977,
      "Ġdiff": 3978,
      "Ġconf": 3979,
      "Ġincluding": 3980,
      "Ġ1000": 3981,
      "sample": 3982,
      "NO": 3983,
      "MS": 3984,
      "aut": 3985,
      "Ġtri": 3986,
      "abs": 3987,
      "ernel": 3988,
      "ĠĠĠĠĠĠĠĠĠĠĠĠĠĠĠ": 3989,
      "tt": 3990,
      "atar": 3991,
      "atio": 3992,
      "isk": 3993,
      "Ġarea": 3994,
      "Ġ\"\"": 3995,
      "ured": 3996,
      "symbol": 3997,
      "stru": 3998,
      "Theme": 3999,
      "Ġ60": 4000,
      "ĠText": 4001,
      "Ġevents": 4002,
      "æĪ": 4003,
      "utation": 4004,
      "Ġcache": 4005,
      "cls": 4006,
      "Const": 4007,
      "Ġpas": 4008,
      "Ġcome": 4009,
      "ixel": 4010,
      "Ġpackage": 4011,
      "cmd": 4012,
      "mouse": 4013,
      "Ð¾Ð": 4014,
      "Ġappro": 4015,
      "Ġtyp": 4016,
      "nodes": 4017,
      ")/": 4018,
      "Ġcert": 4019,
      "ĠPh": 4020,
      "ĠAd": 4021,
      "Ġeval": 4022,
      "IONS": 4023,
      "handler": 4024,
      "Ġdise": 4025,
      "ises": 4026,
      "plit": 4027,
      "Ġgra": 4028,
      "âĶ": 4029,
      "ç»": 4030,
      "Process": 4031,
      "Ġcalcul": 4032,
      "ĠState": 4033,
      "Ġoften": 4034,
      "ĠonChange": 4035,
      "Ms": 4036,
      "Ġcause": 4037,
      "Ġprevious": 4038,
      "Ass": 4039,
      "Ġve": 4040,
      "Properties": 4041,
      "bn": 4042,
      "Ġhuman": 4043,
      "Ġpossible": 4044,
      "åĬ": 4045,
      "Ġpercent": 4046,
      "desc": 4047,
      "ĠAnd": 4048,
      "'):": 4049,
      "fd": 4050,
      "ount": 4051,
      "Ġsoftware": 4052,
      "cording": 4053,
      "Symbol": 4054,
      "execute": 4055,
      "Collection": 4056,
      "ĠPropTypes": 4057,
      "home": 4058,
      "Actions": 4059,
      "ĠBut": 4060,
      "Ġknown": 4061,
      "ĊĠĠĠĠĠĠĠĠĠĠ": 4062,
      "Av": 4063,
      "UI": 4064,
      "Called": 4065,
      "æĹ": 4066,
      "Sw": 4067,
      "Ġdataset": 4068,
      "deep": 4069,
      "exists": 4070,
      "curity": 4071,
      "ĠBe": 4072,
      "ysis": 4073,
      "FT": 4074,
      "Repository": 4075,
      "Password": 4076,
      "Ġ'-": 4077,
      "Connection": 4078,
      "errors": 4079,
      "screen": 4080,
      "ĠTODO": 4081,
      "ĠĠĠĠĠĠĠĠĠ": 4082,
      "Ġ``": 4083,
      "ended": 4084,
      "Ġsince": 4085,
      "Ġconsider": 4086,
      "native": 4087,
      "lood": 4088,
      "Stream": 4089,
      "au": 4090,
      "Ġreference": 4091,
      "iler": 4092,
      "Ġput": 4093,
      "buffer": 4094,
      "Ġinstanceof": 4095,
      "cr": 4096,
      "ĠMay": 4097,
      "Ġerrors": 4098,
      "Ġperiod": 4099,
      "Ġpoints": 4100,
      "Ġ\"\",": 4101,
      "Utils": 4102,
      "tack": 4103,
      "Ġpur": 4104,
      "ĠPo": 4105,
      "Ġtoo": 4106,
      "Ġbool": 4107,
      "embed": 4108,
      "erc": 4109,
      "ops": 4110,
      "Hash": 4111,
      "Ġdatabase": 4112,
      "čĊčĊĠĠĠĠĠĠĠ": 4113,
      "wner": 4114,
      "Ġmaterial": 4115,
      "Ġage": 4116,
      "Ġmight": 4117,
      "Router": 4118,
      "kit": 4119,
      "ĠSer": 4120,
      "istic": 4121,
      "Graph": 4122,
      "Ġyield": 4123,
      "ĠRequest": 4124,
      "Direct": 4125,
      "Ġbr": 4126,
      "ĊĊĊĠĠĠ": 4127,
      "Selection": 4128,
      "Ġtimes": 4129,
      "Ġchanges": 4130,
      "dot": 4131,
      "TE": 4132,
      "$.": 4133,
      "Ġshe": 4134,
      "just": 4135,
      "constructor": 4136,
      "media": 4137,
      "Ġlow": 4138,
      "Ġregion": 4139,
      "docs": 4140,
      "alysis": 4141,
      "ario": 4142,
      "Ġdepend": 4143,
      "Ġtreat": 4144,
      "Are": 4145,
      "Ġoccur": 4146,
      "bove": 4147,
      "()}": 4148,
      "until": 4149,
      "Ġattr": 4150,
      "dirname": 4151,
      "WS": 4152,
      "empty": 4153,
      "Ġsample": 4154,
      "Ġraw": 4155,
      "Ġappe": 4156,
      "Invalid": 4157,
      "folder": 4158,
      "mory": 4159,
      "Ġfig": 4160,
      "connection": 4161,
      "Scroll": 4162,
      "spe": 4163,
      "prev": 4164,
      "pattern": 4165,
      "Sup": 4166,
      "havior": 4167,
      "ws": 4168,
      "æĺ": 4169,
      "ĠWhen": 4170,
      "Ġ$('#": 4171,
      "Stack": 4172,
      "roke": 4173,
      "atural": 4174,
      "feature": 4175,
      "DU": 4176,
      "Ge": 4177,
      "alf": 4178,
      "shared": 4179,
      "dividual": 4180,
      "some": 4181,
      "trigger": 4182,
      "Ġregister": 4183,
      "vest": 4184,
      "zy": 4185,
      "agn": 4186,
      "+'": 4187,
      "Reg": 4188,
      "Success": 4189,
      "href": 4190,
      "nb": 4191,
      "Ġ'';": 4192,
      "YW": 4193,
      "pass": 4194,
      "Ġcountry": 4195,
      "record": 4196,
      "Cre": 4197,
      "assets": 4198,
      "EXT": 4199,
      "site": 4200,
      "Ġthink": 4201,
      "chart": 4202,
      "agement": 4203,
      "')).": 4204,
      "ansp": 4205,
      "Ġemp": 4206,
      "Profile": 4207,
      "Ġdatetime": 4208,
      "Cache": 4209,
      "iness": 4210,
      "Cl": 4211,
      "after": 4212,
      "Ġfin": 4213,
      "eral": 4214,
      "addEventListener": 4215,
      "Ġinv": 4216,
      "Ġ>>>": 4217,
      "âĢĶ": 4218,
      "Ġelements": 4219,
      "Ids": 4220,
      "rection": 4221,
      "toggle": 4222,
      "aved": 4223,
      "Descript": 4224,
      "Ġclick": 4225,
      "Ġnames": 4226,
      "Ġdtype": 4227,
      "Ġbecome": 4228,
      "yd": 4229,
      "React": 4230,
      "BO": 4231,
      "Ġindic": 4232,
      "vs": 4233,
      "language": 4234,
      "PR": 4235,
      "fc": 4236,
      "ĠDE": 4237,
      "track": 4238,
      "Ġleg": 4239,
      "Ġsubject": 4240,
      "Ġwhether": 4241,
      "gre": 4242,
      "Ġå": 4243,
      "ĠNode": 4244,
      "Ġlicense": 4245,
      "Ġreturns": 4246,
      "ĠConfig": 4247,
      "uble": 4248,
      "ynamic": 4249,
      "Lower": 4250,
      "ĠTime": 4251,
      "csv": 4252,
      "Meta": 4253,
      "lain": 4254,
      "---": 4255,
      "inputs": 4256,
      "Metadata": 4257,
      "Ġelect": 4258,
      "POST": 4259,
      "Ġassoci": 4260,
      "FAULT": 4261,
      "clusterK": 4262,
      "exit": 4263,
      "(\"/": 4264,
      "Ġ40": 4265,
      "ĠThere": 4266,
      "Ġparam": 4267,
      "Ġ{...": 4268,
      "Ġcard": 4269,
      "uro": 4270,
      "Editor": 4271,
      "Ġhandler": 4272,
      "translate": 4273,
      "crypt": 4274,
      "views": 4275,
      "Ġroute": 4276,
      "align": 4277,
      "Ġhash": 4278,
      "Ġconvert": 4279,
      "]['": 4280,
      "LEN": 4281,
      "(['": 4282,
      "Can": 4283,
      "||(": 4284,
      "Record": 4285,
      "widget": 4286,
      "Load": 4287,
      "report": 4288,
      "irc": 4289,
      "Channel": 4290,
      "Ġmethods": 4291,
      "ĠIs": 4292,
      "conf": 4293,
      "ĠAp": 4294,
      "Char": 4295,
      "Param": 4296,
      "Ġlines": 4297,
      "where": 4298,
      "Ġscope": 4299,
      "*-": 4300,
      "unct": 4301,
      "Ġsite": 4302,
      "\"):": 4303,
      "Empty": 4304,
      "xx": 4305,
      "ĠWeb": 4306,
      "ENSE": 4307,
      "rary": 4308,
      "ĠAct": 4309,
      "128": 4310,
      "ilities": 4311,
      "primary": 4312,
      "ĠKey": 4313,
      "Chart": 4314,
      "Files": 4315,
      "Ġkeys": 4316,
      "emove": 4317,
      "uce": 4318,
      "TYPE": 4319,
      "Ġtrack": 4320,
      "manager": 4321,
      "ina": 4322,
      "ava": 4323,
      ",_": 4324,
      "ĠName": 4325,
      "Expression": 4326,
      "clar": 4327,
      "Ġfore": 4328,
      "tags": 4329,
      "most": 4330,
      "Ġhead": 4331,
      "tmp": 4332,
      "Email": 4333,
      "DF": 4334,
      "margin": 4335,
      "dispatch": 4336,
      "Cur": 4337,
      "va": 4338,
      "Ġschema": 4339,
      "Ġmeta": 4340,
      "Ġabove": 4341,
      "ube": 4342,
      "DS": 4343,
      "ypo": 4344,
      "ĠMo": 4345,
      "features": 4346,
      "lash": 4347,
      "ado": 4348,
      "ively": 4349,
      "wrapper": 4350,
      "times": 4351,
      "PAT": 4352,
      "Ġ'\\": 4353,
      "Ġoptional": 4354,
      "collection": 4355,
      "Events": 4356,
      "ba": 4357,
      "EL": 4358,
      "Submit": 4359,
      "unch": 4360,
      "amount": 4361,
      ";\\": 4362,
      "Ġdeclare": 4363,
      "ĠInput": 4364,
      "ERR": 4365,
      "Ġbar": 4366,
      "profile": 4367,
      "acing": 4368,
      "(\"./": 4369,
      "depend": 4370,
      "ech": 4371,
      "Ġdest": 4372,
      "Ġpublish": 4373,
      "}`,": 4374,
      "ices": 4375,
      "Ġentity": 4376,
      "ializer": 4377,
      ".',": 4378,
      "aN": 4379,
      "Ġselector": 4380,
      "JS": 4381,
      "logical": 4382,
      "annot": 4383,
      "ICENSE": 4384,
      "Ġobtain": 4385,
      "dialog": 4386,
      "Ġcategory": 4387,
      "Ġwrapper": 4388,
      "hr": 4389,
      "ached": 4390,
      "Ġreplace": 4391,
      "Ġ\"\\": 4392,
      "255": 4393,
      "uuid": 4394,
      "Ġ\"),": 4395,
      "ĠEng": 4396,
      "ĊĠĠĠĠĠĠĠĠĠĠĠĠĠĠĠĠĠĠĠĠĠĠĠĠĠĠĠĠĠĠĠĠĠĠĠĠĠĠĠĠĠĠĠĠĠĠĠĠĠĠĠĠ": 4397,
      "Device": 4398,
      "Ġimplements": 4399,
      "IST": 4400,
      "Ġenv": 4401,
      "YX": 4402,
      "pred": 4403,
      "/${": 4404,
      "otion": 4405,
      "Ġteach": 4406,
      "Ġred": 4407,
      "price": 4408,
      "RU": 4409,
      "storage": 4410,
      "like": 4411,
      "Role": 4412,
      "Div": 4413,
      "Ġincrease": 4414,
      "Ġunique": 4415,
      "Ġbound": 4416,
      "Ġvalidate": 4417,
      "Interface": 4418,
      "Ġide": 4419,
      "utions": 4420,
      "Rect": 4421,
      "]).": 4422,
      "chain": 4423,
      "selection": 4424,
      "Ġdefin": 4425,
      "na": 4426,
      "defineProperty": 4427,
      "ĠWAR": 4428,
      "Ġjest": 4429,
      "Ġturn": 4430,
      "Ġactions": 4431,
      "tocol": 4432,
      "ABLE": 4433,
      "Drop": 4434,
      "Defin": 4435,
      "Ġfree": 4436,
      "erm": 4437,
      ")',": 4438,
      "trics": 4439,
      "ĠURL": 4440,
      "CB": 4441,
      "Ġbook": 4442,
      "Descriptor": 4443,
      "before": 4444,
      "+=": 4445,
      "Ġagainst": 4446,
      "Ġenergy": 4447,
      "Ġ199": 4448,
      "Do": 4449,
      "Ġequal": 4450,
      "izes": 4451,
      "Ġmeans": 4452,
      "ĠMap": 4453,
      "OK": 4454,
      "Ġrights": 4455,
      "area": 4456,
      "ji": 4457,
      "stit": 4458,
      "Ġmask": 4459,
      "tax": 4460,
      "Ġele": 4461,
      "ĊĠĠĠĠĠĠĠĠĠĠĠĠĠĠĠĠĠĠĠĠĠĠĠĠĠĠĠĠĠ": 4462,
      "Local": 4463,
      "non": 4464,
      "400": 4465,
      "Ġdirectory": 4466,
      "Ġmetadata": 4467,
      "Ġ32": 4468,
      "comment": 4469,
      "ills": 4470,
      "Ġfew": 4471,
      "Bl": 4472,
      "endar": 4473,
      "ĠDo": 4474,
      "ulate": 4475,
      "IO": 4476,
      "fg": 4477,
      "ĠThese": 4478,
      "Ġdisabled": 4479,
      "ped": 4480,
      "setState": 4481,
      "\\/": 4482,
      "focus": 4483,
      "ÃŃ": 4484,
      "Ġplayer": 4485,
      "Ġplot": 4486,
      "ĠUniversity": 4487,
      "includes": 4488,
      "ĠANY": 4489,
      "ied": 4490,
      "Ġkind": 4491,
      "eds": 4492,
      "Ġsure": 4493,
      "Ġcells": 4494,
      "Ġscript": 4495,
      "ĊĠĠĠĠĠĠĠĠĠĠĠĠĠĠ": 4496,
      "Dict": 4497,
      "è®": 4498,
      "hn": 4499,
      "Configuration": 4500,
      "Next": 4501,
      "upload": 4502,
      "vg": 4503,
      "uplic": 4504,
      "Ġlater": 4505,
      "Category": 4506,
      "Ġparameter": 4507,
      "Ġdrop": 4508,
      "switch": 4509,
      "ĠBo": 4510,
      "Ġattribute": 4511,
      "Ġperform": 4512,
      "Ġwait": 4513,
      "platform": 4514,
      "owner": 4515,
      "conom": 4516,
      "Float": 4517,
      "]}": 4518,
      "swer": 4519,
      "Ġland": 4520,
      "ĠException": 4521,
      "SER": 4522,
      "cli": 4523,
      "Async": 4524,
      "Ġstroke": 4525,
      "åĽ": 4526,
      "Ġapplic": 4527,
      "Ġstream": 4528,
      "support": 4529,
      "ĠFile": 4530,
      "Ġinputs": 4531,
      "conv": 4532,
      ":`": 4533,
      "fb": 4534,
      "ĠTHE": 4535,
      "____": 4536,
      "Transaction": 4537,
      "Ġpattern": 4538,
      "Ġsymbol": 4539,
      "illed": 4540,
      "rist": 4541,
      "ĠSp": 4542,
      "ategories": 4543,
      "socket": 4544,
      "ĠImage": 4545,
      "@@": 4546,
      "Ġtx": 4547,
      "Ġhar": 4548,
      "timeout": 4549,
      "VAL": 4550,
      "ĊĊĠĠĠĠĠĠĠĠĠ": 4551,
      "tc": 4552,
      "served": 4553,
      "ograph": 4554,
      "Ġcharacter": 4555,
      "columns": 4556,
      "ĠUse": 4557,
      "bool": 4558,
      "ifications": 4559,
      "orizont": 4560,
      "Game": 4561,
      "Ġgreat": 4562,
      "Di": 4563,
      "timestamp": 4564,
      "Ġinterest": 4565,
      "complete": 4566,
      "lambda": 4567,
      "ĠValueError": 4568,
      "otal": 4569,
      "Ġeas": 4570,
      "Ġsetup": 4571,
      "ITY": 4572,
      "Ġextra": 4573,
      "tools": 4574,
      "'>": 4575,
      "strip": 4576,
      "Ġsyn": 4577,
      "Ġacc": 4578,
      "Nav": 4579,
      "Ġlabels": 4580,
      "issing": 4581,
      "Resol": 4582,
      "Val": 4583,
      "058": 4584,
      "Ġmath": 4585,
      "âĢľ": 4586,
      "300": 4587,
      "Ġ-*-": 4588,
      "[],": 4589,
      "ev": 4590,
      "Ġdefined": 4591,
      "Ġeslint": 4592,
      "ilar": 4593,
      "QUFD": 4594,
      "Ġignore": 4595,
      "antity": 4596,
      "datetime": 4597,
      "Ġphys": 4598,
      "Ġcontains": 4599,
      "mar": 4600,
      "Ġpot": 4601,
      "jpg": 4602,
      "vision": 4603,
      "Ġpd": 4604,
      "Ġobjects": 4605,
      "illion": 4606,
      "ĊĊĠĠĠĠĠĠĠĠĠĠĠĠĠĠĠĠĠĠĠ": 4607,
      "car": 4608,
      "Ġ_.": 4609,
      "Ġenumer": 4610,
      "redentials": 4611,
      "(\\": 4612,
      "created": 4613,
      "ker": 4614,
      "LowerCase": 4615,
      "ĠAss": 4616,
      "atter": 4617,
      "Ġidx": 4618,
      "Ġwriting": 4619,
      "OM": 4620,
      "Ġreturned": 4621,
      "aster": 4622,
      "dc": 4623,
      "cogn": 4624,
      "dat": 4625,
      "Ġuntil": 4626,
      "lots": 4627,
      "rule": 4628,
      "Ġdebug": 4629,
      "ĠAmerican": 4630,
      "dG": 4631,
      "eg": 4632,
      "decode": 4633,
      "\"][\"": 4634,
      "RES": 4635,
      "mg": 4636,
      "Ġapply": 4637,
      "Ġsu": 4638,
      "Ġconditions": 4639,
      "Http": 4640,
      "Interval": 4641,
      "generate": 4642,
      "&#": 4643,
      "aws": 4644,
      "Op": 4645,
      "Ġcannot": 4646,
      "attributes": 4647,
      "dest": 4648,
      "ĠDes": 4649,
      "Ġgrad": 4650,
      "Ġeduc": 4651,
      "éĢ": 4652,
      "Ġalways": 4653,
      "win": 4654,
      "Ġactual": 4655,
      "You": 4656,
      "uilt": 4657,
      "iddleware": 4658,
      "Ġusers": 4659,
      "Ġdjango": 4660,
      "shift": 4661,
      "Ġkwargs": 4662,
      "rx": 4663,
      "uide": 4664,
      "xl": 4665,
      "Ġcost": 4666,
      "Ġexports": 4667,
      "iver": 4668,
      "PS": 4669,
      "fire": 4670,
      "Ġtests": 4671,
      "Ġtraining": 4672,
      "Ġneg": 4673,
      "BU": 4674,
      "Ġfn": 4675,
      "Ġargument": 4676,
      "Ġclean": 4677,
      "submit": 4678,
      "Ġdevelopment": 4679,
      "rgb": 4680,
      "super": 4681,
      "IE": 4682,
      "ians": 4683,
      "Ġcmd": 4684,
      "sent": 4685,
      "Section": 4686,
      "ĠUpdate": 4687,
      "123": 4688,
      "ĠValid": 4689,
      "Ġwords": 4690,
      "orizontal": 4691,
      "Pop": 4692,
      "hand": 4693,
      "ĠPy": 4694,
      "ĠPer": 4695,
      "ĠMessage": 4696,
      "Ġcommit": 4697,
      "Ġfeature": 4698,
      "scriptor": 4699,
      "seq": 4700,
      "une": 4701,
      "Ġhapp": 4702,
      "aking": 4703,
      "video": 4704,
      "opts": 4705,
      "appendChild": 4706,
      "aW": 4707,
      "jor": 4708,
      "Msg": 4709,
      "(\"\\": 4710,
      "Exec": 4711,
      "Ġdr": 4712,
      "}:": 4713,
      "ĠDefault": 4714,
      "Ġedit": 4715,
      "alle": 4716,
      "ially": 4717,
      "Loader": 4718,
      "Ġaccept": 4719,
      "Ġschool": 4720,
      "Ġstyles": 4721,
      "uded": 4722,
      "Bound": 4723,
      "Contract": 4724,
      "Ġnodes": 4725,
      "Ġadded": 4726,
      "sys": 4727,
      "Ġindividual": 4728,
      "Ġremo": 4729,
      "Ċĉĉĉĉĉĉĉ": 4730,
      "Ġopts": 4731,
      "utor": 4732,
      "Ġarr": 4733,
      "month": 4734,
      "Ġstack": 4735,
      "ART": 4736,
      "encode": 4737,
      "Host": 4738,
      "Ġprevent": 4739,
      "Amount": 4740,
      "Parameter": 4741,
      "allen": 4742,
      "Ġtmp": 4743,
      "Ġoperation": 4744,
      "Ġplan": 4745,
      "cv": 4746,
      "ĠMan": 4747,
      "sig": 4748,
      "Fields": 4749,
      "visible": 4750,
      "Num": 4751,
      "Ġconfiguration": 4752,
      "Ġrot": 4753,
      "Found": 4754,
      "tool": 4755,
      "cbi": 4756,
      "Dto": 4757,
      "Scale": 4758,
      "åŃ": 4759,
      "ĠĠĠĠĠĠĠĠĠĠ": 4760,
      "Ġvert": 4761,
      "Ident": 4762,
      "Transform": 4763,
      ".\")": 4764,
      "SV": 4765,
      "liance": 4766,
      "ASE": 4767,
      "anner": 4768,
      "URE": 4769,
      "tick": 4770,
      "Unit": 4771,
      "}`);": 4772,
      "ĠNOT": 4773,
      "viders": 4774,
      "Ġpassed": 4775,
      ",âĢĿ": 4776,
      "lers": 4777,
      "Ġprotected": 4778,
      "\"},{\"": 4779,
      "ho": 4780,
      "anc": 4781,
      "ĊĊĊ": 4782,
      "ĠVersion": 4783,
      "Ġsay": 4784,
      "pad": 4785,
      "Ġfamily": 4786,
      "Ġimages": 4787,
      "ĠWARRAN": 4788,
      "Ġgre": 4789,
      "Ġweek": 4790,
      "'];": 4791,
      "IND": 4792,
      "čĊĠĠĠĠĠĠĠĠĠĠĠĠĠĠĠĠĠĠĠĠĠĠĠ": 4793,
      "toLowerCase": 4794,
      "oney": 4795,
      "rictEqual": 4796,
      "={()": 4797,
      "aging": 4798,
      "Sk": 4799,
      "ĠAb": 4800,
      "000000": 4801,
      "Ġable": 4802,
      "æł": 4803,
      "Ġclasses": 4804,
      "Visible": 4805,
      "Required": 4806,
      "Main": 4807,
      "anger": 4808,
      "Port": 4809,
      "Cla": 4810,
      "FO": 4811,
      "Changed": 4812,
      "FOR": 4813,
      "termin": 4814,
      "ressed": 4815,
      "ti": 4816,
      "python": 4817,
      "System": 4818,
      "vance": 4819,
      "Ġprefix": 4820,
      "Ġ202": 4821,
      "çĶ¨": 4822,
      "Logger": 4823,
      "Ð°Ð": 4824,
      "Ġ\"+": 4825,
      "unded": 4826,
      "Ġdisease": 4827,
      "warn": 4828,
      "Ġrouter": 4829,
      "white": 4830,
      "Ġupdated": 4831,
      "Last": 4832,
      "Ġmultiple": 4833,
      "ZE": 4834,
      "addClass": 4835,
      "gor": 4836,
      "ASS": 4837,
      "aged": 4838,
      "words": 4839,
      "Core": 4840,
      "}\\": 4841,
      "ĠPart": 4842,
      "akes": 4843,
      "epoch": 4844,
      "etic": 4845,
      "ued": 4846,
      "Ġequ": 4847,
      "(*": 4848,
      "ience": 4849,
      "ensure": 4850,
      "Ġnear": 4851,
      "ĠView": 4852,
      "Ġdistance": 4853,
      "zeros": 4854,
      "Enum": 4855,
      "Only": 4856,
      "Ġrate": 4857,
      "Ġ38": 4858,
      "DD": 4859,
      "uate": 4860,
      "Area": 4861,
      "Ġcv": 4862,
      "Ġsection": 4863,
      "Display": 4864,
      "Ġearly": 4865,
      "force": 4866,
      "jection": 4867,
      "ĠObservable": 4868,
      "=>": 4869,
      "Ġexists": 4870,
      "losed": 4871,
      "pping": 4872,
      "declare": 4873,
      "$/": 4874,
      "uint": 4875,
      "anded": 4876,
      "Ġfocus": 4877,
      "))}": 4878,
      "ifest": 4879,
      "dump": 4880,
      "Ġgovernment": 4881,
      "tests": 4882,
      "Ġgroups": 4883,
      "Ġ\"<": 4884,
      "ĠModel": 4885,
      "fail": 4886,
      "Ġresol": 4887,
      "blue": 4888,
      "CI": 4889,
      "Ġdays": 4890,
      "Ġng": 4891,
      "Ġvariable": 4892,
      "Ġ)}": 4893,
      "],[-": 4894,
      "]*": 4895,
      "Ġfire": 4896,
      "Ġdesc": 4897,
      "Ġapplication": 4898,
      "bi": 4899,
      "bytes": 4900,
      "graphy": 4901,
      "Ġ;": 4902,
      "Ġstd": 4903,
      "Ġbegin": 4904,
      "commit": 4905,
      "ips": 4906,
      "seconds": 4907,
      "Ġproblem": 4908,
      "Ġlik": 4909,
      "COL": 4910,
      "ordinates": 4911,
      "ACT": 4912,
      "ĠWIT": 4913,
      "Parent": 4914,
      "Ġutils": 4915,
      "ages": 4916,
      "Ġ\"-": 4917,
      "čĊĠĠĠĠ": 4918,
      "hasOwnProperty": 4919,
      "è¡": 4920,
      "Ġlower": 4921,
      "Ġunderstand": 4922,
      "tention": 4923,
      "direction": 4924,
      "floor": 4925,
      "----------------------------------------------------------------": 4926,
      "aff": 4927,
      "ada": 4928,
      "Ġassign": 4929,
      "pu": 4930,
      "Ġlit": 4931,
      "Ġ}));": 4932,
      "padding": 4933,
      "Ġnever": 4934,
      "Ġ(_": 4935,
      "rs": 4936,
      "setup": 4937,
      "Ġcomment": 4938,
      "original": 4939,
      "Ġfar": 4940,
      "Ġprimary": 4941,
      "\"].": 4942,
      "rome": 4943,
      "details": 4944,
      "Ġinstead": 4945,
      "alert": 4946,
      "air": 4947,
      "Ġpulumi": 4948,
      "present": 4949,
      "Ġvideo": 4950,
      "600": 4951,
      "long": 4952,
      "á»": 4953,
      "mpt": 4954,
      "Ġonce": 4955,
      "cores": 4956,
      "resol": 4957,
      "END": 4958,
      "FC": 4959,
      "Ġprob": 4960,
      "Ġunknown": 4961,
      "Ġrequests": 4962,
      "steps": 4963,
      "Ġ\".": 4964,
      "Full": 4965,
      "wrap": 4966,
      "sess": 4967,
      "Ġpatient": 4968,
      "ĠGe": 4969,
      "Policy": 4970,
      "Ġcare": 4971,
      "oly": 4972,
      "LECT": 4973,
      "Ġ'../../../": 4974,
      "igr": 4975,
      "=\"#": 4976,
      "ãĢĤ": 4977,
      "gg": 4978,
      "Ġsocial": 4979,
      "Ġlearn": 4980,
      "ĠVar": 4981,
      "Ġlambda": 4982,
      "delta": 4983,
      "(`${": 4984,
      "trim": 4985,
      "ison": 4986,
      "diff": 4987,
      "Tool": 4988,
      "Ġdetails": 4989,
      "Ġquestion": 4990,
      "Ġsimple": 4991,
      "Nodes": 4992,
      "bg": 4993,
      "asing": 4994,
      "Ġnamespace": 4995,
      "License": 4996,
      "nest": 4997,
      "Ġcourse": 4998,
      ">)": 4999,
      "Definition": 5000,
      "My": 5001,
      "ĠService": 5002,
      "Ġpract": 5003,
      "wards": 5004,
      "des": 5005,
      "ĠImp": 5006,
      "dt": 5007,
      "Ġcb": 5008,
      "sim": 5009,
      "Li": 5010,
      "ĠĊĠĠĠĠĠĠĠ": 5011,
      "Enabled": 5012,
      "Ġadmin": 5013,
      "Ġcal": 5014,
      "',['../": 5015,
      "Ġparticular": 5016,
      "tensor": 5017,
      "Rel": 5018,
      "Ġ22": 5019,
      "Ġtags": 5020,
      "After": 5021,
      "Ġsomething": 5022,
      "DATA": 5023,
      "TS": 5024,
      "duration": 5025,
      "summary": 5026,
      "!!": 5027,
      "Ġpers": 5028,
      "Align": 5029,
      "ERROR": 5030,
      "ighb": 5031,
      "namespace": 5032,
      "Ġembed": 5033,
      "Ġnn": 5034,
      "âĶĢ": 5035,
      "Job": 5036,
      "Ġtab": 5037,
      "Ġtimeout": 5038,
      "ailed": 5039,
      "ĠReg": 5040,
      "colors": 5041,
      "norm": 5042,
      "Ġscreen": 5043,
      "agination": 5044,
      "Progress": 5045,
      "=_": 5046,
      "uard": 5047,
      "alar": 5048,
      "Ġbetter": 5049,
      "Ġbelie": 5050,
      "variable": 5051,
      "Login": 5052,
      "Ġtechno": 5053,
      "History": 5054,
      "Ġwomen": 5055,
      "Ġ[[": 5056,
      "âĢĵ": 5057,
      "ialized": 5058,
      "Ġinvalid": 5059,
      "Ġface": 5060,
      "soft": 5061,
      "Jo": 5062,
      "čĊĠĠĠĠĠĠĠĠĠ": 5063,
      "Ġfailed": 5064,
      "pages": 5065,
      "Ġforce": 5066,
      "Ġleast": 5067,
      "cloud": 5068,
      "addr": 5069,
      "sq": 5070,
      "Pe": 5071,
      "Ġloading": 5072,
      "NA": 5073,
      "irt": 5074,
      "Ġpress": 5075,
      "Ġreason": 5076,
      ")&&": 5077,
      "Ġsepar": 5078,
      "ĊĠĠĠĠĠĠĠĠĠĠĠĠĠĠĠĠĠĠĠĠĠĠĠĠ": 5079,
      "icles": 5080,
      "Ġmus": 5081,
      "?\"": 5082,
      "Dist": 5083,
      "Price": 5084,
      "Ġbit": 5085,
      "Ġexisting": 5086,
      "Ġcolumns": 5087,
      "Ġ21": 5088,
      "Ġresources": 5089,
      "ably": 5090,
      "Ġcursor": 5091,
      "canvas": 5092,
      "ĠĊĠĠĠ": 5093,
      "atory": 5094,
      "Ġbuffer": 5095,
      "quare": 5096,
      "Sum": 5097,
      "OS": 5098,
      "cut": 5099,
      "Boolean": 5100,
      "Ġengine": 5101,
      "Ġstandard": 5102,
      "Mouse": 5103,
      "ÂłÂłÂłÂł": 5104,
      "dec": 5105,
      "Ġfunctions": 5106,
      "PATH": 5107,
      "gorith": 5108,
      "dx": 5109,
      "ERS": 5110,
      "see": 5111,
      "Ġrelation": 5112,
      "illa": 5113,
      "Ġsuccessful": 5114,
      "Ġ$(\"#": 5115,
      "Been": 5116,
      "Ġpython": 5117,
      "aml": 5118,
      "Ġcss": 5119,
      "Ġdes": 5120,
      "loaded": 5121,
      "region": 5122,
      "First": 5123,
      "starts": 5124,
      "375": 5125,
      "å¼": 5126,
      "']]],": 5127,
      "Ġflow": 5128,
      "Ġmessages": 5129,
      "checked": 5130,
      "001": 5131,
      "ĠStates": 5132,
      "constants": 5133,
      "initialize": 5134,
      "$(": 5135,
      "0003": 5136,
      "Ġcolors": 5137,
      "Ġvari": 5138,
      "ĠUnited": 5139,
      "Ġcontaining": 5140,
      "vars": 5141,
      "Ġ--------": 5142,
      "Bottom": 5143,
      "peat": 5144,
      "Ġpermissions": 5145,
      "ately": 5146,
      "reduce": 5147,
      "Ġfunc": 5148,
      ".')": 5149,
      "Reference": 5150,
      "Ġneeds": 5151,
      "Author": 5152,
      "pool": 5153,
      "ĊĠĠĠĠĠĠĠĠĠĠĠĠĠĠĠĠĠĠĠĠĠĠĠĠĠĠĠĠĠĠĠĠĠĠĠĠĠĠĠĠĠĠĠ": 5154,
      "Doc": 5155,
      "Prefix": 5156,
      "apache": 5157,
      "plan": 5158,
      "Ġexperience": 5159,
      "SA": 5160,
      "Ġdoesn": 5161,
      "letion": 5162,
      "sequence": 5163,
      "Ġrelease": 5164,
      "enable": 5165,
      "Ġlearning": 5166,
      "erature": 5167,
      "Ġsays": 5168,
      "Ġstorage": 5169,
      "TIES": 5170,
      "Screen": 5171,
      "zone": 5172,
      "rank": 5173,
      "\",[": 5174,
      "Ġ'--": 5175,
      "Ġdue": 5176,
      "Ġvariables": 5177,
      "struction": 5178,
      "strap": 5179,
      "Ġmen": 5180,
      "entication": 5181,
      "ĠPl": 5182,
      "ĠApache": 5183,
      "Ġfour": 5184,
      "Ġ];": 5185,
      "WEB": 5186,
      "Ġ$.": 5187,
      ">=": 5188,
      "Ġcls": 5189,
      "Ġalt": 5190,
      "prevent": 5191,
      "Ġspecies": 5192,
      "Ġthings": 5193,
      "ĠDep": 5194,
      "Ċĉĉĉĉĉĉĉĉ": 5195,
      "ĠCal": 5196,
      "Ġvariant": 5197,
      "messages": 5198,
      "cbiAg": 5199,
      "PACK": 5200,
      "GB": 5201,
      "'][": 5202,
      "Ġreset": 5203,
      "database": 5204,
      "ĠAny": 5205,
      "~~~~": 5206,
      "Auto": 5207,
      "roid": 5208,
      "high": 5209,
      "}\"": 5210,
      "Ġbrowser": 5211,
      "Ġbelow": 5212,
      "groups": 5213,
      "åº": 5214,
      "toHaveBeen": 5215,
      "Ġselection": 5216,
      "({},": 5217,
      "ales": 5218,
      "called": 5219,
      "CRE": 5220,
      "odo": 5221,
      "IGHT": 5222,
      "Ġallowed": 5223,
      "aste": 5224,
      "innerHTML": 5225,
      "Util": 5226,
      "ana": 5227,
      "Ġdir": 5228,
      "Ġenter": 5229,
      "Users": 5230,
      "Ġdomain": 5231,
      "=\"/": 5232,
      "activ": 5233,
      "agent": 5234,
      "\"><": 5235,
      "hip": 5236,
      "Total": 5237,
      "history": 5238,
      "tile": 5239,
      "Ġsplit": 5240,
      "ports": 5241,
      "ummy": 5242,
      "small": 5243,
      "Db": 5244,
      "UE": 5245,
      "icons": 5246,
      "urch": 5247,
      "ĠTH": 5248,
      "čĊĉĉĉ": 5249,
      "Parameters": 5250,
      "testing": 5251,
      "ĠâĢĶ": 5252,
      "ole": 5253,
      "xs": 5254,
      "Track": 5255,
      "Ġseveral": 5256,
      "usiness": 5257,
      "){\"": 5258,
      "SD": 5259,
      "Ġneeded": 5260,
      "åľ": 5261,
      "=-": 5262,
      "Ġscient": 5263,
      "Ġæ": 5264,
      "Ġmar": 5265,
      "?(": 5266,
      "enabled": 5267,
      "Ġarch": 5268,
      "mitter": 5269,
      "Changes": 5270,
      "ĠLicensed": 5271,
      "Ġ23": 5272,
      "Ġalert": 5273,
      "........": 5274,
      "bc": 5275,
      "sql": 5276,
      "Ġcity": 5277,
      "Ġcore": 5278,
      "Ġinsert": 5279,
      "Network": 5280,
      "resources": 5281,
      "browser": 5282,
      "cancel": 5283,
      "Ġmembers": 5284,
      "hy": 5285,
      "ads": 5286,
      "attribute": 5287,
      "Ġsuggest": 5288,
      "sy": 5289,
      "Ġmenu": 5290,
      "pare": 5291,
      "å°": 5292,
      "Ġfeatures": 5293,
      ".)": 5294,
      "](": 5295,
      "ders": 5296,
      "Ġeditor": 5297,
      "inf": 5298,
      "istor": 5299,
      "greg": 5300,
      "Ġprev": 5301,
      "\\'": 5302,
      "imizer": 5303,
      "Ġair": 5304,
      "Ġeconom": 5305,
      "jectable": 5306,
      "undle": 5307,
      "Feature": 5308,
      "ja": 5309,
      "Bu": 5310,
      "aring": 5311,
      "izing": 5312,
      "enco": 5313,
      "Ġsequence": 5314,
      "Admin": 5315,
      "unctuation": 5316,
      "Ġnecess": 5317,
      "Ġparts": 5318,
      "Ġrecent": 5319,
      "NaN": 5320,
      "illi": 5321,
      "\"));": 5322,
      "Ġcertain": 5323,
      "press": 5324,
      "ao": 5325,
      "helpers": 5326,
      "progress": 5327,
      "ĊĠĠĠĠĠĠĠĠĠĠĠĠĠĠĠĠĠĠĠĠĠĠĠĠĠĠĠĠĠĠĠĠĠ": 5328,
      "Ġrisk": 5329,
      "ĠOnInit": 5330,
      "Ġtransaction": 5331,
      "ĠâĢĺ": 5332,
      "selector": 5333,
      "Ġrelated": 5334,
      "uler": 5335,
      "Ġ255": 5336,
      "Ġsin": 5337,
      "unic": 5338,
      "ĠLoc": 5339,
      "Iter": 5340,
      "Ġtensor": 5341,
      "Ġlate": 5342,
      "Ä±": 5343,
      "radius": 5344,
      "IF": 5345,
      "Ġtre": 5346,
      "ĠBy": 5347,
      "oll": 5348,
      ")){": 5349,
      "stat": 5350,
      "Ġcondition": 5351,
      "Vector": 5352,
      "Ġrem": 5353,
      "Ġ'_": 5354,
      "Ġimpro": 5355,
      "urther": 5356,
      "ria": 5357,
      "Ġtrigger": 5358,
      "final": 5359,
      "Ġali": 5360,
      "Connect": 5361,
      "ooter": 5362,
      "Ġassociated": 5363,
      "GR": 5364,
      "amb": 5365,
      "ĊĊĊĊ": 5366,
      "Ġip": 5367,
      "ĠWARRANTIES": 5368,
      "ĠParameters": 5369,
      "uni": 5370,
      "Art": 5371,
      "Ġverbose": 5372,
      "('--": 5373,
      "watch": 5374,
      "ä¸Ģ": 5375,
      "Ġpred": 5376,
      "real": 5377,
      "æĺ¯": 5378,
      "serialize": 5379,
      "Ġenum": 5380,
      "]},": 5381,
      "Ġ##": 5382,
      "andid": 5383,
      "Ġqual": 5384,
      "ĠHowever": 5385,
      "Ġjustify": 5386,
      "Ġnatural": 5387,
      "åĮ": 5388,
      "Ġspecial": 5389,
      "zz": 5390,
      "clone": 5391,
      ">'": 5392,
      "Global": 5393,
      "Ġprice": 5394,
      "ledge": 5395,
      "uting": 5396,
      "Ġdirection": 5397,
      "ĠRouter": 5398,
      "WN": 5399,
      "plugins": 5400,
      "destroy": 5401,
      "ĠArgs": 5402,
      "iform": 5403,
      "Ġenumerate": 5404,
      "Ġbottom": 5405,
      "ifact": 5406,
      "Year": 5407,
      "invalid": 5408,
      "Ġcases": 5409,
      "ĠPath": 5410,
      "questions": 5411,
      "ĠUs": 5412,
      "itter": 5413,
      "isArray": 5414,
      "ellow": 5415,
      "ĠparseInt": 5416,
      "Ã§": 5417,
      "hex": 5418,
      "Ġlon": 5419,
      "Results": 5420,
      "Ġsupported": 5421,
      "arent": 5422,
      "ights": 5423,
      "clean": 5424,
      "pet": 5425,
      "Ġstat": 5426,
      "uck": 5427,
      "ROM": 5428,
      "Ġplaceholder": 5429,
      "Month": 5430,
      "GE": 5431,
      "Ġaffect": 5432,
      "Ġattributes": 5433,
      "Ġ500": 5434,
      "Ġrelative": 5435,
      "forms": 5436,
      "prec": 5437,
      "DOM": 5438,
      "lier": 5439,
      "Ġextension": 5440,
      "aracters": 5441,
      "master": 5442,
      "`)": 5443,
      "Ġblood": 5444,
      "Ġchanged": 5445,
      "Ġduration": 5446,
      "Ġmeasure": 5447,
      "âĶĢâĶĢ": 5448,
      "={'": 5449,
      "Notification": 5450,
      "Ġinstall": 5451,
      ",!": 5452,
      "ags": 5453,
      "rive": 5454,
      "Sort": 5455,
      "åį": 5456,
      "Ġothers": 5457,
      "Opt": 5458,
      "Ġtw": 5459,
      "Ġfeed": 5460,
      "bucket": 5461,
      "gether": 5462,
      "istics": 5463,
      "Use": 5464,
      "hover": 5465,
      "Spy": 5466,
      "toHaveBeenCalled": 5467,
      "YY": 5468,
      "Ġworking": 5469,
      "ipeline": 5470,
      "19058": 5471,
      "TER": 5472,
      "Ġsy": 5473,
      "Ġadditional": 5474,
      "Ġì": 5475,
      "Ġplugin": 5476,
      "Day": 5477,
      "Operation": 5478,
      "fl": 5479,
      "met": 5480,
      "classList": 5481,
      "'''": 5482,
      "ĠOut": 5483,
      "short": 5484,
      "commands": 5485,
      "usion": 5486,
      "lies": 5487,
      "Ċĉĉĉĉĉĉĉĉĉĉ": 5488,
      "semb": 5489,
      "ypography": 5490,
      "contains": 5491,
      "DULE": 5492,
      "ĠMed": 5493,
      "ĠSome": 5494,
      "Ġ\"_": 5495,
      "DR": 5496,
      "Lim": 5497,
      "__.": 5498,
      "Ġ28": 5499,
      "Ġ::": 5500,
      "Ġnumbers": 5501,
      "ĠPre": 5502,
      "ĠMat": 5503,
      ")||": 5504,
      "Ġ{\\": 5505,
      "Implement": 5506,
      "Ġchar": 5507,
      "Ġutil": 5508,
      "Ġpromise": 5509,
      "vector": 5510,
      "duction": 5511,
      "Ġcomponents": 5512,
      "Language": 5513,
      "distance": 5514,
      "PER": 5515,
      "Ġfl": 5516,
      "licit": 5517,
      "controller": 5518,
      "Ġ64": 5519,
      "ĠResponse": 5520,
      "uses": 5521,
      "URI": 5522,
      "Queue": 5523,
      "inding": 5524,
      "foot": 5525,
      "navig": 5526,
      "vb": 5527,
      "ula": 5528,
      "HOUT": 5529,
      "ãħ": 5530,
      "eries": 5531,
      "('<": 5532,
      "Drag": 5533,
      "ĠAction": 5534,
      "Ġseries": 5535,
      "licenses": 5536,
      "download": 5537,
      "fr": 5538,
      "Ġenable": 5539,
      "Mapping": 5540,
      "=[],": 5541,
      "detail": 5542,
      "stats": 5543,
      "******": 5544,
      "Fragment": 5545,
      "()),": 5546,
      ")*": 5547,
      "DIT": 5548,
      "Ġlab": 5549,
      "Ġcod": 5550,
      "gl": 5551,
      "Ġprogress": 5552,
      "refresh": 5553,
      "Ġcontract": 5554,
      "Tensor": 5555,
      "Ġhidden": 5556,
      "icult": 5557,
      "Ġ29": 5558,
      "('\\": 5559,
      "Ġprofile": 5560,
      "interval": 5561,
      "Ġstates": 5562,
      "Player": 5563,
      "math": 5564,
      "Axis": 5565,
      "incip": 5566,
      "ĠRed": 5567,
      "ission": 5568,
      "Ġev": 5569,
      "illing": 5570,
      "uplicate": 5571,
      "rece": 5572,
      "ĠNational": 5573,
      "UB": 5574,
      "Ġlittle": 5575,
      "Ġextract": 5576,
      "uk": 5577,
      ")+": 5578,
      "Ġtuple": 5579,
      "Ġcomplete": 5580,
      "panel": 5581,
      "Ġcomb": 5582,
      "Identifier": 5583,
      "PC": 5584,
      "Ġareas": 5585,
      "TestCase": 5586,
      "HR": 5587,
      "Null": 5588,
      "Snapshot": 5589,
      "Ġfixture": 5590,
      "buf": 5591,
      "SET": 5592,
      "ĠProject": 5593,
      "Play": 5594,
      "vec": 5595,
      "rong": 5596,
      "ĠTypeError": 5597,
      "metric": 5598,
      "Second": 5599,
      "Ġprote": 5600,
      "ĠInter": 5601,
      "though": 5602,
      "Ġalong": 5603,
      "usr": 5604,
      "bounds": 5605,
      "Ġdeep": 5606,
      "ament": 5607,
      "provider": 5608,
      "oman": 5609,
      "oration": 5610,
      "Ġthread": 5611,
      "Ġsit": 5612,
      "Renderer": 5613,
      "Ġcollect": 5614,
      "Ġfuture": 5615,
      "loop": 5616,
      "Ġchoice": 5617,
      "Ver": 5618,
      "Ġbene": 5619,
      "cpp": 5620,
      "dtype": 5621,
      "Ġlogin": 5622,
      "volution": 5623,
      "seed": 5624,
      "lette": 5625,
      "ALL": 5626,
      "MODULE": 5627,
      "cour": 5628,
      "ĠGod": 5629,
      "pytest": 5630,
      "structor": 5631,
      "\\.": 5632,
      "imals": 5633,
      "Ġrunning": 5634,
      "aries": 5635,
      "urope": 5636,
      ".*": 5637,
      "Folder": 5638,
      "ixin": 5639,
      "åĩ": 5640,
      "Ġcluster": 5641,
      "PT": 5642,
      "Ġfo": 5643,
      "ablish": 5644,
      "lider": 5645,
      "Ġ00": 5646,
      "kg": 5647,
      "loyment": 5648,
      "ĠuseEffect": 5649,
      "channels": 5650,
      "urnal": 5651,
      "Rest": 5652,
      "Ġpolicy": 5653,
      "Ġworks": 5654,
      "Ġteam": 5655,
      "æį": 5656,
      "Ġask": 5657,
      "contrib": 5658,
      "****************************************************************": 5659,
      "counter": 5660,
      "ORD": 5661,
      "PUT": 5662,
      "ye": 5663,
      "GF": 5664,
      "warning": 5665,
      "unity": 5666,
      "amil": 5667,
      "':'": 5668,
      "Ins": 5669,
      "touch": 5670,
      "ĠButton": 5671,
      "Ġcult": 5672,
      "edge": 5673,
      "Ġmedia": 5674,
      "Ġcontact": 5675,
      "404": 5676,
      "Ġtreatment": 5677,
      "Ġblack": 5678,
      "Ġwar": 5679,
      "thread": 5680,
      "Ġ198": 5681,
      "sn": 5682,
      "exist": 5683,
      "Ġhard": 5684,
      "obile": 5685,
      "Ġissue": 5686,
      "ĠĊ": 5687,
      "Ġdeterm": 5688,
      "cheme": 5689,
      "ĠbeforeEach": 5690,
      "torch": 5691,
      "Ġxml": 5692,
      "Components": 5693,
      "107": 5694,
      "ĠSk": 5695,
      "formed": 5696,
      "argv": 5697,
      "Ġsocket": 5698,
      "servation": 5699,
      "Ġlevels": 5700,
      "Ġlayout": 5701,
      "Direction": 5702,
      "aling": 5703,
      "OUT": 5704,
      "units": 5705,
      "1111": 5706,
      "Cal": 5707,
      "WA": 5708,
      "Ġlat": 5709,
      "irth": 5710,
      "Ġgive": 5711,
      "Ġmatrix": 5712,
      "ridge": 5713,
      "Ġscroll": 5714,
      "enum": 5715,
      "ĠAf": 5716,
      "ĠField": 5717,
      "preventDefault": 5718,
      "Side": 5719,
      "'re": 5720,
      "Font": 5721,
      "SH": 5722,
      "Ġ'')": 5723,
      "Ġexception": 5724,
      "Ġreceived": 5725,
      "zip": 5726,
      "Report": 5727,
      "Ġyet": 5728,
      "Focus": 5729,
      "IV": 5730,
      "vie": 5731,
      "ĠMy": 5732,
      "Ġchain": 5733,
      "Ġamong": 5734,
      "atom": 5735,
      "Ġtoday": 5736,
      "ĠOne": 5737,
      "xc": 5738,
      "cursor": 5739,
      "tw": 5740,
      "Ġrows": 5741,
      "otstrap": 5742,
      "Ġcr": 5743,
      "hi": 5744,
      "Ġ\"\";": 5745,
      "Ġ'%": 5746,
      "ĠElement": 5747,
      "ĠGraph": 5748,
      "Emitter": 5749,
      "Picker": 5750,
      "Ġmoment": 5751,
      "ME": 5752,
      "qa": 5753,
      "Ġwhite": 5754,
      "Ġproblems": 5755,
      "vant": 5756,
      "LENBQU": 5757,
      "ĊĠĠĠĠĠĠĠĠĠĠĠĠĠĠĠĠĠĠ": 5758,
      "Ġroom": 5759,
      "ĠWITHOUT": 5760,
      "ĠCar": 5761,
      "pid": 5762,
      "Application": 5763,
      "Ġterms": 5764,
      "Ġinte": 5765,
      "ensity": 5766,
      "čĊĠĠĠĠĠĠĠĠ": 5767,
      "ĠMin": 5768,
      "Ġ'__": 5769,
      "ĠsetTimeout": 5770,
      "lg": 5771,
      "ĠWith": 5772,
      "Ġloop": 5773,
      "Ġinternal": 5774,
      "Kind": 5775,
      "cessed": 5776,
      "contact": 5777,
      "PORTED": 5778,
      "cape": 5779,
      "ony": 5780,
      "Ġtimestamp": 5781,
      "Lib": 5782,
      "elements": 5783,
      "LICENSE": 5784,
      "ĠQuery": 5785,
      "Ġmember": 5786,
      "riend": 5787,
      "ĠWork": 5788,
      "dm": 5789,
      "have": 5790,
      "sin": 5791,
      "Ġ27": 5792,
      "uda": 5793,
      "TA": 5794,
      "Ġboard": 5795,
      "&&\"": 5796,
      "Enter": 5797,
      "alpha": 5798,
      "Ġactivity": 5799,
      "decor": 5800,
      "uffix": 5801,
      "blank": 5802,
      "Ġir": 5803,
      "extra": 5804,
      "IME": 5805,
      "convert": 5806,
      "Ġround": 5807,
      ".</": 5808,
      "Attr": 5809,
      "Ġcanvas": 5810,
      "=>{": 5811,
      "voc": 5812,
      "Before": 5813,
      "Ġpolit": 5814,
      "éĩ": 5815,
      "tokens": 5816,
      ")\",": 5817,
      "ĠNe": 5818,
      "Ġpotential": 5819,
      "Move": 5820,
      "lying": 5821,
      "HER": 5822,
      "zM": 5823,
      "ĠKIND": 5824,
      "voke": 5825,
      "DA": 5826,
      "Ġpast": 5827,
      "vey": 5828,
      "repo": 5829,
      "arrow": 5830,
      "skip": 5831,
      "Ġpick": 5832,
      "Ġsurface": 5833,
      "There": 5834,
      "paths": 5835,
      "/'": 5836,
      "configuration": 5837,
      "Ġanswer": 5838,
      "okie": 5839,
      "Ġdisable": 5840,
      "++;": 5841,
      "sync": 5842,
      "Ġowner": 5843,
      "dk": 5844,
      "ior": 5845,
      "Ġenough": 5846,
      "ä»¶": 5847,
      "Rate": 5848,
      "Ġproducts": 5849,
      "Ġstructure": 5850,
      "Ġprom": 5851,
      "cipe": 5852,
      "Dest": 5853,
      "Complete": 5854,
      "Ġterm": 5855,
      "vc": 5856,
      "Light": 5857,
      "Ġbot": 5858,
      "Ġtool": 5859,
      "Arr": 5860,
      "Ġremain": 5861,
      "voice": 5862,
      "utable": 5863,
      "bon": 5864,
      "sec": 5865,
      "chan": 5866,
      "Ġmajor": 5867,
      "chat": 5868,
      "Ġsorted": 5869,
      "udies": 5870,
      "Ġvs": 5871,
      "ĠPe": 5872,
      "directory": 5873,
      "Ġprovider": 5874,
      "WEBPACK": 5875,
      "Ġforward": 5876,
      "INE": 5877,
      "AAAAAAAA": 5878,
      "SB": 5879,
      "('../": 5880,
      "diction": 5881,
      "Attributes": 5882,
      "arth": 5883,
      "Space": 5884,
      "Ġexpression": 5885,
      "What": 5886,
      "cha": 5887,
      "stroke": 5888,
      "1000": 5889,
      "REE": 5890,
      "Cancel": 5891,
      "chunk": 5892,
      "Ġsignific": 5893,
      "Ġ..": 5894,
      "transaction": 5895,
      "Ġgeneral": 5896,
      "came": 5897,
      "found": 5898,
      "ences": 5899,
      "Ġagreed": 5900,
      "Br": 5901,
      "-\\": 5902,
      "FR": 5903,
      "ising": 5904,
      "otes": 5905,
      "Children": 5906,
      "hold": 5907,
      "Ġchunk": 5908,
      "feed": 5909,
      "Build": 5910,
      "Ġpack": 5911,
      "aily": 5912,
      "_(": 5913,
      "Ã³": 5914,
      "Ð»": 5915,
      "achine": 5916,
      "USER": 5917,
      "zm": 5918,
      "[])": 5919,
      "003": 5920,
      "Extension": 5921,
      "Press": 5922,
      "aker": 5923,
      "Ġsimilar": 5924,
      "si": 5925,
      "ä¿": 5926,
      "Ġbytes": 5927,
      "ilit": 5928,
      "Ġcompliance": 5929,
      "merge": 5930,
      "Ġapplicable": 5931,
      "ology": 5932,
      "indices": 5933,
      "ĠĠĠĠĠĠĠĠĠĠĠĠĠ": 5934,
      "++){": 5935,
      "IA": 5936,
      "den": 5937,
      "removeClass": 5938,
      "numpy": 5939,
      "setAttribute": 5940,
      "Ġrules": 5941,
      "Ġpunctuation": 5942,
      "uest": 5943,
      "ĠStyle": 5944,
      "git": 5945,
      "Ġsimp": 5946,
      "]):": 5947,
      "look": 5948,
      "Ġimplied": 5949,
      "gray": 5950,
      "ping": 5951,
      "MENT": 5952,
      "Ġpatch": 5953,
      "ĠColor": 5954,
      "effect": 5955,
      "samples": 5956,
      "%;": 5957,
      "Ġdefine": 5958,
      "filters": 5959,
      "drag": 5960,
      "gments": 5961,
      "Ġnone": 5962,
      "Ġmaking": 5963,
      "eners": 5964,
      "gorithm": 5965,
      "exception": 5966,
      "Ġplatform": 5967,
      "hook": 5968,
      "derr": 5969,
      "Rows": 5970,
      "Rl": 5971,
      "Remove": 5972,
      "Ġscore": 5973,
      "ĠQu": 5974,
      "Ġqueue": 5975,
      "BB": 5976,
      "æī": 5977,
      "Animation": 5978,
      "064": 5979,
      "TEST": 5980,
      "ICE": 5981,
      "organ": 5982,
      "cade": 5983,
      "Ġnet": 5984,
      "DATE": 5985,
      "Ġfla": 5986,
      "ĠRead": 5987,
      "Desc": 5988,
      "__)": 5989,
      "Ġhouse": 5990,
      "spy": 5991,
      "webkit": 5992,
      "sect": 5993,
      "Ġ\"__": 5994,
      "Ġparsed": 5995,
      "eam": 5996,
      "Ġfeel": 5997,
      "CTION": 5998,
      "FL": 5999,
      "Ġbas": 6000,
      "Ġhold": 6001,
      "FE": 6002,
      "mic": 6003,
      "Ġflag": 6004,
      "extension": 6005,
      "reject": 6006,
      "Fail": 6007,
      "ĠPost": 6008,
      "bd": 6009,
      "confirm": 6010,
      "eting": 6011,
      "FBQyx": 6012,
      "Ġorigin": 6013,
      "Ġder": 6014,
      "NOT": 6015,
      "ench": 6016,
      "cos": 6017,
      "ming": 6018,
      "attle": 6019,
      "Ġattemp": 6020,
      "Ġmerge": 6021,
      "112": 6022,
      "ĠST": 6023,
      "linear": 6024,
      "Ġfrequ": 6025,
      "STR": 6026,
      "Ġedge": 6027,
      "Failed": 6028,
      "When": 6029,
      "ĠTable": 6030,
      "Ġyo": 6031,
      "Integer": 6032,
      "Ġarticle": 6033,
      "Ġpopulation": 6034,
      "Ġaverage": 6035,
      "ï¿½ï¿½": 6036,
      "dr": 6037,
      "phone": 6038,
      ">):": 6039,
      "Scope": 6040,
      "hs": 6041,
      "çĽ": 6042,
      "DES": 6043,
      "wer": 6044,
      "defin": 6045,
      "weights": 6046,
      "Ġ2011": 6047,
      "Ġacross": 6048,
      "LLLL": 6049,
      "Dispatch": 6050,
      "Ġpytest": 6051,
      "ently": 6052,
      "Eng": 6053,
      "loads": 6054,
      "Ġdifference": 6055,
      "xe": 6056,
      "DQUFD": 6057,
      "ashboard": 6058,
      "Import": 6059,
      "cert": 6060,
      "lon": 6061,
      "serve": 6062,
      "Ġcommunity": 6063,
      "Ġlibr": 6064,
      "Ġdeath": 6065,
      "Ġvolume": 6066,
      "Save": 6067,
      "uss": 6068,
      "las": 6069,
      "Ġrequ": 6070,
      "Agent": 6071,
      "Ġbig": 6072,
      "nt": 6073,
      "ims": 6074,
      "Video": 6075,
      "Ġtogether": 6076,
      "Media": 6077,
      "flat": 6078,
      "entries": 6079,
      "NS": 6080,
      "rown": 6081,
      ").__": 6082,
      "ĠBuffer": 6083,
      "Ġexecute": 6084,
      "Ġlikely": 6085,
      "\"\\": 6086,
      "XXXXXXXX": 6087,
      "Ġheart": 6088,
      "Vert": 6089,
      "à¸": 6090,
      "ĠCode": 6091,
      "DIR": 6092,
      "mong": 6093,
      "DC": 6094,
      "IR": 6095,
      "rxjs": 6096,
      "django": 6097,
      "Ġ{})": 6098,
      "ACE": 6099,
      "Ġseem": 6100,
      "}`;": 6101,
      "ised": 6102,
      "=${": 6103,
      "SIZE": 6104,
      "flags": 6105,
      "ĠCustom": 6106,
      "Touch": 6107,
      "ners": 6108,
      "ĠLink": 6109,
      "ĠTra": 6110,
      "Shape": 6111,
      "__,": 6112,
      "aves": 6113,
      "UTH": 6114,
      "å½": 6115,
      "Alert": 6116,
      "Gl": 6117,
      "Zm": 6118,
      "Ġservices": 6119,
      "Ġcentury": 6120,
      "UU": 6121,
      "policy": 6122,
      "Ġchart": 6123,
      "Ġjoin": 6124,
      "lined": 6125,
      "Ġreduce": 6126,
      "Canvas": 6127,
      "guild": 6128,
      "helper": 6129,
      "black": 6130,
      "vention": 6131,
      "LOG": 6132,
      "green": 6133,
      "resize": 6134,
      "ĠGroup": 6135,
      "Matrix": 6136,
      "ĠEurope": 6137,
      "depth": 6138,
      "Place": 6139,
      "Ã¼": 6140,
      "ĠDi": 6141,
      "IMPORTED": 6142,
      "ateway": 6143,
      "slug": 6144,
      "Ġcomplex": 6145,
      "ICAgICAgICAgICAg": 6146,
      ")\"": 6147,
      "Ġdev": 6148,
      "tasks": 6149,
      "Ġzip": 6150,
      "factory": 6151,
      "Ġmd": 6152,
      "resses": 6153,
      "ii": 6154,
      "cfg": 6155,
      "balance": 6156,
      "DEFAULT": 6157,
      "Rem": 6158,
      "SP": 6159,
      "ĠChrist": 6160,
      "compile": 6161,
      "501": 6162,
      "ka": 6163,
      "Ġ400": 6164,
      "Ġseconds": 6165,
      "AV": 6166,
      "Ġhigher": 6167,
      "stdout": 6168,
      "ĠOpen": 6169,
      "Ġdem": 6170,
      "esModule": 6171,
      "Payload": 6172,
      "ought": 6173,
      "Ġplant": 6174,
      "199": 6175,
      "Elements": 6176,
      "Ġaccording": 6177,
      "yy": 6178,
      "hb": 6179,
      "nbsp": 6180,
      "att": 6181,
      "Ġcover": 6182,
      "ClassName": 6183,
      "imated": 6184,
      "043": 6185,
      "sumer": 6186,
      "âĸĪ": 6187,
      "rr": 6188,
      "sb": 6189,
      "vidence": 6190,
      "ĠWorld": 6191,
      "Ġcoding": 6192,
      "-------": 6193,
      "ĠProps": 6194,
      "Ġvisible": 6195,
      "ĠSouth": 6196,
      "ifiers": 6197,
      "slide": 6198,
      "Ġment": 6199,
      "elf": 6200,
      "amage": 6201,
      "Ġ300": 6202,
      "chor": 6203,
      "ĠRE": 6204,
      "Ġwhole": 6205,
      "express": 6206,
      "Fetch": 6207,
      "environ": 6208,
      "Ġ($": 6209,
      "Ġhalf": 6210,
      "Errors": 6211,
      "outputs": 6212,
      "Ġcapt": 6213,
      "attach": 6214,
      "zoom": 6215,
      "Comment": 6216,
      "xf": 6217,
      "Ġautom": 6218,
      "localhost": 6219,
      "Ġmaint": 6220,
      "Ġexact": 6221,
      "ä¸Ń": 6222,
      "Ġgoing": 6223,
      "Ġ':": 6224,
      "ĠRegister": 6225,
      "Draw": 6226,
      "Ġsql": 6227,
      "Ġkernel": 6228,
      "/{": 6229,
      "Fin": 6230,
      "mi": 6231,
      "Ġ??": 6232,
      "Ġparticip": 6233,
      "Package": 6234,
      "Contain": 6235,
      "Upload": 6236,
      "Did": 6237,
      "å¸": 6238,
      "Ġcontrib": 6239,
      "ĠRecord": 6240,
      "Ġlimitations": 6241,
      "CONF": 6242,
      "lour": 6243,
      "Ġlive": 6244,
      "redit": 6245,
      "redux": 6246,
      "Ġgoverning": 6247,
      "Func": 6248,
      "single": 6249,
      "metrics": 6250,
      "CP": 6251,
      "Ġgenerated": 6252,
      "verify": 6253,
      "#!": 6254,
      "iling": 6255,
      "Ġ26": 6256,
      "ĠfontSize": 6257,
      "ĠAfric": 6258,
      "iation": 6259,
      "čĊĠĠ": 6260,
      "Ġaway": 6261,
      "Ġmed": 6262,
      "Ġmemory": 6263,
      "lastic": 6264,
      "Ġhaving": 6265,
      "ĠClient": 6266,
      "free": 6267,
      "aps": 6268,
      "Ġuses": 6269,
      "Ġpie": 6270,
      "eric": 6271,
      "amin": 6272,
      "osed": 6273,
      "Ġri": 6274,
      "']:": 6275,
      "team": 6276,
      "Ġ\"--": 6277,
      "Ġvalidation": 6278,
      "Ġvisit": 6279,
      "poly": 6280,
      "Ġestablish": 6281,
      "KEN": 6282,
      "é¡": 6283,
      "Ġwatch": 6284,
      "Ġattack": 6285,
      "dashboard": 6286,
      "ç½": 6287,
      "emon": 6288,
      "ĠMon": 6289,
      "Ñĥ": 6290,
      "Ġgl": 6291,
      "Ġatom": 6292,
      "Colors": 6293,
      "rules": 6294,
      "ä¸į": 6295,
      "Ġpay": 6296,
      "Book": 6297,
      "Ġground": 6298,
      "tl": 6299,
      "ĠId": 6300,
      "Radius": 6301,
      "NC": 6302,
      "Ġcrit": 6303,
      "ĠSystem": 6304,
      "ĠBAS": 6305,
      "Sheet": 6306,
      "Ġcontroller": 6307,
      "Spe": 6308,
      "eve": 6309,
      "Ġill": 6310,
      "æĹ¶": 6311,
      "Ġ}}>": 6312,
      "covery": 6313,
      "******/": 6314,
      "ĠCO": 6315,
      "driver": 6316,
      "Ġfit": 6317,
      "Ġredirect": 6318,
      "Ġitself": 6319,
      "Ġvec": 6320,
      "={`": 6321,
      "safe": 6322,
      "Ġmillion": 6323,
      "Ġhowever": 6324,
      "}'": 6325,
      "Ġdescrib": 6326,
      "Ġts": 6327,
      "Ġgas": 6328,
      "splice": 6329,
      "čĊčĊĠ": 6330,
      "0000000000000000": 6331,
      "Ġetc": 6332,
      "Sx": 6333,
      "Ġstory": 6334,
      "transition": 6335,
      "Ġusually": 6336,
      "Cluster": 6337,
      "Domain": 6338,
      "ä¸º": 6339,
      "checkbox": 6340,
      "Ġ}:": 6341,
      "proxy": 6342,
      "ulp": 6343,
      "FILE": 6344,
      "ĠBrit": 6345,
      "Ġoutputs": 6346,
      "å¯": 6347,
      "Ġtoggle": 6348,
      "()[": 6349,
      "('-": 6350,
      "ĠPublic": 6351,
      "ND": 6352,
      "curs": 6353,
      "abet": 6354,
      "ĠIcon": 6355,
      "Del": 6356,
      "Ġvector": 6357,
      "ĠItem": 6358,
      "Register": 6359,
      "ĠResource": 6360,
      "bf": 6361,
      "ĠIntern": 6362,
      "contract": 6363,
      "ĠCommand": 6364,
      "Ġensure": 6365,
      "Ġ_,": 6366,
      "Ġtechn": 6367,
      "rm": 6368,
      "DITIONS": 6369,
      ")&&(": 6370,
      "flag": 6371,
      "ĠCor": 6372,
      "ä¸ª": 6373,
      "rec": 6374,
      "selves": 6375,
      "&&!": 6376,
      "=['": 6377,
      "Typography": 6378,
      "Qt": 6379,
      "SELECT": 6380,
      "icial": 6381,
      "ality": 6382,
      "Ġsix": 6383,
      "edges": 6384,
      "Ġseen": 6385,
      "Ġoffer": 6386,
      "runtime": 6387,
      "Ġdig": 6388,
      "Ġdom": 6389,
      "Tags": 6390,
      "Ġtransition": 6391,
      "Pattern": 6392,
      "Ġbad": 6393,
      "Validation": 6394,
      "æĸĩ": 6395,
      "ĠRef": 6396,
      "ĠInit": 6397,
      "Ġmount": 6398,
      "Ġactually": 6399,
      "Pool": 6400,
      "ĠWhat": 6401,
      ")})": 6402,
      "correct": 6403,
      "||\"": 6404,
      "Ġpool": 6405,
      "series": 6406,
      "Ġtaken": 6407,
      "Ġinvol": 6408,
      "160": 6409,
      "ceptions": 6410,
      "Ġinside": 6411,
      "asset": 6412,
      "FORM": 6413,
      "Ġfolder": 6414,
      "Ġwhy": 6415,
      "Subject": 6416,
      "ĠPage": 6417,
      "Ġvarious": 6418,
      "placeholder": 6419,
      "install": 6420,
      "allenge": 6421,
      "fp": 6422,
      "Registry": 6423,
      "publish": 6424,
      "Ġ{@": 6425,
      "Ġcounter": 6426,
      "ICB": 6427,
      "Ġoperations": 6428,
      "Ġdepth": 6429,
      "Ġnecessary": 6430,
      "LC": 6431,
      "Ðº": 6432,
      "Ġenabled": 6433,
      "pair": 6434,
      "Tx": 6435,
      "extract": 6436,
      "Common": 6437,
      "Ġep": 6438,
      "Ra": 6439,
      "{{": 6440,
      "ĠSc": 6441,
      "gistration": 6442,
      "reshape": 6443,
      "enario": 6444,
      "Ġsystems": 6445,
      "inline": 6446,
      "JE": 6447,
      "ĠSup": 6448,
      "staticClass": 6449,
      "blob": 6450,
      "uel": 6451,
      "schedule": 6452,
      "Ġavoid": 6453,
      "Ġsetting": 6454,
      "Weight": 6455,
      "ĠBASIS": 6456,
      "unique": 6457,
      "chie": 6458,
      "trace": 6459,
      "Series": 6460,
      "volume": 6461,
      ">',": 6462,
      "bad": 6463,
      "coming": 6464,
      "VENT": 6465,
      "Ġsolid": 6466,
      "relative": 6467,
      "Ġdialog": 6468,
      "Asset": 6469,
      "ĠPoint": 6470,
      "Balance": 6471,
      "aria": 6472,
      "Ġintro": 6473,
      "lr": 6474,
      "Ġrather": 6475,
      "ĠCONDITIONS": 6476,
      "Ġremoved": 6477,
      "Ġsn": 6478,
      "omb": 6479,
      "ĠbackgroundColor": 6480,
      "Ġdelta": 6481,
      "Ġocc": 6482,
      ")(\"": 6483,
      "dig": 6484,
      "Ġsleep": 6485,
      "Ġinvest": 6486,
      "assertTrue": 6487,
      "validation": 6488,
      "Py": 6489,
      "Ġfoo": 6490,
      "Ġfurther": 6491,
      "claration": 6492,
      "future": 6493,
      "yes": 6494,
      "Ġcame": 6495,
      "Idx": 6496,
      "ĊĠĠĠĠĠĠĠĠĠĠĠĠĠĠĠĠĠĠĠĠĠĠ": 6497,
      "gon": 6498,
      "syn": 6499,
      "áº": 6500,
      "renderer": 6501,
      "HJ": 6502,
      "icate": 6503,
      "Ġsupp": 6504,
      "Ġnote": 6505,
      "binary": 6506,
      "strictEqual": 6507,
      "ĠSelect": 6508,
      "Ġincluded": 6509,
      "Ġsummary": 6510,
      "Ap": 6511,
      "Many": 6512,
      "dian": 6513,
      "Reader": 6514,
      "factor": 6515,
      "Ġagent": 6516,
      "Ġmaximum": 6517,
      "secret": 6518,
      "igrations": 6519,
      "132": 6520,
      "Ġfish": 6521,
      "mac": 6522,
      "Ġencoding": 6523,
      ":]": 6524,
      "iB": 6525,
      "pdf": 6526,
      "sur": 6527,
      "opacity": 6528,
      "fficient": 6529,
      "ĠSoftware": 6530,
      "zero": 6531,
      "Ġmakes": 6532,
      "ĊĊĉĉĉ": 6533,
      "Ġutf": 6534,
      "Ġbasic": 6535,
      "Ġhours": 6536,
      "åĨ": 6537,
      "Ġabsolute": 6538,
      "Ġdelay": 6539,
      "Ġproper": 6540,
      "sqrt": 6541,
      "Ġrecogn": 6542,
      "Ġgot": 6543,
      "Ġotherwise": 6544,
      "Ġeducation": 6545,
      "Mer": 6546,
      "Ġdat": 6547,
      "compute": 6548,
      "Ġho": 6549,
      "nections": 6550,
      "Ġskip": 6551,
      "Ġbranch": 6552,
      "(?:": 6553,
      "ĠLO": 6554,
      "Program": 6555,
      "onom": 6556,
      "Ġrespons": 6557,
      "Ġcurrently": 6558,
      "Ġimpact": 6559,
      "origin": 6560,
      "Ġcancer": 6561,
      "Urls": 6562,
      "Ġeffects": 6563,
      "Ġbuilt": 6564,
      "cost": 6565,
      "Confirm": 6566,
      "ĠChange": 6567,
      "orders": 6568,
      "Ġremote": 6569,
      ":\",": 6570,
      "ĠMIT": 6571,
      "trl": 6572,
      "Variable": 6573,
      "Center": 6574,
      "ordinate": 6575,
      "fix": 6576,
      "Ġast": 6577,
      "Cond": 6578,
      "ajax": 6579,
      "Debug": 6580,
      "SC": 6581,
      ".'": 6582,
      "ua": 6583,
      "LF": 6584,
      "issue": 6585,
      "ember": 6586,
      "limate": 6587,
      "Ġindust": 6588,
      "625": 6589,
      "periment": 6590,
      "Ġtechnology": 6591,
      "Ġwide": 6592,
      "Ġsubmit": 6593,
      "Ġverify": 6594,
      "<{": 6595,
      "ĠHTTP": 6596,
      "Public": 6597,
      "prob": 6598,
      "mbed": 6599,
      "ĠtemplateUrl": 6600,
      "states": 6601,
      "ea": 6602,
      "expand": 6603,
      "Strategy": 6604,
      "Directory": 6605,
      "tBQU": 6606,
      "âķ": 6607,
      "Ġbalance": 6608,
      "Ġvia": 6609,
      "lan": 6610,
      "Ġexit": 6611,
      "scss": 6612,
      "Ġprovides": 6613,
      "Ġtyping": 6614,
      "ĊĉĊ": 6615,
      "Ġdictionary": 6616,
      "Ġmatches": 6617,
      ";\",": 6618,
      "Ġpush": 6619,
      "amma": 6620,
      "week": 6621,
      "road": 6622,
      "čĊčĊč": 6623,
      "gree": 6624,
      "024": 6625,
      "åıĸ": 6626,
      "ico": 6627,
      "ried": 6628,
      "HTTP": 6629,
      "Limit": 6630,
      "Ġforms": 6631,
      "sleep": 6632,
      "za": 6633,
      "esis": 6634,
      "shadow": 6635,
      "(<": 6636,
      "under": 6637,
      "Ġda": 6638,
      "()))": 6639,
      "person": 6640,
      "once": 6641,
      "ĊĉĠĠĠ": 6642,
      "Ġdifficult": 6643,
      "Locale": 6644,
      "Ġreally": 6645,
      "Ġcommands": 6646,
      "CSS": 6647,
      "Ġbecame": 6648,
      "Ġsound": 6649,
      "Generator": 6650,
      "arden": 6651,
      "relation": 6652,
      "Ġgreen": 6653,
      "Ġmissing": 6654,
      "Ġmet": 6655,
      "Ġrelationship": 6656,
      "/***/": 6657,
      "ĠUnless": 6658,
      "lapsed": 6659,
      "ĠWar": 6660,
      "Setting": 6661,
      "Ġdownload": 6662,
      "previous": 6663,
      "Background": 6664,
      "Switch": 6665,
      "Ġcut": 6666,
      "Ġalpha": 6667,
      "changed": 6668,
      "Ġentire": 6669,
      "su": 6670,
      "ĠĊĠĠĠĠĠĠĠĠĠĠĠ": 6671,
      "ley": 6672,
      "Disabled": 6673,
      "/******/": 6674,
      "Ġthought": 6675,
      "éĹ": 6676,
      "threshold": 6677,
      "æį®": 6678,
      "Static": 6679,
      ">}": 6680,
      "ĠSw": 6681,
      "mos": 6682,
      "Ġreserved": 6683,
      "Ġinner": 6684,
      "picker": 6685,
      "lapse": 6686,
      "Ġque": 6687,
      "training": 6688,
      "unce": 6689,
      "ORS": 6690,
      "cheduler": 6691,
      "Html": 6692,
      "transp": 6693,
      "Ġ])": 6694,
      "ĠNorth": 6695,
      "={\"": 6696,
      "Tooltip": 6697,
      "Ġ----------": 6698,
      "Ġsymp": 6699,
      "vation": 6700,
      "detect": 6701,
      "irtual": 6702,
      "enn": 6703,
      "Ġvm": 6704,
      "ĠAND": 6705,
      "Ġliter": 6706,
      "Ġsignificant": 6707,
      "ĠLay": 6708,
      "operator": 6709,
      "Ġer": 6710,
      "ĠFROM": 6711,
      "æĿ": 6712,
      "Ġrefer": 6713,
      "Ġmulti": 6714,
      "ensive": 6715,
      "ering": 6716,
      "hood": 6717,
      "environment": 6718,
      "ĠSO": 6719,
      "eek": 6720,
      "2018": 6721,
      "Ġpublished": 6722,
      "nail": 6723,
      "ĠDr": 6724,
      "Ġsteps": 6725,
      "inc": 6726,
      "åĲį": 6727,
      "#!/": 6728,
      "FD": 6729,
      "ä¼": 6730,
      "ĠSearch": 6731,
      "(...": 6732,
      "ested": 6733,
      "notation": 6734,
      "Dec": 6735,
      "Ġ\"%": 6736,
      "ĠSpec": 6737,
      "Ġ-=": 6738,
      "Socket": 6739,
      "ran": 6740,
      "Ġupon": 6741,
      "ociety": 6742,
      "artment": 6743,
      "best": 6744,
      "toms": 6745,
      "Ġ80": 6746,
      "DateTime": 6747,
      "Quest": 6748,
      ")\\": 6749,
      "PRE": 6750,
      "roy": 6751,
      "Net": 6752,
      "Ġatt": 6753,
      "igration": 6754,
      "Ġcamp": 6755,
      "Ġ$('.": 6756,
      "Ġcountries": 6757,
      "nestjs": 6758,
      "bra": 6759,
      "Ġtax": 6760,
      "while": 6761,
      "operation": 6762,
      "IGN": 6763,
      "è¯·": 6764,
      "ĠOrder": 6765,
      "Ġtesting": 6766,
      "footer": 6767,
      "ĠProfile": 6768,
      "latform": 6769,
      "\"!=": 6770,
      "actual": 6771,
      "grams": 6772,
      "å®ļ": 6773,
      "dark": 6774,
      "lec": 6775,
      "ĠĠĠĠĠĠĠĠĠĠĠĠĠĠ": 6776,
      "ventory": 6777,
      "animation": 6778,
      "ards": 6779,
      "([\"": 6780,
      "Ġuuid": 6781,
      "iterator": 6782,
      "ĠJohn": 6783,
      "TEXT": 6784,
      "camera": 6785,
      "eth": 6786,
      "ĠIP": 6787,
      "available": 6788,
      "Ġbuilding": 6789,
      "Reducer": 6790,
      "ĠDocument": 6791,
      "ĠToken": 6792,
      "Ġrequires": 6793,
      "ov": 6794,
      "methods": 6795,
      "curacy": 6796,
      "jsx": 6797,
      "Ġscience": 6798,
      "based": 6799,
      "Ġendpoint": 6800,
      "Ġmass": 6801,
      "ĠYork": 6802,
      "parentNode": 6803,
      "Ġbehavior": 6804,
      "')}": 6805,
      "\")}": 6806,
      "neg": 6807,
      "ĠUnion": 6808,
      "abc": 6809,
      "Ġstarted": 6810,
      "Member": 6811,
      "Ġtile": 6812,
      "Ġfac": 6813,
      "clip": 6814,
      "hooks": 6815,
      "Ġfront": 6816,
      "ĠPri": 6817,
      "Wallet": 6818,
      "99999999": 6819,
      "typescript": 6820,
      "ros": 6821,
      "Ġwidget": 6822,
      "ĠBlock": 6823,
      "Rece": 6824,
      "Ġinterval": 6825,
      "Ġconn": 6826,
      "Ġdefinition": 6827,
      "scriptions": 6828,
      "mitive": 6829,
      "release": 6830,
      "locale": 6831,
      "Help": 6832,
      "multip": 6833,
      "writ": 6834,
      "updated": 6835,
      "ãĦ": 6836,
      "Inst": 6837,
      "Ġzero": 6838,
      "aur": 6839,
      "ĠSE": 6840,
      "Ġnotice": 6841,
      "Ġcharacters": 6842,
      "ĠPython": 6843,
      "Ġspan": 6844,
      "reme": 6845,
      "phere": 6846,
      "PA": 6847,
      "ĠMock": 6848,
      "mag": 6849,
      "Ġepoch": 6850,
      "Ġloaded": 6851,
      "Ġsources": 6852,
      "æľī": 6853,
      "etween": 6854,
      "mob": 6855,
      ":%": 6856,
      "ĠClass": 6857,
      "Expect": 6858,
      "AND": 6859,
      "II": 6860,
      "ullable": 6861,
      "Ġshare": 6862,
      "ĠQt": 6863,
      "Ne": 6864,
      "Ġden": 6865,
      "ĠNote": 6866,
      "Home": 6867,
      "Headers": 6868,
      "ä¹": 6869,
      "Ġwarn": 6870,
      "logging": 6871,
      "']);": 6872,
      "Ġthough": 6873,
      "fake": 6874,
      "Ġsun": 6875,
      "ĊĠĠĠĠĠĠĠĠĠĠĠĠĠĠĠĠĠĠĠĠĠĠĠĠĠĠ": 6876,
      "Ġissues": 6877,
      "pm": 6878,
      "Ġretri": 6879,
      "icrosoft": 6880,
      "ĠGame": 6881,
      "ĠBig": 6882,
      "Ġ36": 6883,
      "period": 6884,
      "umbnail": 6885,
      "Ġcorresp": 6886,
      "Ġcfg": 6887,
      "Ġmedic": 6888,
      "Messages": 6889,
      "Ġimm": 6890,
      "speed": 6891,
      "ĠThat": 6892,
      "ement": 6893,
      "scene": 6894,
      "Ġopp": 6895,
      "ĠEX": 6896,
      "Ġcat": 6897,
      "Ġhide": 6898,
      "Ġgreater": 6899,
      "Batch": 6900,
      "oday": 6901,
      "Ġgoogle": 6902,
      "fixed": 6903,
      "endpoint": 6904,
      "Ġapproach": 6905,
      "Ġinflu": 6906,
      "audio": 6907,
      "multi": 6908,
      "è§": 6909,
      "Ã£": 6910,
      "Ġpad": 6911,
      "ĠPRO": 6912,
      "alls": 6913,
      "subject": 6914,
      "'],['": 6915,
      "CHAN": 6916,
      "cel": 6917,
      "obs": 6918,
      "Ġlinks": 6919,
      "more": 6920,
      "Ġwon": 6921,
      "begin": 6922,
      "beta": 6923,
      "BE": 6924,
      "Struct": 6925,
      "pecially": 6926,
      "related": 6927,
      "Stats": 6928,
      "Handle": 6929,
      "pin": 6930,
      "æİ": 6931,
      "orse": 6932,
      "Ġrecomm": 6933,
      "lict": 6934,
      "finished": 6935,
      "ĠJS": 6936,
      "branch": 6937,
      "sing": 6938,
      "ĠFe": 6939,
      "Ġappear": 6940,
      "mV": 6941,
      "wb": 6942,
      "Ġbg": 6943,
      "Ġtokens": 6944,
      "()},": 6945,
      "('[": 6946,
      "Ġrefresh": 6947,
      "ĠSim": 6948,
      "æŀ": 6949,
      "Ġquestions": 6950,
      "Ġbtn": 6951,
      "Ġess": 6952,
      "avor": 6953,
      "predict": 6954,
      "front": 6955,
      "userId": 6956,
      "}(": 6957,
      "ĠTask": 6958,
      "posed": 6959,
      "ots": 6960,
      "Fore": 6961,
      "2017": 6962,
      "notify": 6963,
      "cesses": 6964,
      "Ġspeed": 6965,
      "cern": 6966,
      "antic": 6967,
      "[]):": 6968,
      "ndarray": 6969,
      "cuda": 6970,
      "upper": 6971,
      "Ġstudent": 6972,
      "simple": 6973,
      "ĠMet": 6974,
      "ancy": 6975,
      "abit": 6976,
      "ffort": 6977,
      "ĠCommon": 6978,
      "Ġproduction": 6979,
      "ĠAfter": 6980,
      "abilities": 6981,
      "ĠDict": 6982,
      "Ġcancel": 6983,
      "delay": 6984,
      "ĠColumn": 6985,
      "éĻ": 6986,
      "isode": 6987,
      "Ġprofe": 6988,
      "Ġtopic": 6989,
      "erve": 6990,
      "esh": 6991,
      "')[": 6992,
      "127": 6993,
      "slider": 6994,
      "VV": 6995,
      "raints": 6996,
      "Arrow": 6997,
      "AE": 6998,
      "getAttribute": 6999,
      "ocused": 7000,
      "Ġlead": 7001,
      "SO": 7002,
      "kt": 7003,
      "ĠAg": 7004,
      "Ġchem": 7005,
      "accept": 7006,
      "å·": 7007,
      "toMatch": 7008,
      "Ġpredict": 7009,
      "2019": 7010,
      "ĠArt": 7011,
      "ores": 7012,
      "Ġstudies": 7013,
      "Ġknowledge": 7014,
      "Ġcop": 7015,
      "quot": 7016,
      "\"{": 7017,
      "Stat": 7018,
      "Ġcalculate": 7019,
      "rep": 7020,
      "Ġ37": 7021,
      "Ġmarket": 7022,
      "ĠngOn": 7023,
      "yb": 7024,
      "_,": 7025,
      "alias": 7026,
      "ully": 7027,
      "Ġur": 7028,
      "Ġfactor": 7029,
      "Ġhappen": 7030,
      "ino": 7031,
      "Ġpaper": 7032,
      "when": 7033,
      "Ġsafe": 7034,
      "Argument": 7035,
      "How": 7036,
      "Ġquick": 7037,
      "Some": 7038,
      "tooltip": 7039,
      "Ġpermission": 7040,
      "Ret": 7041,
      "Ġcirc": 7042,
      "backend": 7043,
      "MIN": 7044,
      "geometry": 7045,
      "ĠMar": 7046,
      "ONE": 7047,
      "Example": 7048,
      "Single": 7049,
      "circle": 7050,
      "Ġtemperature": 7051,
      "Ġfix": 7052,
      "ribe": 7053,
      "Ġminutes": 7054,
      "ĠMaybe": 7055,
      "Ġconsidered": 7056,
      "Btn": 7057,
      "Ġdark": 7058,
      "iven": 7059,
      "Ġ2012": 7060,
      "days": 7061,
      "descriptor": 7062,
      "Prototype": 7063,
      "Ġmetric": 7064,
      "ĠServer": 7065,
      "hib": 7066,
      "Ġconfirm": 7067,
      "Ġcompute": 7068,
      "MODE": 7069,
      "herit": 7070,
      "ĠEnglish": 7071,
      "Ġways": 7072,
      "Ġ90": 7073,
      "å¾": 7074,
      "grade": 7075,
      "More": 7076,
      "ban": 7077,
      "redirect": 7078,
      "Ġtell": 7079,
      "Ġnor": 7080,
      "arp": 7081,
      "parameter": 7082,
      "bus": 7083,
      "Ġut": 7084,
      "Ġfund": 7085,
      "Ġbrain": 7086,
      "ĠInc": 7087,
      "STAT": 7088,
      "åĢ": 7089,
      "2000": 7090,
      "reply": 7091,
      "Ġpositive": 7092,
      "bas": 7093,
      "uous": 7094,
      "ĊĠĠĠĠĠĠĠĠĠĠĠĠĠĠĠĠĠĠĠĠĠĠĠĠĠĠĠĠĠĠĠĠ": 7095,
      "Ġreader": 7096,
      "Ġbucket": 7097,
      "MAX": 7098,
      "Ġcalc": 7099,
      "LETE": 7100,
      "alyt": 7101,
      "------------": 7102,
      "Ġwritten": 7103,
      "Ġfinally": 7104,
      "Ġfive": 7105,
      "identifier": 7106,
      "High": 7107,
      "Ġ():": 7108,
      "Ġrepo": 7109,
      "Ġunits": 7110,
      "Send": 7111,
      "hello": 7112,
      "mk": 7113,
      "stage": 7114,
      "Ġmodal": 7115,
      "program": 7116,
      "Ġmag": 7117,
      "ĠSign": 7118,
      "ĊĠĠĊĠ": 7119,
      "actor": 7120,
      "è¾": 7121,
      "Ġant": 7122,
      "variables": 7123,
      "constant": 7124,
      "percent": 7125,
      "()()": 7126,
      "anging": 7127,
      "Validator": 7128,
      "reet": 7129,
      "allery": 7130,
      "Ġimports": 7131,
      "Ġwin": 7132,
      "that": 7133,
      "protocol": 7134,
      "Ġskin": 7135,
      "æĢ": 7136,
      "\"];": 7137,
      "Fixed": 7138,
      "Normal": 7139,
      "Ġ')": 7140,
      "absolute": 7141,
      "cpu": 7142,
      "Engine": 7143,
      "external": 7144,
      "Ġtrad": 7145,
      "minal": 7146,
      "CS": 7147,
      "Ġtick": 7148,
      "MT": 7149,
      "segment": 7150,
      "Ġstage": 7151,
      "Ġpressure": 7152,
      "Ġvi": 7153,
      "Ġrespect": 7154,
      "Ġcontents": 7155,
      "qt": 7156,
      "Ġexc": 7157,
      "pointer": 7158,
      "Ġmis": 7159,
      "Ġshown": 7160,
      "Ġ]);": 7161,
      "Ġdeli": 7162,
      "ĠEarth": 7163,
      "generator": 7164,
      "eslint": 7165,
      "ç§": 7166,
      "Ã¶": 7167,
      "Ġmot": 7168,
      "Ġmind": 7169,
      "ivil": 7170,
      "Ã¤": 7171,
      "Ġdestroy": 7172,
      "Ġcompany": 7173,
      "lodash": 7174,
      "-%": 7175,
      "Uri": 7176,
      "latest": 7177,
      "FFFF": 7178,
      "aign": 7179,
      "andas": 7180,
      "heel": 7181,
      "Dataset": 7182,
      "loyee": 7183,
      ")],": 7184,
      "dl": 7185,
      "mesh": 7186,
      "Ġbio": 7187,
      "}).": 7188,
      "[_": 7189,
      "Ġlib": 7190,
      "Ġelem": 7191,
      "Sm": 7192,
      "Ġaddition": 7193,
      "ĠHealth": 7194,
      "Ġdirectly": 7195,
      "čĊĠĠĠĠĠĠĠĠĠĠĠĠĠĠĠĠĠĠĠĠĠĠĠĠĠĠĠ": 7196,
      "Ġevidence": 7197,
      "Span": 7198,
      "Hand": 7199,
      "[]>": 7200,
      "\"&#": 7201,
      "Img": 7202,
      "Ġ}],": 7203,
      "Regex": 7204,
      ",.": 7205,
      "PH": 7206,
      "aint": 7207,
      "substring": 7208,
      "IPT": 7209,
      "using": 7210,
      "ĠWest": 7211,
      "ĠContent": 7212,
      "Ġnational": 7213,
      "hest": 7214,
      "iet": 7215,
      "ropri": 7216,
      "ulated": 7217,
      "istent": 7218,
      "izers": 7219,
      "Head": 7220,
      "Binary": 7221,
      "oring": 7222,
      "Ġsl": 7223,
      "Ġmid": 7224,
      "regex": 7225,
      "Ġ31": 7226,
      "umerable": 7227,
      "Raw": 7228,
      "Ġanalysis": 7229,
      "Ġnoqa": 7230,
      "ĠSci": 7231,
      "/:": 7232,
      "UD": 7233,
      "ĠInt": 7234,
      "FileSync": 7235,
      "Ġoperator": 7236,
      "vd": 7237,
      "Duration": 7238,
      "Ġang": 7239,
      "Ġnegative": 7240,
      "pulumi": 7241,
      "},\"": 7242,
      "Ġprec": 7243,
      "links": 7244,
      "plt": 7245,
      "country": 7246,
      "Ġ<<": 7247,
      "/*!": 7248,
      "til": 7249,
      "strong": 7250,
      "lux": 7251,
      "sBy": 7252,
      "ĠHome": 7253,
      "Ġlayers": 7254,
      "memory": 7255,
      "compare": 7256,
      "ĠRegExp": 7257,
      "Dom": 7258,
      "fort": 7259,
      "rial": 7260,
      "__':": 7261,
      "alculate": 7262,
      "GG": 7263,
      "SL": 7264,
      "Lock": 7265,
      "Ġphot": 7266,
      "logs": 7267,
      "Ġfilters": 7268,
      ":-": 7269,
      "Ġlonger": 7270,
      "uthy": 7271,
      "Ġ35": 7272,
      "2015": 7273,
      "Toggle": 7274,
      "notification": 7275,
      "ĠMark": 7276,
      "Ġeng": 7277,
      "contin": 7278,
      "Contact": 7279,
      "TIME": 7280,
      "}));": 7281,
      "401": 7282,
      "kw": 7283,
      "Ġrect": 7284,
      "OB": 7285,
      "ĠApi": 7286,
      "Sequence": 7287,
      "Points": 7288,
      "Ġdeveloped": 7289,
      "Ġlibrary": 7290,
      "basic": 7291,
      "\\\">": 7292,
      "promise": 7293,
      "Env": 7294,
      "Ġquality": 7295,
      "Ġ'{": 7296,
      "Ġseed": 7297,
      "Ġopacity": 7298,
      "*(": 7299,
      "forward": 7300,
      "rides": 7301,
      "]|": 7302,
      "ica": 7303,
      "Ġespecially": 7304,
      "Ġphysical": 7305,
      "Ġstats": 7306,
      "UND": 7307,
      "GU": 7308,
      "ĊĠĠĠĠĠĠĠĠĠĠĠĠĠĠĠĠĠĠĠĠĠĠĠĠĠĠĠĠĠĠ": 7309,
      "Styled": 7310,
      "Material": 7311,
      "Ok": 7312,
      "CharField": 7313,
      ",(": 7314,
      "Ġ<>": 7315,
      "ĠProduct": 7316,
      "distrib": 7317,
      "=[\"": 7318,
      "Ġol": 7319,
      "coords": 7320,
      "Decor": 7321,
      "Ġ\\\"": 7322,
      "ĠDelete": 7323,
      "TC": 7324,
      "Flow": 7325,
      "Ġtakes": 7326,
      "Ġspa": 7327,
      "ĠImport": 7328,
      "Zone": 7329,
      "power": 7330,
      "Ġ01": 7331,
      ".\\": 7332,
      "AX": 7333,
      "},{": 7334,
      "Support": 7335,
      "Ġpolitical": 7336,
      "world": 7337,
      "routes": 7338,
      "Qg": 7339,
      "trast": 7340,
      "ulator": 7341,
      "Ġdrag": 7342,
      "remote": 7343,
      "pkg": 7344,
      "demo": 7345,
      "Ġpaths": 7346,
      "Ġpatients": 7347,
      "Fire": 7348,
      "Ġbi": 7349,
      "andidate": 7350,
      "/',": 7351,
      "Ġplants": 7352,
      "IZ": 7353,
      "within": 7354,
      "Ġthemselves": 7355,
      "Ġyoung": 7356,
      "NUM": 7357,
      "inject": 7358,
      "Ġexperiment": 7359,
      "CRIPT": 7360,
      "Ġdetermine": 7361,
      "æĶ": 7362,
      "ipment": 7363,
      "JECT": 7364,
      "Ġcross": 7365,
      "endor": 7366,
      "TOKEN": 7367,
      "æķ°æį®": 7368,
      "ama": 7369,
      "Constructor": 7370,
      "ĠRo": 7371,
      "mony": 7372,
      "mediate": 7373,
      "elem": 7374,
      "Ġfake": 7375,
      "Ġmor": 7376,
      "Ġregular": 7377,
      "[\\": 7378,
      "Ġbul": 7379,
      "icip": 7380,
      "Mount": 7381,
      "agnost": 7382,
      "rics": 7383,
      "ibBuilder": 7384,
      "optional": 7385,
      "rf": 7386,
      "course": 7387,
      ".');": 7388,
      "čĊčĊ": 7389,
      "Ġstrong": 7390,
      "pay": 7391,
      "sheet": 7392,
      "osp": 7393,
      "LS": 7394,
      "MB": 7395,
      "]/": 7396,
      "Ġflat": 7397,
      "ĠFOR": 7398,
      "ĠHis": 7399,
      "Ġaxios": 7400,
      "velopment": 7401,
      "Ġidentifier": 7402,
      "king": 7403,
      "agin": 7404,
      "Ġlistener": 7405,
      "'],['../": 7406,
      "dp": 7407,
      "ĠUint": 7408,
      "Objects": 7409,
      "topic": 7410,
      "agraph": 7411,
      "Loaded": 7412,
      "tour": 7413,
      "dims": 7414,
      "Ġreview": 7415,
      "Ġrgb": 7416,
      "company": 7417,
      "Ġreading": 7418,
      "Ġnothing": 7419,
      "Ġok": 7420,
      "logo": 7421,
      "Temp": 7422,
      "wi": 7423,
      "Ġ'\"": 7424,
      "itation": 7425,
      "\"},{": 7426,
      "setting": 7427,
      "Ġparents": 7428,
      "tuple": 7429,
      "ints": 7430,
      "ĠBoolean": 7431,
      "rase": 7432,
      "ival": 7433,
      "enticated": 7434,
      "atives": 7435,
      "Ġfast": 7436,
      "Ġsense": 7437,
      "Ġhistor": 7438,
      "Ġupload": 7439,
      "expression": 7440,
      "blocks": 7441,
      "Ġshows": 7442,
      "Ġproduce": 7443,
      "ifies": 7444,
      "Ġcurr": 7445,
      "bold": 7446,
      "urable": 7447,
      "Ġsaved": 7448,
      "condition": 7449,
      "ĠAmerica": 7450,
      "Ġbre": 7451,
      "tries": 7452,
      "Ġsouth": 7453,
      "cons": 7454,
      "Ġ53": 7455,
      "Texts": 7456,
      "ĠAccount": 7457,
      "ĠJul": 7458,
      "Ġupper": 7459,
      "ĠuserId": 7460,
      "ĠAust": 7461,
      "Paths": 7462,
      "styled": 7463,
      "Ġimprove": 7464,
      "connected": 7465,
      "BC": 7466,
      "Optional": 7467,
      "Random": 7468,
      "hl": 7469,
      "spacing": 7470,
      "Thread": 7471,
      "library": 7472,
      "Destroy": 7473,
      "cing": 7474,
      "Ġtrace": 7475,
      "Ġnative": 7476,
      "={};": 7477,
      "Chain": 7478,
      "////////////////////////////////": 7479,
      "Ġther": 7480,
      "reng": 7481,
      "afe": 7482,
      "Ġnamed": 7483,
      "Tests": 7484,
      "Ġbinary": 7485,
      "Ġeffort": 7486,
      "ĠOver": 7487,
      "Ġtasks": 7488,
      "timer": 7489,
      "Ġneighb": 7490,
      "Ġgrowth": 7491,
      "PAR": 7492,
      "Ġasset": 7493,
      "Ġoutside": 7494,
      "payment": 7495,
      "Ġrank": 7496,
      "vertical": 7497,
      "æĪĲ": 7498,
      "Ġ'$": 7499,
      "Ġincludes": 7500,
      "Qk": 7501,
      "ĠmibBuilder": 7502,
      "Subscription": 7503,
      "RC": 7504,
      "fade": 7505,
      "Ġ!!": 7506,
      "ĠRoute": 7507,
      "(--": 7508,
      "<=": 7509,
      "Ġpoly": 7510,
      "Ġprincip": 7511,
      "bt": 7512,
      "Ġms": 7513,
      "Ġweights": 7514,
      "orary": 7515,
      "coin": 7516,
      "Ġallows": 7517,
      "impl": 7518,
      "ables": 7519,
      "Ġability": 7520,
      "EE": 7521,
      "COMP": 7522,
      "Ġpain": 7523,
      "tection": 7524,
      "113": 7525,
      "Transition": 7526,
      "erved": 7527,
      "Ġexternal": 7528,
      "ause": 7529,
      "fx": 7530,
      "inct": 7531,
      "ĠJew": 7532,
      "Ã£o": 7533,
      "erg": 7534,
      "Ġlang": 7535,
      "Gen": 7536,
      "],\"": 7537,
      "imize": 7538,
      "packages": 7539,
      "800": 7540,
      ":$": 7541,
      ":\\": 7542,
      "house": 7543,
      "Ġsecret": 7544,
      "leton": 7545,
      "MD": 7546,
      "Ġund": 7547,
      "Ġsamples": 7548,
      "ĠSymbol": 7549,
      "Ġprotect": 7550,
      "jwt": 7551,
      "learn": 7552,
      "')),": 7553,
      "Ġmonths": 7554,
      "Ãł": 7555,
      "SION": 7556,
      "kes": 7557,
      "inte": 7558,
      "staticmethod": 7559,
      "700": 7560,
      "note": 7561,
      "plotlib": 7562,
      "Ġindices": 7563,
      "ĠTag": 7564,
      "ĠStr": 7565,
      "Ġintern": 7566,
      "Ġinject": 7567,
      "Please": 7568,
      "æŃ": 7569,
      "ceed": 7570,
      "lem": 7571,
      "Ġtouch": 7572,
      "uman": 7573,
      "exclude": 7574,
      "Ġprotocol": 7575,
      "Ġattach": 7576,
      "Proxy": 7577,
      "IX": 7578,
      "weet": 7579,
      "2020": 7580,
      "Ġwrong": 7581,
      "Ġmouse": 7582,
      "ILITY": 7583,
      ")}}": 7584,
      "234": 7585,
      "kernel": 7586,
      "={(": 7587,
      "Tick": 7588,
      "sha": 7589,
      "pipeline": 7590,
      ")};": 7591,
      "bootstrap": 7592,
      "Ġ45": 7593,
      "Tile": 7594,
      "Ġfixed": 7595,
      "asm": 7596,
      "Ġmoney": 7597,
      "Ġlot": 7598,
      "Ġaria": 7599,
      "Ġcamera": 7600,
      "Edge": 7601,
      "]{": 7602,
      "ìĿ": 7603,
      "ari": 7604,
      "ĠCard": 7605,
      "Ø§": 7606,
      "Ġtook": 7607,
      "crement": 7608,
      "Groups": 7609,
      "frames": 7610,
      "CONFIG": 7611,
      "Ġsegment": 7612,
      "Ġvscode": 7613,
      "å±": 7614,
      "named": 7615,
      "ederal": 7616,
      "ourse": 7617,
      "1234": 7618,
      "Ġ'[": 7619,
      "lyph": 7620,
      "ĠRet": 7621,
      "åľ¨": 7622,
      "getTime": 7623,
      "allel": 7624,
      "fits": 7625,
      "Ġreverse": 7626,
      "Truthy": 7627,
      "capt": 7628,
      "]])": 7629,
      "Ġaff": 7630,
      "Payment": 7631,
      ")));": 7632,
      "APP": 7633,
      "Observable": 7634,
      "Mixin": 7635,
      "zen": 7636,
      "è¦": 7637,
      "mes": 7638,
      "Geometry": 7639,
      "family": 7640,
      "Ġmicro": 7641,
      "QUEST": 7642,
      "Ġmaterials": 7643,
      "Ġinteger": 7644,
      "ĠEntity": 7645,
      "LENBQUMs": 7646,
      "Ġconcept": 7647,
      "Ġ51": 7648,
      "pending": 7649,
      "gers": 7650,
      "iate": 7651,
      "onChange": 7652,
      "ĠDEFAULT": 7653,
      "izations": 7654,
      "byte": 7655,
      "Mask": 7656,
      "udent": 7657,
      ";&": 7658,
      "Hub": 7659,
      "large": 7660,
      "Ġangle": 7661,
      "Ġsec": 7662,
      "expr": 7663,
      "wallet": 7664,
      "Ġchecked": 7665,
      "Ġresearchers": 7666,
      "Pr": 7667,
      "Pass": 7668,
      "Ġbind": 7669,
      "ĠFirst": 7670,
      "109": 7671,
      "rupt": 7672,
      "fold": 7673,
      "reverse": 7674,
      "Ġflags": 7675,
      "QT": 7676,
      "Note": 7677,
      "Ġfamil": 7678,
      "}\")": 7679,
      "Dim": 7680,
      "Ġconstruct": 7681,
      "Chat": 7682,
      "pret": 7683,
      "Ġsig": 7684,
      "astype": 7685,
      "250": 7686,
      "Ġadvance": 7687,
      "displayName": 7688,
      "Ġactivities": 7689,
      "Non": 7690,
      "Accept": 7691,
      "åĪĨ": 7692,
      "Assign": 7693,
      "Ġsinon": 7694,
      "Warning": 7695,
      "ĠDec": 7696,
      "parts": 7697,
      "^\\": 7698,
      "Ġthing": 7699,
      "Ġschedule": 7700,
      "chools": 7701,
      "Ġfactory": 7702,
      "hot": 7703,
      "ycle": 7704,
      "rie": 7705,
      "Any": 7706,
      "Ġtranslate": 7707,
      "Dropdown": 7708,
      "ĠStore": 7709,
      "structure": 7710,
      "Ġcommunic": 7711,
      "Ġliving": 7712,
      "usters": 7713,
      "Ġperformance": 7714,
      "Classes": 7715,
      "Timer": 7716,
      "Embed": 7717,
      "mapping": 7718,
      "ascript": 7719,
      "olume": 7720,
      "Ġsex": 7721,
      "Ġ</>": 7722,
      "substr": 7723,
      "Ġmanager": 7724,
      ":',": 7725,
      "Ġ----------------------------------------------------------------": 7726,
      "###": 7727,
      "Ġshared": 7728,
      "Radio": 7729,
      "Ġsens": 7730,
      "sdk": 7731,
      "Summary": 7732,
      "ĊĠĠĠĠĠĠĠĠĠĠĠĠĠĠĠĠĠĠĠĠĠĠĠĠĠĠĠĠĠĠĠĠĠĠĠĠĠĠĠĠĠĠĠĠĠĠĠ": 7733,
      "matches": 7734,
      "lor": 7735,
      "Ġachie": 7736,
      "ipping": 7737,
      "Resolver": 7738,
      "Cloud": 7739,
      "Go": 7740,
      "dy": 7741,
      "Ġann": 7742,
      "readonly": 7743,
      "Ġgetting": 7744,
      "Cor": 7745,
      "alo": 7746,
      "Ġcreating": 7747,
      "Ġever": 7748,
      "ĠExp": 7749,
      "Ġvisual": 7750,
      ";)": 7751,
      "calls": 7752,
      "ĠMake": 7753,
      "ĠOther": 7754,
      "ĠCl": 7755,
      "Ġ```": 7756,
      "article": 7757,
      "Ġreach": 7758,
      "Ġrecords": 7759,
      "Sn": 7760,
      "Ġ75": 7761,
      "Ġcharge": 7762,
      "105": 7763,
      "âĸĪâĸĪ": 7764,
      "Ġwalk": 7765,
      "asc": 7766,
      "Serializer": 7767,
      "interfaces": 7768,
      "AUTH": 7769,
      "Simple": 7770,
      "Ġ}]": 7771,
      "projects": 7772,
      "Ġmedical": 7773,
      ",[": 7774,
      "idence": 7775,
      "Ġconstant": 7776,
      "toBeTruthy": 7777,
      "Ġinitialize": 7778,
      "Ġidea": 7779,
      "!.": 7780,
      "Copy": 7781,
      "blog": 7782,
      "nes": 7783,
      "Hex": 7784,
      "Pointer": 7785,
      "iny": 7786,
      "Ġfat": 7787,
      "members": 7788,
      "104": 7789,
      "ÐµÐ": 7790,
      "ï¼ļ": 7791,
      "/\"": 7792,
      "][\"": 7793,
      "Ġpixel": 7794,
      "share": 7795,
      "Dark": 7796,
      "coded": 7797,
      "ĠIndex": 7798,
      "Ġapplied": 7799,
      "Ġdistribution": 7800,
      "Ġpict": 7801,
      "Ġalmost": 7802,
      "Ġsignal": 7803,
      "ox": 7804,
      "Ġpanel": 7805,
      "Ġattrs": 7806,
      "WARE": 7807,
      "Ġconcern": 7808,
      "hd": 7809,
      "olar": 7810,
      "Ġheat": 7811,
      "Ġstored": 7812,
      "gx": 7813,
      "mor": 7814,
      "ĠCre": 7815,
      "ĠSm": 7816,
      "maps": 7817,
      "\"}},{\"": 7818,
      "stitute": 7819,
      "ĠVector": 7820,
      "}`)": 7821,
      "zt": 7822,
      "è½": 7823,
      "Ġanimation": 7824,
      "Ġsecurity": 7825,
      "Ġdetect": 7826,
      "Ġnature": 7827,
      "\",\"$": 7828,
      "Ġmodified": 7829,
      "ulations": 7830,
      "Ġstatement": 7831,
      "Circle": 7832,
      "pick": 7833,
      "Ã«": 7834,
      "ooth": 7835,
      "})),": 7836,
      "Feed": 7837,
      "Mutation": 7838,
      "åħ¥": 7839,
      "Ġradius": 7840,
      "eff": 7841,
      "Ġbring": 7842,
      "verter": 7843,
      "variant": 7844,
      "Ġabstract": 7845,
      "Endpoint": 7846,
      "Hello": 7847,
      "urls": 7848,
      "ĠHTMLElement": 7849,
      "Ġclimate": 7850,
      "Ġinc": 7851,
      "({'": 7852,
      "Ġsaf": 7853,
      "è¡¨": 7854,
      ":.": 7855,
      "Iss": 7856,
      "Database": 7857,
      "Ġexpand": 7858,
      "repeat": 7859,
      "crypto": 7860,
      "Flags": 7861,
      "apper": 7862,
      "uffle": 7863,
      "AI": 7864,
      "wp": 7865,
      "ircu": 7866,
      "nan": 7867,
      "raises": 7868,
      "ĠBack": 7869,
      "ĠUS": 7870,
      "Ġcomputer": 7871,
      "Ġphone": 7872,
      "Ġviews": 7873,
      "ko": 7874,
      "stub": 7875,
      "Ġ'</": 7876,
      "Ġeth": 7877,
      "âĢ¦": 7878,
      "workspace": 7879,
      "Ġlatest": 7880,
      "æĭ": 7881,
      ",\\": 7882,
      "chron": 7883,
      "elt": 7884,
      "strument": 7885,
      "INFO": 7886,
      "mx": 7887,
      "scores": 7888,
      "Bytes": 7889,
      "ĠCount": 7890,
      "covered": 7891,
      "Upper": 7892,
      "ITE": 7893,
      "Implemented": 7894,
      "Ġsil": 7895,
      "ida": 7896,
      "irror": 7897,
      "activity": 7898,
      "Ġharmony": 7899,
      "Car": 7900,
      "builder": 7901,
      "raction": 7902,
      "ĠSec": 7903,
      "ongo": 7904,
      "Ġminimum": 7905,
      "DataFrame": 7906,
      "Ġ'+": 7907,
      "Columns": 7908,
      "Ġvers": 7909,
      "ificate": 7910,
      "pub": 7911,
      "Ġui": 7912,
      "parseInt": 7913,
      "refs": 7914,
      "Ġentries": 7915,
      "onding": 7916,
      "atial": 7917,
      "CLASS": 7918,
      "berg": 7919,
      "Diff": 7920,
      "Ġ\")": 7921,
      "Ġaltern": 7922,
      "204": 7923,
      "calc": 7924,
      "rpc": 7925,
      "Ġlock": 7926,
      "Ġstarting": 7927,
      "AF": 7928,
      "Ġonline": 7929,
      "ĠGoogle": 7930,
      "Ġdefaults": 7931,
      "contents": 7932,
      "rapped": 7933,
      "),(": 7934,
      "Statement": 7935,
      "Throw": 7936,
      "Ġbusiness": 7937,
      "ĠTHREE": 7938,
      "ĠÂ": 7939,
      "ening": 7940,
      "Ġnavig": 7941,
      "tail": 7942,
      "controls": 7943,
      "ĠTemplate": 7944,
      "Ġwebs": 7945,
      "FBR": 7946,
      "Ġanimals": 7947,
      "Ġplease": 7948,
      "entities": 7949,
      "Ġstri": 7950,
      "Ġfailure": 7951,
      "ç½®": 7952,
      "samp": 7953,
      "identity": 7954,
      "ĠPres": 7955,
      "Ġcsv": 7956,
      "els": 7957,
      "ĠFound": 7958,
      "classmethod": 7959,
      "LIST": 7960,
      "mn": 7961,
      "Ġmapping": 7962,
      "cker": 7963,
      "Ġpages": 7964,
      "Ġblue": 7965,
      "Like": 7966,
      "Ġmigrations": 7967,
      "fast": 7968,
      "ĠResearch": 7969,
      "radio": 7970,
      "added": 7971,
      "Export": 7972,
      "Write": 7973,
      "uar": 7974,
      "Ġten": 7975,
      "uniform": 7976,
      "Initial": 7977,
      "zh": 7978,
      "locity": 7979,
      "legate": 7980,
      "CCESS": 7981,
      "Ġincreased": 7982,
      "CD": 7983,
      "GA": 7984,
      "spr": 7985,
      "gi": 7986,
      "rol": 7987,
      "Ġrema": 7988,
      "defaults": 7989,
      "Ġ'@/": 7990,
      "asons": 7991,
      "Ġmodern": 7992,
      "Ġsuccessfully": 7993,
      "Ġsimply": 7994,
      "bul": 7995,
      "Ġnorm": 7996,
      "ults": 7997,
      "ä¸Ĭ": 7998,
      "ĊĊĊĠĠĠĠĠĠĠ": 7999,
      "ĠGrid": 8000,
      "Browser": 8001,
      "zL": 8002,
      "about": 8003,
      "Ġuseful": 8004,
      "(**": 8005,
      "Jl": 8006,
      "oint": 8007,
      "ientation": 8008,
      "Footer": 8009,
      "pow": 8010,
      "writer": 8011,
      "roles": 8012,
      "loadTexts": 8013,
      "preview": 8014,
      "=[];": 8015,
      "signed": 8016,
      "olicies": 8017,
      "Linear": 8018,
      "uns": 8019,
      "Ġbegan": 8020,
      "Schedule": 8021,
      "æ³": 8022,
      "ĠCenter": 8023,
      "168": 8024,
      "().__": 8025,
      "2016": 8026,
      "Two": 8027,
      "babel": 8028,
      "Ġdecor": 8029,
      "},{\"": 8030,
      "Word": 8031,
      "Ġpayment": 8032,
      "ĠFilter": 8033,
      "Ġdoing": 8034,
      "Runner": 8035,
      "ĠStatus": 8036,
      "plus": 8037,
      "Ġtransfer": 8038,
      "Cap": 8039,
      "oler": 8040,
      "Ġ128": 8041,
      "Ġencode": 8042,
      "Ġwriter": 8043,
      "Basic": 8044,
      "VM": 8045,
      "xb": 8046,
      "Ġlar": 8047,
      "serial": 8048,
      "Once": 8049,
      "ĠlocalStorage": 8050,
      "Site": 8051,
      "ya": 8052,
      "parsed": 8053,
      "Ġcomes": 8054,
      "Ctrl": 8055,
      "Im": 8056,
      "tk": 8057,
      "ĠTree": 8058,
      "Activ": 8059,
      "Ġprobably": 8060,
      "Mat": 8061,
      "Ġconv": 8062,
      "102": 8063,
      "ĠLogger": 8064,
      "Ġtalk": 8065,
      "conn": 8066,
      "anning": 8067,
      "curr": 8068,
      "startswith": 8069,
      "rb": 8070,
      "ĠContext": 8071,
      "Ġcopyright": 8072,
      "{'": 8073,
      "Ġregex": 8074,
      "Ġappropri": 8075,
      "Scene": 8076,
      "alytics": 8077,
      "Ġseq": 8078,
      "Ġdescriptor": 8079,
      "Sim": 8080,
      "Chunk": 8081,
      "Ġ{}\".": 8082,
      "modified": 8083,
      "Ġthreshold": 8084,
      "ĠBar": 8085,
      "Ġserialized": 8086,
      "Ġconnected": 8087,
      "Ġstand": 8088,
      "Ġattention": 8089,
      "Ġappend": 8090,
      "Ratio": 8091,
      "inv": 8092,
      "rum": 8093,
      "rench": 8094,
      "gModule": 8095,
      "atically": 8096,
      "ãģ®": 8097,
      "CN": 8098,
      "Ġproviders": 8099,
      "Ġstrings": 8100,
      "icode": 8101,
      "Ġ})}": 8102,
      "anchor": 8103,
      "Zoom": 8104,
      "__()": 8105,
      "Ġbeh": 8106,
      "avascript": 8107,
      "Popup": 8108,
      "Bad": 8109,
      "Ġfil": 8110,
      "references": 8111,
      "Cart": 8112,
      "Ġaudio": 8113,
      "utter": 8114,
      "ĠNO": 8115,
      "Room": 8116,
      "Bed": 8117,
      "unn": 8118,
      "('@": 8119,
      "Ġ[...": 8120,
      "verbose": 8121,
      "ĠStart": 8122,
      "Ġdriver": 8123,
      "Ġled": 8124,
      "Ġidentity": 8125,
      "Ġ[])": 8126,
      "ances": 8127,
      "ĠLoad": 8128,
      "star": 8129,
      "({\"": 8130,
      "Ġthird": 8131,
      "Internal": 8132,
      "SQ": 8133,
      "wg": 8134,
      "Ġpipeline": 8135,
      "Ġtools": 8136,
      "Ġhot": 8137,
      "dropdown": 8138,
      "navigate": 8139,
      "Border": 8140,
      "ufact": 8141,
      "ying": 8142,
      "Ġuri": 8143,
      "Multi": 8144,
      "Ġ48": 8145,
      "VALID": 8146,
      "ratio": 8147,
      "ĠCL": 8148,
      "ĠFr": 8149,
      "ili": 8150,
      "Undefined": 8151,
      "Ġtransport": 8152,
      "Ġdt": 8153,
      "Ġ++": 8154,
      "Ġ2010": 8155,
      "charge": 8156,
      "collect": 8157,
      "Percent": 8158,
      "lv": 8159,
      "Ġmaster": 8160,
      "}\",": 8161,
      "Stub": 8162,
      "Ġabs": 8163,
      "VID": 8164,
      "mc": 8165,
      "Ġinline": 8166,
      "worker": 8167,
      "apps": 8168,
      "158": 8169,
      "ercise": 8170,
      "Sto": 8171,
      "cipient": 8172,
      "hour": 8173,
      "wik": 8174,
      "which": 8175,
      "ruction": 8176,
      "rypto": 8177,
      "Hover": 8178,
      "untain": 8179,
      "062": 8180,
      "080": 8181,
      "Ġscene": 8182,
      "UNT": 8183,
      "Ġeffective": 8184,
      "çº": 8185,
      "Ġson": 8186,
      "chemas": 8187,
      ".\");": 8188,
      "scape": 8189,
      "Protocol": 8190,
      "cols": 8191,
      "two": 8192,
      "Ñĭ": 8193,
      "compat": 8194,
      "Ġdestination": 8195,
      "Ġbyte": 8196,
      "crease": 8197,
      "Ġmodify": 8198,
      "(/\\": 8199,
      "rgba": 8200,
      "Reset": 8201,
      "Parse": 8202,
      "Ġstdout": 8203,
      "Flag": 8204,
      "ham": 8205,
      "stant": 8206,
      "ucing": 8207,
      "108": 8208,
      "snapshot": 8209,
      "\")),": 8210,
      "Ġrelig": 8211,
      "Ġimplementation": 8212,
      "Bucket": 8213,
      "BN": 8214,
      "dto": 8215,
      "Ġprojects": 8216,
      "\"!==": 8217,
      "Ġ2000": 8218,
      "Ġwhose": 8219,
      "IVE": 8220,
      "repr": 8221,
      "quee": 8222,
      "UTC": 8223,
      "Ġpractice": 8224,
      "ito": 8225,
      "Ġbin": 8226,
      "ides": 8227,
      "fla": 8228,
      "appro": 8229,
      "Ġdiscu": 8230,
      "currency": 8231,
      "ä¸ĭ": 8232,
      "rotate": 8233,
      "ĠOutput": 8234,
      "ĠOper": 8235,
      "}-": 8236,
      "è´": 8237,
      "ĠBuild": 8238,
      "Ġids": 8239,
      "CODE": 8240,
      "Ġreported": 8241,
      "Navigation": 8242,
      "ĠLanguage": 8243,
      "apy": 8244,
      "Board": 8245,
      "Ġquant": 8246,
      "(',": 8247,
      "Ġprod": 8248,
      "Ready": 8249,
      "Pack": 8250,
      "big": 8251,
      "USE": 8252,
      "ira": 8253,
      "Ġcli": 8254,
      "Ġhelper": 8255,
      "111": 8256,
      "èİ": 8257,
      "Ġclo": 8258,
      "ĠModule": 8259,
      "Ġgrant": 8260,
      "Syn": 8261,
      "Ġjs": 8262,
      "fff": 8263,
      "apped": 8264,
      "Tokens": 8265,
      "Ġroutes": 8266,
      "aby": 8267,
      "IMIT": 8268,
      "vor": 8269,
      "boxes": 8270,
      "ĠGeneral": 8271,
      "Ġregard": 8272,
      "Ġskills": 8273,
      "Ġbank": 8274,
      "ĠLine": 8275,
      "Ġ42": 8276,
      "istance": 8277,
      "fixture": 8278,
      "Ñı": 8279,
      "Contents": 8280,
      "Ġgoal": 8281,
      "ĠPlease": 8282,
      "overn": 8283,
      "overflow": 8284,
      "Ġcalls": 8285,
      "ULL": 8286,
      "city": 8287,
      "Ġwent": 8288,
      "usic": 8289,
      "ropy": 8290,
      "ĊĠĠĠĠĠĠĠĠĠĠĠĠĠĠĠĠĠĠĠĠĠĠĠĠĠĠĠĠĠĠĠĠĠĠĠĠĠ": 8291,
      "Ġmetrics": 8292,
      "Ġcompleted": 8293,
      "(\"<": 8294,
      "Preview": 8295,
      ":(": 8296,
      "uge": 8297,
      "}',": 8298,
      "atis": 8299,
      "Ġ}))": 8300,
      "Ġinfe": 8301,
      "getItem": 8302,
      "dictions": 8303,
      "Grad": 8304,
      "FTWARE": 8305,
      "band": 8306,
      "osis": 8307,
      "answer": 8308,
      "Ġletter": 8309,
      "900": 8310,
      "ĠWindow": 8311,
      "3333": 8312,
      "medium": 8313,
      "))},": 8314,
      "LOAD": 8315,
      "NotFound": 8316,
      "secondary": 8317,
      "Ġmodules": 8318,
      "Middleware": 8319,
      "Person": 8320,
      "noun": 8321,
      "erman": 8322,
      "Ġargparse": 8323,
      "emy": 8324,
      "={},": 8325,
      "Ġspread": 8326,
      "ĠDef": 8327,
      "Ġmarker": 8328,
      "Ġsymptoms": 8329,
      "Slider": 8330,
      "éĥ": 8331,
      "Ġtaking": 8332,
      "ora": 8333,
      "requires": 8334,
      "BY": 8335,
      "åİ": 8336,
      "Ġdecode": 8337,
      "setTimeout": 8338,
      "udget": 8339,
      "\"][": 8340,
      "512": 8341,
      ">();": 8342,
      "Ġcompare": 8343,
      "Ġ\"\")": 8344,
      "Ġmultip": 8345,
      "ĠRob": 8346,
      "čĊčĊĠĠĠĠĠĠĠĠĠĠĠ": 8347,
      "'\\": 8348,
      "avy": 8349,
      "war": 8350,
      "é¢": 8351,
      "enumerable": 8352,
      "ĊĠĠĠĠĠĠĠĠĠĠĠĠĊĠĠĠĠĠĠĠĠĠĠĠ": 8353,
      "Ġidentify": 8354,
      "ĠngOnInit": 8355,
      "UG": 8356,
      "Ġ-------": 8357,
      "geo": 8358,
      "processing": 8359,
      "framework": 8360,
      "ĠCom": 8361,
      "oph": 8362,
      "SVG": 8363,
      "Defined": 8364,
      "xd": 8365,
      "osite": 8366,
      "180": 8367,
      "ĊĊĊĠ": 8368,
      "Ġnut": 8369,
      "ĠRemove": 8370,
      "reader": 8371,
      "################################################################": 8372,
      "Guard": 8373,
      "Services": 8374,
      "Opacity": 8375,
      "Ġ2020": 8376,
      "Ġeconomic": 8377,
      "Ġ{});": 8378,
      "Owner": 8379,
      "pn": 8380,
      "ListItem": 8381,
      "192": 8382,
      "Ġpair": 8383,
      "cookie": 8384,
      "Ġdevices": 8385,
      "Duplicate": 8386,
      "ĠControl": 8387,
      "Injectable": 8388,
      "Ġmusic": 8389,
      "FS": 8390,
      "pers": 8391,
      "ĠPort": 8392,
      "Trigger": 8393,
      "Ġsubprocess": 8394,
      "Ġmanagement": 8395,
      "________": 8396,
      "Ġeasy": 8397,
      "design": 8398,
      "Ġoil": 8399,
      "olid": 8400,
      "AQ": 8401,
      "ĠIM": 8402,
      "Tip": 8403,
      "ky": 8404,
      "Question": 8405,
      "Ġwallet": 8406,
      "riteria": 8407,
      "Cook": 8408,
      "isation": 8409,
      "ĠUnit": 8410,
      "ĠEventEmitter": 8411,
      "HV": 8412,
      "LD": 8413,
      "åĽŀ": 8414,
      "æĮ": 8415,
      "Ġë": 8416,
      "Ġsea": 8417,
      "ste": 8418,
      "coding": 8419,
      "clus": 8420,
      "Ġ'../../../../": 8421,
      "Lines": 8422,
      "Native": 8423,
      "1875": 8424,
      "Ġcombin": 8425,
      "Ġchemical": 8426,
      "BASE": 8427,
      "ĠCent": 8428,
      "Ġ70": 8429,
      "Ġmonitor": 8430,
      "ixtures": 8431,
      "hc": 8432,
      "ingModule": 8433,
      "Ġbackend": 8434,
      "supported": 8435,
      "Images": 8436,
      "COLOR": 8437,
      "Ġtechnique": 8438,
      ")'": 8439,
      "inger": 8440,
      "ĠFrom": 8441,
      "choice": 8442,
      "take": 8443,
      "popup": 8444,
      "Ġcapital": 8445,
      "bum": 8446,
      "lications": 8447,
      "Ġnotification": 8448,
      "150": 8449,
      "operations": 8450,
      "Ġunittest": 8451,
      "Ġgradient": 8452,
      "Lat": 8453,
      "Ġdesigned": 8454,
      "Ġmaintain": 8455,
      "Aw": 8456,
      "Ly": 8457,
      "Ġconduct": 8458,
      "Ġmechan": 8459,
      "umpt": 8460,
      "ĠBritish": 8461,
      "water": 8462,
      "Ġslow": 8463,
      "ĉĉĉ": 8464,
      "getBy": 8465,
      "Ġanything": 8466,
      "Ġrec": 8467,
      "('');": 8468,
      "Ġbirth": 8469,
      "ippet": 8470,
      "ĠUI": 8471,
      "ĠstyleUrls": 8472,
      "ĠKing": 8473,
      "Ġopport": 8474,
      "Su": 8475,
      "Ġfall": 8476,
      "Ġmut": 8477,
      "Ġproxy": 8478,
      "agation": 8479,
      "gradient": 8480,
      "HERE": 8481,
      "åī": 8482,
      "122": 8483,
      "SY": 8484,
      "anit": 8485,
      "ĠAP": 8486,
      "ĠEmp": 8487,
      "RR": 8488,
      "]=\"": 8489,
      "ENV": 8490,
      "Ip": 8491,
      "MAP": 8492,
      "188": 8493,
      "ĠExt": 8494,
      "Ġmiddle": 8495,
      "Ġtransp": 8496,
      "blem": 8497,
      "spect": 8498,
      "Ġworkspace": 8499,
      "ĠNotImplemented": 8500,
      "Checkbox": 8501,
      "gp": 8502,
      "Ġwrap": 8503,
      "Poly": 8504,
      "navigation": 8505,
      "Ġxs": 8506,
      "6875": 8507,
      "aX": 8508,
      "cwd": 8509,
      "yaml": 8510,
      "zs": 8511,
      "relu": 8512,
      "Ġusage": 8513,
      "Done": 8514,
      "mis": 8515,
      "Environment": 8516,
      "ÐµÐ½": 8517,
      "Ġmatter": 8518,
      "character": 8519,
      "Adapter": 8520,
      "ĠLogin": 8521,
      "(?": 8522,
      "marks": 8523,
      "live": 8524,
      "224": 8525,
      "Ġrepresentation": 8526,
      "Ġmeaning": 8527,
      "Ġdependencies": 8528,
      "xa": 8529,
      "eras": 8530,
      "Ġearth": 8531,
      "Ġscientists": 8532,
      "But": 8533,
      "Ġche": 8534,
      "quote": 8535,
      "ĠOnly": 8536,
      "Ter": 8537,
      "elcome": 8538,
      "Indic": 8539,
      "outer": 8540,
      "STATE": 8541,
      "customer": 8542,
      "UFB": 8543,
      "iforn": 8544,
      "Ġdimension": 8545,
      "Ġĉ": 8546,
      "istr": 8547,
      "Ġcoordinates": 8548,
      "Ġprograms": 8549,
      "mitted": 8550,
      "ĠSOFTWARE": 8551,
      "GO": 8552,
      "dings": 8553,
      "Exists": 8554,
      "Ui": 8555,
      "tb": 8556,
      "ĊĉĉĊĉ": 8557,
      "udo": 8558,
      "Times": 8559,
      "Ġedges": 8560,
      "unittest": 8561,
      "Ġreceive": 8562,
      "Ġmatplotlib": 8563,
      "IAL": 8564,
      "reams": 8565,
      "lege": 8566,
      "onomy": 8567,
      "Med": 8568,
      "Ġcloud": 8569,
      "Big": 8570,
      "ä¾": 8571,
      "ota": 8572,
      "Ġcollections": 8573,
      "Raises": 8574,
      "<<": 8575,
      "ÑĮ": 8576,
      "escape": 8577,
      "Ġspir": 8578,
      "Ġsolution": 8579,
      "çĤ": 8580,
      "ĠMore": 8581,
      "Ġthroughout": 8582,
      "Period": 8583,
      "pic": 8584,
      "zd": 8585,
      "Ġleading": 8586,
      "Ġhasattr": 8587,
      "Ġpersonal": 8588,
      "same": 8589,
      "å¹": 8590,
      "Ġserial": 8591,
      "unknown": 8592,
      "iteral": 8593,
      "ircuit": 8594,
      "rd": 8595,
      "ĠĠĠĠĠĠĠĠĠĠĠĠĠĠĠĠĠĠĠ": 8596,
      "readcr": 8597,
      "Ġready": 8598,
      "Avatar": 8599,
      "Ġke": 8600,
      "Ġcompar": 8601,
      "Translation": 8602,
      "metry": 8603,
      "///": 8604,
      "oog": 8605,
      "marker": 8606,
      "è¡Į": 8607,
      "Condition": 8608,
      ")-": 8609,
      "Week": 8610,
      "Ġcomplet": 8611,
      "Ġcaused": 8612,
      "CONT": 8613,
      "eno": 8614,
      "ington": 8615,
      "Ġdeleted": 8616,
      "ĠVer": 8617,
      "Short": 8618,
      "Ġorganization": 8619,
      "çī": 8620,
      "rief": 8621,
      "avatar": 8622,
      "Ġexam": 8623,
      "106": 8624,
      "Ġsometimes": 8625,
      "Ġincreasing": 8626,
      "Stop": 8627,
      "Ġ55": 8628,
      "Timestamp": 8629,
      "iming": 8630,
      "ĠMeta": 8631,
      "normalize": 8632,
      "Ġmovement": 8633,
      "Ġago": 8634,
      "LOCK": 8635,
      "rew": 8636,
      "deploy": 8637,
      "('../../": 8638,
      "ĠDB": 8639,
      "Ġloader": 8640,
      "Ġpopular": 8641,
      "oe": 8642,
      "Ġspy": 8643,
      "esome": 8644,
      "Ġdeal": 8645,
      "ĠSimple": 8646,
      "ĠGlobal": 8647,
      "LED": 8648,
      "ĠContainer": 8649,
      "NODE": 8650,
      "]\",": 8651,
      "Ġones": 8652,
      "ĠMain": 8653,
      "yper": 8654,
      "isRequired": 8655,
      "quid": 8656,
      "cles": 8657,
      "pixel": 8658,
      "ifornia": 8659,
      "Ġlost": 8660,
      "ARY": 8661,
      "ARD": 8662,
      "Pages": 8663,
      "Ġcorrectly": 8664,
      "ĠDepartment": 8665,
      "except": 8666,
      "Ġ34": 8667,
      "agram": 8668,
      "issues": 8669,
      "ruit": 8670,
      "EMA": 8671,
      "ki": 8672,
      "Ġexamples": 8673,
      "functions": 8674,
      "avg": 8675,
      "LEV": 8676,
      "ABILITY": 8677,
      "Formatter": 8678,
      "_\":\"": 8679,
      "mult": 8680,
      "Ġsurvi": 8681,
      "]?": 8682,
      "lp": 8683,
      "ali": 8684,
      "Links": 8685,
      "Ġfigure": 8686,
      "Ġintegr": 8687,
      "TT": 8688,
      ")])": 8689,
      "EC": 8690,
      "HP": 8691,
      "\":[\"": 8692,
      "Ġ>>": 8693,
      "counts": 8694,
      "\",\"$\":{\"": 8695,
      ">`": 8696,
      "ĠJap": 8697,
      "crimin": 8698,
      "Family": 8699,
      "mu": 8700,
      "deg": 8701,
      ">\"": 8702,
      "pan": 8703,
      "sr": 8704,
      "sequ": 8705,
      "ĠTech": 8706,
      "ryption": 8707,
      "hasClass": 8708,
      "Filters": 8709,
      "Execution": 8710,
      "=/": 8711,
      "jb": 8712,
      "ĠAS": 8713,
      "ĠTheme": 8714,
      "ĠĠĠĠĠĠĠĠĠĠĠĠĠĠĠĠĠĠĠĠĠĠĠĠĠĠĠĠĠĠĠĠĠĠĠĠĠĠĠĠĠĠĠĠĠĠĠĠĠĠĠĠĠĠĠĠĠĠĠĠĠĠĠĠ": 8715,
      "ipt": 8716,
      "DIS": 8717,
      "ĠShe": 8718,
      "Ġposs": 8719,
      "Ġcreation": 8720,
      "FIL": 8721,
      "security": 8722,
      "moment": 8723,
      "atsby": 8724,
      "dumps": 8725,
      "Now": 8726,
      "ĠPO": 8727,
      "parator": 8728,
      "\"}},{\"_\":\"": 8729,
      "Flex": 8730,
      "mal": 8731,
      "ç±": 8732,
      "Ġhighlight": 8733,
      "NN": 8734,
      "Sur": 8735,
      "ĠNetwork": 8736,
      "Ġfactors": 8737,
      "Toolbar": 8738,
      "MET": 8739,
      "Ġpi": 8740,
      "INTER": 8741,
      "ris": 8742,
      "experiment": 8743,
      "andbox": 8744,
      "definition": 8745,
      "Clear": 8746,
      "Nl": 8747,
      "Ġgetattr": 8748,
      "ĠUN": 8749,
      "gration": 8750,
      "prot": 8751,
      "Ġ[(": 8752,
      "})},": 8753,
      "READ": 8754,
      "Origin": 8755,
      "åĪ°": 8756,
      "Branch": 8757,
      "Long": 8758,
      "shop": 8759,
      "\":\"\",\"": 8760,
      "Iterator": 8761,
      "measure": 8762,
      "Ġ39": 8763,
      "ney": 8764,
      "Ġsignature": 8765,
      "åı¯": 8766,
      "Ġdetail": 8767,
      "Ġbeginning": 8768,
      "120": 8769,
      "ĠJan": 8770,
      "Ġmedi": 8771,
      "running": 8772,
      "imately": 8773,
      "601": 8774,
      "Ġreact": 8775,
      "BL": 8776,
      "bm": 8777,
      "ĊĊĠĠĠĠĠĠĠĠĠĠĠĠĠĠĠĠĠĠĠĠĠĠĠ": 8778,
      "Information": 8779,
      "Region": 8780,
      "health": 8781,
      "\">{": 8782,
      "Ġenvironmental": 8783,
      "cean": 8784,
      "ĠMod": 8785,
      "Ġnews": 8786,
      "Ġassume": 8787,
      "celer": 8788,
      "ĠDet": 8789,
      "deepEqual": 8790,
      "'{": 8791,
      "SQL": 8792,
      "repository": 8793,
      "Ġwarning": 8794,
      "fully": 8795,
      "Depend": 8796,
      "åĬł": 8797,
      "RIGHT": 8798,
      "trollers": 8799,
      "Controls": 8800,
      "ĠAuthor": 8801,
      "clo": 8802,
      "configure": 8803,
      "Directive": 8804,
      "Pane": 8805,
      "ç¤": 8806,
      "Ġnav": 8807,
      "ucers": 8808,
      "175": 8809,
      "Rot": 8810,
      "ĠCur": 8811,
      "=\"${": 8812,
      "Ġleave": 8813,
      "Ġspecify": 8814,
      "ĠviewBox": 8815,
      "ierarch": 8816,
      "Ġbroad": 8817,
      "Ġlarger": 8818,
      "Cat": 8819,
      "Ġ{!": 8820,
      "ĠDirect": 8821,
      "ĠExample": 8822,
      "rength": 8823,
      "æ±": 8824,
      "Watch": 8825,
      "life": 8826,
      "itect": 8827,
      "Ġsync": 8828,
      "iration": 8829,
      "ategor": 8830,
      "SUCCESS": 8831,
      "cross": 8832,
      "pd": 8833,
      "west": 8834,
      "review": 8835,
      "Ġ'*": 8836,
      "Ġwild": 8837,
      "Transfer": 8838,
      "uZ": 8839,
      "arc": 8840,
      "Ġisn": 8841,
      "\")[": 8842,
      "lectron": 8843,
      "validator": 8844,
      "Ġunderstanding": 8845,
      "Authorization": 8846,
      "Ġtro": 8847,
      "Labels": 8848,
      "ees": 8849,
      "ĊĠĠĠĠĠĠĠĠĠĠĠĠĠĠĠĠĠĠĠĠĠĠĠĠĠĠĠĠĠĠĠĠĠĠ": 8850,
      "Ġreward": 8851,
      "assertRaises": 8852,
      "structions": 8853,
      "Failure": 8854,
      "java": 8855,
      "eli": 8856,
      "ociation": 8857,
      "çĤ¹": 8858,
      "mul": 8859,
      "sts": 8860,
      "anim": 8861,
      "Ġconstants": 8862,
      "Ġexplo": 8863,
      "XY": 8864,
      "Ġdamage": 8865,
      "quant": 8866,
      "REG": 8867,
      "Refresh": 8868,
      "Ġemploy": 8869,
      "Ġviol": 8870,
      "uary": 8871,
      "Ġhex": 8872,
      "Ġhour": 8873,
      "versation": 8874,
      "gc": 8875,
      "osen": 8876,
      "2013": 8877,
      "ĠMethod": 8878,
      "highlight": 8879,
      "Seconds": 8880,
      "fil": 8881,
      "Ġbuilder": 8882,
      "ister": 8883,
      "__\":": 8884,
      "La": 8885,
      "Mesh": 8886,
      "cart": 8887,
      "164": 8888,
      "Ġlooking": 8889,
      "æĸ°": 8890,
      "categories": 8891,
      "Ġtargets": 8892,
      "Ġprior": 8893,
      "ography": 8894,
      "Counter": 8895,
      "ãĢģ": 8896,
      "jQuery": 8897,
      "Ġgets": 8898,
      "ored": 8899,
      "ĠXML": 8900,
      "103": 8901,
      "Resources": 8902,
      "ToProps": 8903,
      "PrototypeOf": 8904,
      "Ġindepend": 8905,
      "cks": 8906,
      "ĠNotImplementedError": 8907,
      "ecause": 8908,
      "fol": 8909,
      "Ġschools": 8910,
      "eql": 8911,
      "Ġbus": 8912,
      "Ġcook": 8913,
      "grees": 8914,
      "čĊĉĉĉĉ": 8915,
      "reason": 8916,
      "Ġtooltip": 8917,
      "ĠSource": 8918,
      "Ġstrategy": 8919,
      "ganization": 8920,
      "MenuItem": 8921,
      "~~~~~~~~": 8922,
      "117": 8923,
      "Ġprocessing": 8924,
      "catalog": 8925,
      "Ġanaly": 8926,
      "Ġstar": 8927,
      "graphql": 8928,
      "Ġcit": 8929,
      "Ġoptimizer": 8930,
      "Private": 8931,
      "aco": 8932,
      "ĠFire": 8933,
      "textContent": 8934,
      "ĠHar": 8935,
      "lookup": 8936,
      "Score": 8937,
      "hicle": 8938,
      "Ġfarm": 8939,
      "Ġphase": 8940,
      "BER": 8941,
      "Rules": 8942,
      "acter": 8943,
      "Ġworkers": 8944,
      "203": 8945,
      "_{": 8946,
      "Pipe": 8947,
      "slot": 8948,
      "0005": 8949,
      "}>{": 8950,
      "Observer": 8951,
      "Permission": 8952,
      "fi": 8953,
      "stderr": 8954,
      "Ġnotes": 8955,
      "([[": 8956,
      "Ġplugins": 8957,
      "Ġ['./": 8958,
      "ilitary": 8959,
      "mid": 8960,
      "anies": 8961,
      "Ġimplemented": 8962,
      "ousel": 8963,
      "Ġnormalize": 8964,
      "encoding": 8965,
      "Ġwebsite": 8966,
      "Ġdead": 8967,
      "prod": 8968,
      "115": 8969,
      "Ġpoll": 8970,
      "Tabs": 8971,
      "story": 8972,
      "ssions": 8973,
      "Ġbooks": 8974,
      "VG": 8975,
      "Segment": 8976,
      "èİ·": 8977,
      "ĠRights": 8978,
      "Ġworker": 8979,
      "Ġappropriate": 8980,
      "ucation": 8981,
      "Ġemit": 8982,
      "Ġpaint": 8983,
      "THER": 8984,
      "Ġlocale": 8985,
      "Ġspect": 8986,
      "Ġns": 8987,
      "Ġsell": 8988,
      "osal": 8989,
      "ĠDO": 8990,
      "Ġmix": 8991,
      "Ġdemon": 8992,
      "Ġenc": 8993,
      "ĠArg": 8994,
      "Ġtown": 8995,
      "ĠNext": 8996,
      "throws": 8997,
      "ffffffff": 8998,
      "interop": 8999,
      "Ġblocks": 9000,
      "por": 9001,
      "Assert": 9002,
      "ĠScience": 9003,
      "Ġexecution": 9004,
      "SW": 9005,
      "bal": 9006,
      "==\"": 9007,
      "Ġ44": 9008,
      "Opts": 9009,
      "Blur": 9010,
      "DTO": 9011,
      "Has": 9012,
      "Ġthus": 9013,
      "Ġphi": 9014,
      "ĠEnd": 9015,
      "Ġãħ": 9016,
      "animate": 9017,
      "Ġpandas": 9018,
      "Ġsus": 9019,
      "ĠAx": 9020,
      "Ġâ": 9021,
      "Ġlin": 9022,
      "ĠHistory": 9023,
      "listen": 9024,
      "})}": 9025,
      "ÑģÑĤ": 9026,
      "Texture": 9027,
      "Ġtrade": 9028,
      "mobile": 9029,
      "jax": 9030,
      "Ġvit": 9031,
      "688": 9032,
      "================================================================": 9033,
      "Camera": 9034,
      "nc": 9035,
      "æµ": 9036,
      "002": 9037,
      "ĠRun": 9038,
      "Tools": 9039,
      "Hook": 9040,
      "onal": 9041,
      "seg": 9042,
      "Ġadjust": 9043,
      "Ġelectron": 9044,
      "Peer": 9045,
      "onClick": 9046,
      "Ġaspect": 9047,
      "Ġpointer": 9048,
      "Train": 9049,
      "906": 9050,
      "Js": 9051,
      "kb": 9052,
      "ĠSan": 9053,
      "rence": 9054,
      "Ġ33": 9055,
      "Ġ`<": 9056,
      "pie": 9057,
      "special": 9058,
      "/%": 9059,
      "Platform": 9060,
      "ĠHeader": 9061,
      "Ġinternational": 9062,
      "èĥ": 9063,
      "Ġpsy": 9064,
      "ici": 9065,
      "Conv": 9066,
      "Exist": 9067,
      "ĠTestBed": 9068,
      "è¦ģ": 9069,
      ")|": 9070,
      "ĠRange": 9071,
      "Constants": 9072,
      "ĠAustral": 9073,
      "igation": 9074,
      "ĠLICENSE": 9075,
      "Should": 9076,
      "Ġcauses": 9077,
      "\\\",": 9078,
      "Ġextreme": 9079,
      "Ð²": 9080,
      "Ġdocumentation": 9081,
      "Created": 9082,
      "çĲ": 9083,
      "orer": 9084,
      "stone": 9085,
      "ĊĠĠĠĠĠĠĠĠĊĠĠĠ": 9086,
      "ĠMenu": 9087,
      "Ġseems": 9088,
      "Audio": 9089,
      "Hide": 9090,
      "PU": 9091,
      "WV": 9092,
      "Ġproduced": 9093,
      ";;": 9094,
      "Ġblank": 9095,
      "Ġdiet": 9096,
      "findOne": 9097,
      "Ġlinear": 9098,
      "equals": 9099,
      "}\".": 9100,
      "Ġvir": 9101,
      "ouch": 9102,
      "Routes": 9103,
      "ðŁı": 9104,
      "destination": 9105,
      "AGS": 9106,
      "Emp": 9107,
      "Qix": 9108,
      "dummy": 9109,
      "ĠIter": 9110,
      "Ġreflect": 9111,
      "Ġartifact": 9112,
      "Calendar": 9113,
      "VICE": 9114,
      "(\"[": 9115,
      "ĠPol": 9116,
      "Ġshall": 9117,
      "Ġhealthy": 9118,
      "ĠLocal": 9119,
      "between": 9120,
      "Ġlove": 9121,
      "Ġclone": 9122,
      "Ġchoose": 9123,
      "ĠRuss": 9124,
      "udy": 9125,
      "Ġtimer": 9126,
      "åĢ¼": 9127,
      "Svg": 9128,
      "}],": 9129,
      "veloper": 9130,
      "rotation": 9131,
      "ipped": 9132,
      "Ġfi": 9133,
      "tached": 9134,
      "precated": 9135,
      ":/": 9136,
      "Ġcurrency": 9137,
      "getElementsBy": 9138,
      "Gradient": 9139,
      "Runtime": 9140,
      "arange": 9141,
      "Security": 9142,
      "Ġoverflow": 9143,
      "firmed": 9144,
      "FIX": 9145,
      "éĿ": 9146,
      "ĠFind": 9147,
      "ĠEast": 9148,
      "Ġ\"../../../": 9149,
      "Ġalias": 9150,
      "Ġchoices": 9151,
      "follow": 9152,
      "Ġcast": 9153,
      "Ġwest": 9154,
      "\"){": 9155,
      "Ġmachine": 9156,
      "ighest": 9157,
      "ĠOct": 9158,
      "................": 9159,
      "403": 9160,
      "horizontal": 9161,
      "ĠSchema": 9162,
      "isted": 9163,
      "ĠRel": 9164,
      "templates": 9165,
      "tabs": 9166,
      "Slide": 9167,
      "dynamic": 9168,
      "æı": 9169,
      "(\"%": 9170,
      "Ġguide": 9171,
      "pf": 9172,
      "isValid": 9173,
      "Ġ[]);": 9174,
      "ĠAddress": 9175,
      "Ġhope": 9176,
      "ares": 9177,
      "walk": 9178,
      "atur": 9179,
      "Marker": 9180,
      "Ġinvolved": 9181,
      "registry": 9182,
      "Ġsamp": 9183,
      "Ġbra": 9184,
      "Ġhover": 9185,
      "Ġproto": 9186,
      "Ġ:,": 9187,
      "double": 9188,
      "bits": 9189,
      "dn": 9190,
      "ij": 9191,
      "ZS": 9192,
      "Ġtiles": 9193,
      "exc": 9194,
      "Ġlives": 9195,
      "Ġsubscription": 9196,
      "XML": 9197,
      "[^": 9198,
      "ĠLayout": 9199,
      "riends": 9200,
      "ĠLI": 9201,
      "ĠOTHER": 9202,
      "Eval": 9203,
      "Ġdaily": 9204,
      "Ġ2009": 9205,
      "UpperCase": 9206,
      ",,": 9207,
      "AIN": 9208,
      "çİ": 9209,
      "Ġoverride": 9210,
      "Without": 9211,
      "Allow": 9212,
      "Distance": 9213,
      "Other": 9214,
      "UST": 9215,
      "}]": 9216,
      "Ġpull": 9217,
      "Rendering": 9218,
      "%',": 9219,
      "Ġ2013": 9220,
      "draft": 9221,
      "Ġfem": 9222,
      "Ġrepository": 9223,
      "Ġnavigation": 9224,
      "lam": 9225,
      "ĠRender": 9226,
      "ãĥ¼": 9227,
      "CESS": 9228,
      "ĠEnvironment": 9229,
      "ç±»": 9230,
      "èī": 9231,
      "ato": 9232,
      "(\"--": 9233,
      "Workspace": 9234,
      "Phone": 9235,
      "Secret": 9236,
      "ĠÐ¿": 9237,
      "Ġeverything": 9238,
      "206": 9239,
      "uy": 9240,
      "deps": 9241,
      "Ġmult": 9242,
      "ĠOptions": 9243,
      "ORY": 9244,
      "Ġdemonstr": 9245,
      "Ġdegree": 9246,
      "sem": 9247,
      "Ġpt": 9248,
      "Character": 9249,
      "FileName": 9250,
      ");\\": 9251,
      "pause": 9252,
      "\"},[": 9253,
      "Ġessential": 9254,
      "ibling": 9255,
      "invoke": 9256,
      "ĠNow": 9257,
      "tech": 9258,
      "COMM": 9259,
      "legend": 9260,
      "BUG": 9261,
      "214": 9262,
      "|\\": 9263,
      "017": 9264,
      "ATTR": 9265,
      "ĠExec": 9266,
      "Ġmp": 9267,
      "ĠAR": 9268,
      "php": 9269,
      "MESS": 9270,
      "ĠInstitute": 9271,
      "ĠjQuery": 9272,
      "posure": 9273,
      "AGES": 9274,
      "AWS": 9275,
      "FQU": 9276,
      "ipp": 9277,
      "Returns": 9278,
      "Volume": 9279,
      "transfer": 9280,
      "Ġdescribed": 9281,
      "èĩ": 9282,
      "Repo": 9283,
      "Ġdimensions": 9284,
      "gulp": 9285,
      "haps": 9286,
      "Ġ))": 9287,
      "abstract": 9288,
      "iry": 9289,
      "logies": 9290,
      "Ġshift": 9291,
      "buttons": 9292,
      "Ġshell": 9293,
      "earer": 9294,
      "Scal": 9295,
      "tty": 9296,
      "irds": 9297,
      "Ġobserv": 9298,
      "swers": 9299,
      "WE": 9300,
      "levant": 9301,
      "Declaration": 9302,
      "Activity": 9303,
      "Uint": 9304,
      "Ġnight": 9305,
      "ĠAug": 9306,
      "signal": 9307,
      "ricult": 9308,
      "$(\"#": 9309,
      "WR": 9310,
      "kn": 9311,
      "sil": 9312,
      "//#": 9313,
      "undred": 9314,
      "Ġ%(": 9315,
      "Unknown": 9316,
      "statusCode": 9317,
      "LOW": 9318,
      "Ġpositions": 9319,
      "Backend": 9320,
      "åŃĹ": 9321,
      "STRING": 9322,
      "Fill": 9323,
      "ĠCell": 9324,
      "Ġ{/*": 9325,
      "charAt": 9326,
      "ceeded": 9327,
      "Ġrepe": 9328,
      "examples": 9329,
      "Ġheld": 9330,
      "('%": 9331,
      "Ġshadow": 9332,
      "overlay": 9333,
      "Buttons": 9334,
      "missing": 9335,
      "Ġquantity": 9336,
      "ĠWhile": 9337,
      "Ġattempt": 9338,
      "cG": 9339,
      "wind": 9340,
      "Ġ2017": 9341,
      "hist": 9342,
      "Ġclosed": 9343,
      "important": 9344,
      "Updated": 9345,
      "Ġsal": 9346,
      "Ġsheet": 9347,
      "Ġsvg": 9348,
      "ssor": 9349,
      "0001": 9350,
      "Ġprepare": 9351,
      "Ġpurpose": 9352,
      "ĠPartial": 9353,
      "NING": 9354,
      "cluded": 9355,
      "Ġfiltered": 9356,
      "sorted": 9357,
      "Ġactivation": 9358,
      "men": 9359,
      "Ġcri": 9360,
      "extends": 9361,
      "ivot": 9362,
      "Ġsets": 9363,
      "isions": 9364,
      "Ġpkg": 9365,
      "ĠDOM": 9366,
      "Plan": 9367,
      "Variables": 9368,
      "Ġxmlns": 9369,
      "odies": 9370,
      "scan": 9371,
      "pathname": 9372,
      "Ġinfluence": 9373,
      "ç¤º": 9374,
      "DP": 9375,
      "Ġbelieve": 9376,
      "ked": 9377,
      "arter": 9378,
      "arity": 9379,
      "thesis": 9380,
      "OLD": 9381,
      "Ġautomatically": 9382,
      "565": 9383,
      "eep": 9384,
      "ĠLib": 9385,
      "products": 9386,
      "304": 9387,
      "PES": 9388,
      "Inline": 9389,
      "âĶĢâĶĢâĶĢâĶĢ": 9390,
      "åĩº": 9391,
      "Ġmatching": 9392,
      "Modules": 9393,
      "Bind": 9394,
      "Padding": 9395,
      "æģ": 9396,
      "Ġnuc": 9397,
      "=%": 9398,
      "Ġcategories": 9399,
      "AST": 9400,
      "Pick": 9401,
      "adapter": 9402,
      "ĠCSS": 9403,
      "HEAD": 9404,
      "clarations": 9405,
      "Sample": 9406,
      "}))": 9407,
      "005": 9408,
      "Ġmeas": 9409,
      "Ġdeveloping": 9410,
      "Widgets": 9411,
      "fra": 9412,
      "fname": 9413,
      "}'.": 9414,
      "Ġindividuals": 9415,
      "Binding": 9416,
      "Missing": 9417,
      "here": 9418,
      "exceptions": 9419,
      "(\"-": 9420,
      "ĠDay": 9421,
      "DEF": 9422,
      ">';": 9423,
      "AK": 9424,
      "hub": 9425,
      "vn": 9426,
      "StrictEqual": 9427,
      "ignKey": 9428,
      "Ġcomments": 9429,
      "Cursor": 9430,
      "queeze": 9431,
      "Ġcredentials": 9432,
      "Ġsuc": 9433,
      "114": 9434,
      "requests": 9435,
      "ĠYour": 9436,
      "Ġtherefore": 9437,
      "Minutes": 9438,
      "Ġlabor": 9439,
      "éĹ´": 9440,
      "Look": 9441,
      "bid": 9442,
      "Conf": 9443,
      "Ġorg": 9444,
      "Tuple": 9445,
      "Ġseason": 9446,
      "ĠUt": 9447,
      "||!": 9448,
      "Ġ180": 9449,
      "stitution": 9450,
      "Ġwarnings": 9451,
      "ano": 9452,
      "unfinished": 9453,
      "ĠDav": 9454,
      "ĠHigh": 9455,
      "Ġcentral": 9456,
      "Pair": 9457,
      "Speed": 9458,
      "Ġ43": 9459,
      "ĠQue": 9460,
      "Overlay": 9461,
      "Join": 9462,
      "Ġwarm": 9463,
      "ipy": 9464,
      "sources": 9465,
      "Ġpriority": 9466,
      "lated": 9467,
      "wall": 9468,
      "zon": 9469,
      "Ġ'&": 9470,
      "Ġpara": 9471,
      "targets": 9472,
      "mediately": 9473,
      "Ġcorresponding": 9474,
      "Gui": 9475,
      "ç®": 9476,
      "ĠNav": 9477,
      "vals": 9478,
      "Ġ600": 9479,
      "hostname": 9480,
      "sap": 9481,
      "Reals": 9482,
      "Namespace": 9483,
      "cells": 9484,
      "Ġ~": 9485,
      "Ġhabit": 9486,
      "Ġassess": 9487,
      "\"]:": 9488,
      "partment": 9489,
      "EVENT": 9490,
      "MAN": 9491,
      "]',": 9492,
      "ĠMax": 9493,
      "Cannot": 9494,
      "restore": 9495,
      "Ġfriend": 9496,
      "ĠBook": 9497,
      "ĠuseCallback": 9498,
      "Ġcritical": 9499,
      "Fixture": 9500,
      "Ġdot": 9501,
      "Inject": 9502,
      "REQUEST": 9503,
      "WT": 9504,
      "Ġreli": 9505,
      "Ġcont": 9506,
      "oted": 9507,
      "indic": 9508,
      "Ġtele": 9509,
      "ĠCalifornia": 9510,
      "NG": 9511,
      "Team": 9512,
      "even": 9513,
      "Ġgenerally": 9514,
      "extensions": 9515,
      "1024": 9516,
      "ĠTransaction": 9517,
      "Ġindent": 9518,
      "ĠAssert": 9519,
      "Ġrotation": 9520,
      "bert": 9521,
      "istant": 9522,
      "subscription": 9523,
      "Relation": 9524,
      "å¯¹": 9525,
      "Ġtheory": 9526,
      "Ġhit": 9527,
      "Identity": 9528,
      "ĠReference": 9529,
      "axes": 9530,
      "cordion": 9531,
      "localStorage": 9532,
      "Memo": 9533,
      "############": 9534,
      "Ġ2008": 9535,
      "cient": 9536,
      "Ġconcent": 9537,
      "ĠStep": 9538,
      "crete": 9539,
      "Ġcra": 9540,
      "coh": 9541,
      "033": 9542,
      "efficient": 9543,
      "tar": 9544,
      "Break": 9545,
      "hp": 9546,
      "Ġanimal": 9547,
[...]
